{
  "version": "1.0",
  "truncation": null,
  "padding": null,
  "added_tokens": [],
  "normalizer": null,
  "pre_tokenizer": {
    "type": "BertPreTokenizer"
  },
  "post_processor": {
    "type": "BertProcessing",
    "sep": [
      "[SEP]",
      1
    ],
    "cls": [
      "[CLS]",
      2
    ]
  },
  "decoder": {
    "type": "WordPiece",
    "prefix": "##",
    "cleanup": true
  },
  "model": {
    "type": "WordPiece",
    "unk_token": "[UNK]",
    "continuing_subword_prefix": "##",
    "max_input_chars_per_word": 4,
    "vocab": {
      "0": 0,
      "1": 1,
      "2": 2,
      "3": 3,
      "4": 4,
      "5": 5,
      "6": 6,
      "7": 7,
      "8": 8,
      "9": 9,
      "a": 10,
      "b": 11,
      "c": 12,
      "d": 13,
      "e": 14,
      "f": 15,
      "##1": 16,
      "##d": 17,
      "##4": 18,
      "##a": 19,
      "##8": 20,
      "##b": 21,
      "##7": 22,
      "##6": 23,
      "##5": 24,
      "##0": 25,
      "##f": 26,
      "##9": 27,
      "##2": 28,
      "##3": 29,
      "##c": 30,
      "##e": 31,
      "00": 32,
      "##00": 33,
      "01": 34,
      "000": 35,
      "08": 36,
      "0a": 37,
      "03": 38,
      "10": 39,
      "##01": 40,
      "02": 41,
      "0000": 42,
      "17": 43,
      "##0a": 44,
      "001": 45,
      "32": 46,
      "##03": 47,
      "18": 48,
      "##50": 49,
      "73": 50,
      "23": 51,
      "de": 52,
      "21": 53,
      "50": 54,
      "be": 55,
      "61": 56,
      "6f": 57,
      "05": 58,
      "aa": 59,
      "1a": 60,
      "ff": 61,
      "7c": 62,
      "69": 63,
      "cc": 64,
      "ed": 65,
      "62": 66,
      "4f": 67,
      "55": 68,
      "04": 69,
      "4a": 70,
      "a7": 71,
      "010": 72,
      "33": 73,
      "37": 74,
      "79": 75,
      "76": 76,
      "11": 77,
      "38": 78,
      "31": 79,
      "4e": 80,
      "2a": 81,
      "22": 82,
      "a5": 83,
      "5b": 84,
      "81": 85,
      "6e": 86,
      "90": 87,
      "bb": 88,
      "7b": 89,
      "39": 90,
      "64": 91,
      "51": 92,
      "63": 93,
      "52": 94,
      "34": 95,
      "36": 96,
      "28": 97,
      "a4": 98,
      "a6": 99,
      "09": 100,
      "80": 101,
      "5e": 102,
      "fe": 103,
      "2d": 104,
      "97": 105,
      "5d": 106,
      "65": 107,
      "e8": 108,
      "fd": 109,
      "108": 110,
      "4c": 111,
      "24": 112,
      "91": 113,
      "1e": 114,
      "1d": 115,
      "0c": 116,
      "41": 117,
      "29": 118,
      "53": 119,
      "13": 120,
      "14": 121,
      "d9": 122,
      "8d": 123,
      "43": 124,
      "68": 125,
      "6d": 126,
      "4b": 127,
      "a1": 128,
      "75": 129,
      "6a": 130,
      "ac": 131,
      "77": 132,
      "5a": 133,
      "26": 134,
      "35": 135,
      "07": 136,
      "b2": 137,
      "1f": 138,
      "47": 139,
      "06": 140,
      "f5": 141,
      "4d": 142,
      "f4": 143,
      "3f": 144,
      "0b": 145,
      "54": 146,
      "66": 147,
      "7f": 148,
      "0101": 149,
      "9d": 150,
      "12": 151,
      "96": 152,
      "1b": 153,
      "e6": 154,
      "16": 155,
      "f1": 156,
      "88": 157,
      "3b": 158,
      "0f": 159,
      "0d": 160,
      "44": 161,
      "f3": 162,
      "e9": 163,
      "fc": 164,
      "3e": 165,
      "2c": 166,
      "d8": 167,
      "72": 168,
      "85": 169,
      "42": 170,
      "49": 171,
      "ad": 172,
      "8f": 173,
      "74": 174,
      "98": 175,
      "92": 176,
      "89": 177,
      "57": 178,
      "7e": 179,
      "d1": 180,
      "59": 181,
      "a8": 182,
      "fb": 183,
      "af": 184,
      "da": 185,
      "45": 186,
      "48": 187,
      "3a": 188,
      "82": 189,
      "58": 190,
      "5f": 191,
      "f9": 192,
      "83": 193,
      "bf": 194,
      "2e": 195,
      "080a": 196,
      "b3": 197,
      "e1": 198,
      "c1": 199,
      "c4": 200,
      "67": 201,
      "3d": 202,
      "5c": 203,
      "0e": 204,
      "b9": 205,
      "9b": 206,
      "87": 207,
      "ea": 208,
      "fa": 209,
      "7a": 210,
      "2f": 211,
      "20": 212,
      "15": 213,
      "19": 214,
      "f6": 215,
      "86": 216,
      "46": 217,
      "27": 218,
      "c9": 219,
      "e3": 220,
      "25": 221,
      "2b": 222,
      "a3": 223,
      "6c": 224,
      "3c": 225,
      "6b": 226,
      "56": 227,
      "f2": 228,
      "f8": 229,
      "d6": 230,
      "a2": 231,
      "93": 232,
      "b4": 233,
      "e7": 234,
      "b6": 235,
      "78": 236,
      "ab": 237,
      "7d": 238,
      "d3": 239,
      "1c": 240,
      "a0": 241,
      "d4": 242,
      "8e": 243,
      "db": 244,
      "ec": 245,
      "d7": 246,
      "71": 247,
      "9f": 248,
      "99": 249,
      "e2": 250,
      "ce": 251,
      "e4": 252,
      "f7": 253,
      "cf": 254,
      "b1": 255,
      "84": 256,
      "df": 257,
      "b5": 258,
      "9e": 259,
      "ba": 260,
      "c8": 261,
      "8b": 262,
      "bd": 263,
      "ee": 264,
      "c6": 265,
      "9a": 266,
      "70": 267,
      "cb": 268,
      "eb": 269,
      "a9": 270,
      "dd": 271,
      "d5": 272,
      "ae": 273,
      "ef": 274,
      "bc": 275,
      "d2": 276,
      "c3": 277,
      "b8": 278,
      "94": 279,
      "8a": 280,
      "8c": 281,
      "95": 282,
      "c7": 283,
      "e5": 284,
      "dc": 285,
      "cd": 286,
      "b7": 287,
      "9c": 288,
      "ca": 289,
      "c2": 290,
      "60": 291,
      "c5": 292,
      "30": 293,
      "f0": 294,
      "40": 295,
      "b0": 296,
      "e0": 297,
      "d0": 298,
      "c0": 299,
      "002": 300,
      "100": 301,
      "a00": 302,
      "030": 303,
      "501": 304,
      "303": 305,
      "0002": 306,
      "e00": 307,
      "##de": 308,
      "003": 309,
      "1703": 310,
      "##6f": 311,
      "0a0": 312,
      "##ed": 313,
      "##73": 314,
      "##69": 315,
      "##62": 316,
      "900": 317,
      "021": 318,
      "0a7": 319,
      "##ff": 320,
      "200": 321,
      "##7b": 322,
      "##bb": 323,
      "##aa": 324,
      "##81": 325,
      "##61": 326,
      "##4a": 327,
      "800": 328,
      "##76": 329,
      "##55": 330,
      "801": 331,
      "##32": 332,
      "0300": 333,
      "##4e": 334,
      "##91": 335,
      "##5b": 336,
      "##52": 337,
      "##7c": 338,
      "##cc": 339,
      "##70": 340,
      "##6e": 341,
      "##2a": 342,
      "##f5": 343,
      "032": 344,
      "##6a": 345,
      "210": 346,
      "##45": 347,
      "##77": 348,
      "500": 349,
      "##fe": 350,
      "de0": 351,
      "##33": 352,
      "##53": 353,
      "##f3": 354,
      "##4c": 355,
      "##60": 356,
      "##98": 357,
      "##21": 358,
      "##a6": 359,
      "##65": 360,
      "##a4": 361,
      "400": 362,
      "##38": 363,
      "##20": 364,
      "##fd": 365,
      "##92": 366,
      "##68": 367,
      "##64": 368,
      "##da": 369,
      "##b9": 370,
      "##c9": 371,
      "##34": 372,
      "##1f": 373,
      "f00": 374,
      "##9d": 375,
      "##d8": 376,
      "##28": 377,
      "5018": 378,
      "##41": 379,
      "##47": 380,
      "##fb": 381,
      "##95": 382,
      "##63": 383,
      "##b5": 384,
      "##51": 385,
      "##b2": 386,
      "##6c": 387,
      "##39": 388,
      "##48": 389,
      "##5d": 390,
      "##bf": 391,
      "##6d": 392,
      "##a0": 393,
      "##4f": 394,
      "##36": 395,
      "##31": 396,
      "##d6": 397,
      "##e6": 398,
      "##5c": 399,
      "##43": 400,
      "##9b": 401,
      "##54": 402,
      "##e8": 403,
      "##37": 404,
      "##7a": 405,
      "##57": 406,
      "##35": 407,
      "300": 408,
      "##10": 409,
      "##67": 410,
      "##ea": 411,
      "##44": 412,
      "##e1": 413,
      "##29": 414,
      "##f9": 415,
      "##4d": 416,
      "##af": 417,
      "##66": 418,
      "##7f": 419,
      "##2c": 420,
      "##99": 421,
      "##8f": 422,
      "##f0": 423,
      "b00": 424,
      "##d1": 425,
      "##75": 426,
      "##f4": 427,
      "##ec": 428,
      "##fc": 429,
      "##86": 430,
      "##8e": 431,
      "##74": 432,
      "##22": 433,
      "##3f": 434,
      "##b6": 435,
      "##d5": 436,
      "##97": 437,
      "c00": 438,
      "bede": 439,
      "##72": 440,
      "##5e": 441,
      "##2e": 442,
      "##78": 443,
      "##7e": 444,
      "##e5": 445,
      "##e9": 446,
      "##26": 447,
      "##dd": 448,
      "##ba": 449,
      "##96": 450,
      "##58": 451,
      "##f2": 452,
      "##83": 453,
      "##a8": 454,
      "##4b": 455,
      "##b4": 456,
      "##79": 457,
      "##fa": 458,
      "##40": 459,
      "##9a": 460,
      "##a1": 461,
      "##02": 462,
      "##25": 463,
      "##59": 464,
      "##24": 465,
      "##d7": 466,
      "##49": 467,
      "##a5": 468,
      "##9e": 469,
      "##2f": 470,
      "##27": 471,
      "##db": 472,
      "##3c": 473,
      "##c0": 474,
      "##e3": 475,
      "##dc": 476,
      "##5a": 477,
      "##6b": 478,
      "##56": 479,
      "##93": 480,
      "##71": 481,
      "##1a": 482,
      "##8d": 483,
      "##9f": 484,
      "##8b": 485,
      "##87": 486,
      "##1e": 487,
      "600": 488,
      "700": 489,
      "##80": 490,
      "##b3": 491,
      "##c8": 492,
      "##84": 493,
      "##5f": 494,
      "##46": 495,
      "##e2": 496,
      "##90": 497,
      "##d9": 498,
      "##e4": 499,
      "##17": 500,
      "##f8": 501,
      "##8a": 502,
      "##e0": 503,
      "##c6": 504,
      "##14": 505,
      "##ce": 506,
      "##cf": 507,
      "##f6": 508,
      "##c4": 509,
      "##89": 510,
      "##ad": 511,
      "##9c": 512,
      "##bc": 513,
      "##82": 514,
      "##c5": 515,
      "##3d": 516,
      "##b1": 517,
      "##3b": 518,
      "##be": 519,
      "##94": 520,
      "##df": 521,
      "180": 522,
      "##23": 523,
      "##85": 524,
      "##ae": 525,
      "##f1": 526,
      "##2d": 527,
      "##c7": 528,
      "##bd": 529,
      "##7d": 530,
      "##2b": 531,
      "##d4": 532,
      "##c1": 533,
      "##e7": 534,
      "d00": 535,
      "##88": 536,
      "##b8": 537,
      "##cd": 538,
      "##cb": 539,
      "##ef": 540,
      "##eb": 541,
      "##13": 542,
      "##d2": 543,
      "##30": 544,
      "##f7": 545,
      "##c3": 546,
      "##16": 547,
      "##d0": 548,
      "017": 549,
      "##12": 550,
      "##a3": 551,
      "##ee": 552,
      "##8c": 553,
      "##ac": 554,
      "##0b": 555,
      "##3e": 556,
      "##3a": 557,
      "##b0": 558,
      "##b7": 559,
      "##d3": 560,
      "5010": 561,
      "##1d": 562,
      "##09": 563,
      "##ca": 564,
      "##42": 565,
      "##11": 566,
      "##15": 567,
      "##a7": 568,
      "##c2": 569,
      "##a2": 570,
      "##a9": 571,
      "##1b": 572,
      "##19": 573,
      "##1c": 574,
      "##18": 575,
      "0a5": 576,
      "##ab": 577,
      "##0f": 578,
      "##0d": 579,
      "##05": 580,
      "##0e": 581,
      "##08": 582,
      "##0c": 583,
      "##06": 584,
      "##04": 585,
      "##07": 586,
      "8010": 587,
      "ccc": 588,
      "906f": 589,
      "aaa": 590,
      "008": 591,
      "0023": 592,
      "00ed": 593,
      "690": 594,
      "555": 595,
      "a79": 596,
      "a05": 597,
      "4a0": 598,
      "817": 599,
      "004": 600,
      "0a1": 601,
      "a73": 602,
      "050": 603,
      "3be": 604,
      "0001": 605,
      "a7c": 606,
      "01bb": 607,
      "020": 608,
      "175": 609,
      "a1a": 610,
      "f4f": 611,
      "950": 612,
      "550": 613,
      "0a4": 614,
      "73b": 615,
      "1be": 616,
      "301": 617,
      "005": 618,
      "91b": 619,
      "a5e": 620,
      "88d": 621,
      "0562": 622,
      "4b69": 623,
      "007": 624,
      "0017": 625,
      "bb0": 626,
      "450": 627,
      "aa0": 628,
      "203": 629,
      "18f": 630,
      "650": 631,
      "d50": 632,
      "02a": 633,
      "ac4a": 634,
      "023": 635,
      "022": 636,
      "f50": 637,
      "6a0": 638,
      "520": 639,
      "028": 640,
      "750": 641,
      "350": 642,
      "1f0": 643,
      "006": 644,
      "250": 645,
      "e80": 646,
      "b50": 647,
      "850": 648,
      "a4f": 649,
      "c50": 650,
      "a01": 651,
      "a50": 652,
      "320": 653,
      "363": 654,
      "0a6": 655,
      "e50": 656,
      "a51": 657,
      "ab0": 658,
      "920": 659,
      "380": 660,
      "040": 661,
      "150": 662,
      "090": 663,
      "7573": 664,
      "4f81": 665,
      "333": 666,
      "503": 667,
      "009": 668,
      "0800": 669,
      "323": 670,
      "8dcc": 671,
      "cc91": 672,
      "00b": 673,
      "027": 674,
      "029": 675,
      "e90": 676,
      "024": 677,
      "b03": 678,
      "0a2": 679,
      "00c": 680,
      "383": 681,
      "0ad": 682,
      "00a": 683,
      "101": 684,
      "aaaa": 685,
      "5e76": 686,
      "23e": 687,
      "f39": 688,
      "3e8": 689,
      "397": 690,
      "c4a": 691,
      "b01": 692,
      "8ff": 693,
      "005b": 694,
      "680": 695,
      "628": 696,
      "007b": 697,
      "00d": 698,
      "00e": 699,
      "f01": 700,
      "026": 701,
      "c90": 702,
      "ad9": 703,
      "840": 704,
      "201": 705,
      "280": 706,
      "401": 707,
      "0050": 708,
      "025": 709,
      "4c4": 710,
      "238": 711,
      "f80": 712,
      "d80": 713,
      "a88": 714,
      "c01": 715,
      "230": 716,
      "601": 717,
      "105": 718,
      "285": 719,
      "00f": 720,
      "140": 721,
      "6e8": 722,
      "abe": 723,
      "b9b": 724,
      "9b3": 725,
      "d90": 726,
      "980": 727,
      "502": 728,
      "701": 729,
      "901": 730,
      "f90": 731,
      "703": 732,
      "530": 733,
      "696": 734,
      "a08": 735,
      "1a0": 736,
      "0a3": 737,
      "dab": 738,
      "0ab": 739,
      "d01": 740,
      "170": 741,
      "e01": 742,
      "5555": 743,
      "0ac": 744,
      "990": 745,
      "00f5": 746,
      "880": 747,
      "2aa": 748,
      "646": 749,
      "17f": 750,
      "261": 751,
      "080": 752,
      "a37": 753,
      "838": 754,
      "f0a": 755,
      "ff0": 756,
      "504": 757,
      "a68": 758,
      "343": 759,
      "7b2": 760,
      "165": 761,
      "217": 762,
      "733": 763,
      "616": 764,
      "ff4": 765,
      "a0a": 766,
      "3d0": 767,
      "ac1": 768,
      "603": 769,
      "f03": 770,
      "0a8": 771,
      "1aa4": 772,
      "060": 773,
      "af0": 774,
      "02b": 775,
      "510": 776,
      "313": 777,
      "a80": 778,
      "805": 779,
      "a5a": 780,
      "9f0": 781,
      "190": 782,
      "636": 783,
      "fe9": 784,
      "202": 785,
      "373": 786,
      "36f": 787,
      "623": 788,
      "290": 789,
      "393": 790,
      "018": 791,
      "109": 792,
      "40a": 793,
      "656": 794,
      "0d0": 795,
      "b90": 796,
      "a20": 797,
      "376": 798,
      "043": 799,
      "890": 800,
      "a90": 801,
      "0100": 802,
      "480": 803,
      "17e": 804,
      "3b0": 805,
      "490": 806,
      "610": 807,
      "626": 808,
      "9e0": 809,
      "390": 810,
      "b80": 811,
      "770": 812,
      "c30": 813,
      "9be": 814,
      "1e0": 815,
      "47b": 816,
      "580": 817,
      "737b": 818,
      "bf1": 819,
      "337": 820,
      "702": 821,
      "231": 822,
      "336": 823,
      "c80": 824,
      "6f0": 825,
      "a60": 826,
      "0aa": 827,
      "820": 828,
      "d0a": 829,
      "1aa6": 830,
      "142": 831,
      "c9b": 832,
      "fff": 833,
      "917": 834,
      "7c5": 835,
      "430": 836,
      "a10": 837,
      "011": 838,
      "016": 839,
      "070": 840,
      "7f4": 841,
      "220": 842,
      "073": 843,
      "b60": 844,
      "632": 845,
      "96e": 846,
      "981": 847,
      "465": 848,
      "860": 849,
      "ed0": 850,
      "561": 851,
      "184": 852,
      "2c0": 853,
      "0e0": 854,
      "872": 855,
      "288": 856,
      "f52": 857,
      "8f0": 858,
      "a02": 859,
      "803": 860,
      "802": 861,
      "37c": 862,
      "20a": 863,
      "a61": 864,
      "164": 865,
      "d3aa": 866,
      "2ed": 867,
      "7a0": 868,
      "1e6": 869,
      "ac0": 870,
      "617": 871,
      "01c": 872,
      "235": 873,
      "e0a": 874,
      "773": 875,
      "01b": 876,
      "0004": 877,
      "102": 878,
      "582": 879,
      "780": 880,
      "e76a": 881,
      "620": 882,
      "590": 883,
      "c57": 884,
      "f40": 885,
      "903": 886,
      "7c0": 887,
      "1fc": 888,
      "bf0": 889,
      "ad0": 890,
      "ea0": 891,
      "e6b": 892,
      "9c0": 893,
      "bf4": 894,
      "01a": 895,
      "766": 896,
      "970": 897,
      "6e2": 898,
      "302": 899,
      "7bf": 900,
      "9d0": 901,
      "187": 902,
      "6f6": 903,
      "790": 904,
      "9d1": 905,
      "e2d": 906,
      "d87": 907,
      "d18": 908,
      "4d0": 909,
      "a59": 910,
      "236": 911,
      "7c4": 912,
      "62e": 913,
      "7b8": 914,
      "730": 915,
      "0022": 916,
      "763": 917,
      "160": 918,
      "237": 919,
      "044": 920,
      "910": 921,
      "0c0": 922,
      "46f": 923,
      "70a": 924,
      "a03": 925,
      "4e0": 926,
      "232": 927,
      "117": 928,
      "4c0": 929,
      "041": 930,
      "c02": 931,
      "c03": 932,
      "3f4": 933,
      "60a": 934,
      "e03": 935,
      "9a0": 936,
      "326": 937,
      "517": 938,
      "af5": 939,
      "402": 940,
      "50a": 941,
      "01e": 942,
      "b58": 943,
      "fd4": 944,
      "7f0": 945,
      "b17": 946,
      "403": 947,
      "a70": 948,
      "f20": 949,
      "777": 950,
      "d02": 951,
      "410": 952,
      "535": 953,
      "0b0": 954,
      "717": 955,
      "216": 956,
      "339": 957,
      "353": 958,
      "183": 959,
      "e10": 960,
      "940": 961,
      "a40": 962,
      "f02": 963,
      "039": 964,
      "f17": 965,
      "4e3": 966,
      "688": 967,
      "d17": 968,
      "6fa": 969,
      "0018": 970,
      "221": 971,
      "e17": 972,
      "120": 973,
      "103": 974,
      "a23": 975,
      "8f8": 976,
      "d49": 977,
      "b05": 978,
      "961": 979,
      "80a": 980,
      "361": 981,
      "2f0": 982,
      "b10": 983,
      "b02": 984,
      "960": 985,
      "6f7": 986,
      "a30": 987,
      "d03": 988,
      "a5d": 989,
      "653": 990,
      "239": 991,
      "317": 992,
      "8c0": 993,
      "9b0": 994,
      "8e6": 995,
      "a4d": 996,
      "3e0": 997,
      "7b6": 998,
      "e88": 999,
      "83f": 1000,
      "a17": 1001,
      "8a0": 1002,
      "0f9": 1003,
      "737": 1004,
      "613": 1005,
      "6ff": 1006,
      "d10": 1007,
      "76a": 1008,
      "8d0": 1009,
      "417": 1010,
      "434": 1011,
      "d70": 1012,
      "602": 1013,
      "7b5": 1014,
      "240": 1015,
      "2b0": 1016,
      "8e0": 1017,
      "21a": 1018,
      "da0": 1019,
      "dc0": 1020,
      "b70": 1021,
      "7c4e": 1022,
      "130": 1023,
      "260": 1024,
      "a4c": 1025,
      "eda": 1026,
      "370": 1027,
      "35b": 1028,
      "e02": 1029,
      "03f": 1030,
      "0ff": 1031,
      "0301": 1032,
      "524": 1033,
      "c40": 1034,
      "222": 1035,
      "b20": 1036,
      "0f0": 1037,
      "454": 1038,
      "5b0": 1039,
      "851f": 1040,
      "455": 1041,
      "cb0": 1042,
      "037": 1043,
      "9b4": 1044,
      "015": 1045,
      "c17": 1046,
      "f95": 1047,
      "930": 1048,
      "604": 1049,
      "630": 1050,
      "01f": 1051,
      "340": 1052,
      "d60": 1053,
      "ba0": 1054,
      "440": 1055,
      "b0a": 1056,
      "23a": 1057,
      "21d": 1058,
      "537": 1059,
      "a18": 1060,
      "6b0": 1061,
      "013": 1062,
      "fd0": 1063,
      "902": 1064,
      "2e0": 1065,
      "a4e": 1066,
      "fe0": 1067,
      "1d0": 1068,
      "830": 1069,
      "d20": 1070,
      "5e0": 1071,
      "0bb": 1072,
      "837": 1073,
      "95b": 1074,
      "270": 1075,
      "a62": 1076,
      "776": 1077,
      "b40": 1078,
      "04d": 1079,
      "f70": 1080,
      "02c": 1081,
      "ed4": 1082,
      "420": 1083,
      "d40": 1084,
      "0121": 1085,
      "2a6": 1086,
      "1b0": 1087,
      "740": 1088,
      "810": 1089,
      "4b0": 1090,
      "870": 1091,
      "8b0": 1092,
      "cd0": 1093,
      "470": 1094,
      "354": 1095,
      "085": 1096,
      "042": 1097,
      "e60": 1098,
      "660": 1099,
      "e3b": 1100,
      "001e": 1101,
      "c0a": 1102,
      "531": 1103,
      "014": 1104,
      "01d": 1105,
      "360": 1106,
      "ae0": 1107,
      "6f9": 1108,
      "ce0": 1109,
      "215": 1110,
      "e67": 1111,
      "f60": 1112,
      "f632": 1113,
      "734": 1114,
      "6f5": 1115,
      "fb0": 1116,
      "e40": 1117,
      "707": 1118,
      "735": 1119,
      "437": 1120,
      "02f": 1121,
      "035": 1122,
      "dbe": 1123,
      "6fe": 1124,
      "edb": 1125,
      "661": 1126,
      "dd9": 1127,
      "1aa0": 1128,
      "ef0": 1129,
      "d58": 1130,
      "934": 1131,
      "90a": 1132,
      "10f": 1133,
      "012": 1134,
      "5be": 1135,
      "396": 1136,
      "266": 1137,
      "e30": 1138,
      "bc0": 1139,
      "02d": 1140,
      "aaf": 1141,
      "a6e": 1142,
      "f30": 1143,
      "6f4": 1144,
      "3f0": 1145,
      "6cc": 1146,
      "7d0": 1147,
      "316": 1148,
      "445": 1149,
      "001d": 1150,
      "310": 1151,
      "8fd": 1152,
      "614": 1153,
      "224": 1154,
      "638": 1155,
      "414": 1156,
      "eb0": 1157,
      "b89": 1158,
      "a63": 1159,
      "fd5": 1160,
      "676": 1161,
      "051": 1162,
      "ed9": 1163,
      "6d0": 1164,
      "e20": 1165,
      "034": 1166,
      "6f2": 1167,
      "7b7": 1168,
      "133": 1169,
      "545": 1170,
      "570": 1171,
      "ed1": 1172,
      "643": 1173,
      "135": 1174,
      "3a8": 1175,
      "d68": 1176,
      "2d0": 1177,
      "074": 1178,
      "587": 1179,
      "1c0": 1180,
      "7373": 1181,
      "760": 1182,
      "f5d": 1183,
      "3f5": 1184,
      "fa0": 1185,
      "2a0": 1186,
      "f10": 1187,
      "3a0": 1188,
      "ea5": 1189,
      "019": 1190,
      "30a": 1191,
      "c60": 1192,
      "640": 1193,
      "141": 1194,
      "6c0": 1195,
      "7b0": 1196,
      "15f3": 1197,
      "6fc": 1198,
      "460": 1199,
      "02e": 1200,
      "be0": 1201,
      "634": 1202,
      "987": 1203,
      "110": 1204,
      "386": 1205,
      "5d0": 1206,
      "982": 1207,
      "116": 1208,
      "f5f": 1209,
      "4e7": 1210,
      "a69": 1211,
      "e61": 1212,
      "c61": 1213,
      "635": 1214,
      "710": 1215,
      "bbf": 1216,
      "392": 1217,
      "5a0": 1218,
      "4e5": 1219,
      "e8c": 1220,
      "5f0": 1221,
      "b30": 1222,
      "560": 1223,
      "cbe": 1224,
      "ee0": 1225,
      "346": 1226,
      "a64": 1227,
      "bd0": 1228,
      "7c61": 1229,
      "ed3": 1230,
      "541": 1231,
      "df0": 1232,
      "6fd": 1233,
      "330": 1234,
      "225": 1235,
      "3c0": 1236,
      "234": 1237,
      "0bc": 1238,
      "223": 1239,
      "720": 1240,
      "6f1": 1241,
      "04c": 1242,
      "4f0": 1243,
      "13a": 1244,
      "540": 1245,
      "ca0": 1246,
      "05a": 1247,
      "0e1": 1248,
      "879": 1249,
      "935": 1250,
      "6fb": 1251,
      "ff3": 1252,
      "265": 1253,
      "c20": 1254,
      "b45": 1255,
      "104": 1256,
      "34b": 1257,
      "565": 1258,
      "cc0": 1259,
      "685": 1260,
      "031": 1261,
      "4fd": 1262,
      "a552": 1263,
      "ffe": 1264,
      "670": 1265,
      "c70": 1266,
      "262": 1267,
      "6cd": 1268,
      "a7f": 1269,
      "3cb": 1270,
      "5bb": 1271,
      "061": 1272,
      "db0": 1273,
      "0a9": 1274,
      "107": 1275,
      "736": 1276,
      "666": 1277,
      "5c0": 1278,
      "174": 1279,
      "049": 1280,
      "ede": 1281,
      "fc0": 1282,
      "c4c": 1283,
      "ec0": 1284,
      "2c3": 1285,
      "0e3": 1286,
      "412": 1287,
      "f31": 1288,
      "b5f": 1289,
      "ff1": 1290,
      "ff6": 1291,
      "fc4": 1292,
      "825": 1293,
      "15f": 1294,
      "ed5": 1295,
      "768": 1296,
      "11a": 1297,
      "6f8": 1298,
      "765": 1299,
      "e70": 1300,
      "695": 1301,
      "243": 1302,
      "544": 1303,
      "728": 1304,
      "7e0": 1305,
      "4e6": 1306,
      "131": 1307,
      "485": 1308,
      "0e9": 1309,
      "cf0": 1310,
      "7a5": 1311,
      "61a": 1312,
      "244": 1313,
      "8d5": 1314,
      "aff": 1315,
      "c10": 1316,
      "45d": 1317,
      "d30": 1318,
      "dd0": 1319,
      "611": 1320,
      "81a": 1321,
      "6e0": 1322,
      "813": 1323,
      "749": 1324,
      "612": 1325,
      "233": 1326,
      "ed2": 1327,
      "625": 1328,
      "1d4": 1329,
      "edd": 1330,
      "1d8": 1331,
      "0c1": 1332,
      "a24": 1333,
      "b1a": 1334,
      "a55": 1335,
      "0fe": 1336,
      "4f5": 1337,
      "a54": 1338,
      "f4d": 1339,
      "ef7": 1340,
      "7c3": 1341,
      "ed8": 1342,
      "62a": 1343,
      "4e8": 1344,
      "86f": 1345,
      "863": 1346,
      "176": 1347,
      "764": 1348,
      "169": 1349,
      "bee": 1350,
      "1d7": 1351,
      "5ba": 1352,
      "41a": 1353,
      "124": 1354,
      "0fd": 1355,
      "332": 1356,
      "5b2": 1357,
      "5d8": 1358,
      "0b5": 1359,
      "e1a": 1360,
      "e31": 1361,
      "ffff": 1362,
      "1e4": 1363,
      "a13": 1364,
      "52d": 1365,
      "ed7": 1366,
      "b36e": 1367,
      "fe6": 1368,
      "5b7": 1369,
      "26e": 1370,
      "ff5": 1371,
      "a21": 1372,
      "138": 1373,
      "675": 1374,
      "17c": 1375,
      "7c6": 1376,
      "147": 1377,
      "edf": 1378,
      "e15": 1379,
      "2a7": 1380,
      "2a2": 1381,
      "7f1": 1382,
      "808": 1383,
      "205": 1384,
      "3c5": 1385,
      "de5": 1386,
      "9db9": 1387,
      "854": 1388,
      "705": 1389,
      "59d": 1390,
      "2e3": 1391,
      "312": 1392,
      "fe5": 1393,
      "fd3": 1394,
      "064": 1395,
      "1d9": 1396,
      "769": 1397,
      "179": 1398,
      "61e": 1399,
      "6f3": 1400,
      "806": 1401,
      "0f1": 1402,
      "d53": 1403,
      "b12": 1404,
      "2d5": 1405,
      "03d": 1406,
      "374": 1407,
      "bfd": 1408,
      "209": 1409,
      "292": 1410,
      "76e": 1411,
      "60c": 1412,
      "697": 1413,
      "371": 1414,
      "d1a": 1415,
      "c05": 1416,
      "985": 1417,
      "b6d": 1418,
      "21e": 1419,
      "2f6": 1420,
      "f04": 1421,
      "aac": 1422,
      "0cf": 1423,
      "594": 1424,
      "df5": 1425,
      "edc": 1426,
      "264": 1427,
      "875": 1428,
      "177": 1429,
      "189": 1430,
      "05f": 1431,
      "1e1": 1432,
      "f26": 1433,
      "b44": 1434,
      "d4c": 1435,
      "0af": 1436,
      "036": 1437,
      "325": 1438,
      "767": 1439,
      "bb6": 1440,
      "578": 1441,
      "e1d": 1442,
      "fa3": 1443,
      "86d": 1444,
      "045": 1445,
      "76b": 1446,
      "fdf": 1447,
      "352": 1448,
      "6b1": 1449,
      "5b9": 1450,
      "09d": 1451,
      "14d": 1452,
      "438": 1453,
      "f58": 1454,
      "da1": 1455,
      "2e6": 1456,
      "de2a": 1457,
      "055": 1458,
      "34a": 1459,
      "2ff": 1460,
      "a0f": 1461,
      "4e2": 1462,
      "e870": 1463,
      "413": 1464,
      "6d5": 1465,
      "3d1": 1466,
      "365": 1467,
      "242": 1468,
      "275": 1469,
      "4c1": 1470,
      "745": 1471,
      "fb5": 1472,
      "931": 1473,
      "046": 1474,
      "815": 1475,
      "241": 1476,
      "497": 1477,
      "965": 1478,
      "0bf": 1479,
      "e69": 1480,
      "e62": 1481,
      "44c": 1482,
      "f75": 1483,
      "181": 1484,
      "21c": 1485,
      "f4c": 1486,
      "ce9": 1487,
      "31a": 1488,
      "4e4": 1489,
      "3f7": 1490,
      "9db": 1491,
      "b61": 1492,
      "04e": 1493,
      "bb1": 1494,
      "ce1": 1495,
      "5b1": 1496,
      "51a": 1497,
      "d9e": 1498,
      "2ce": 1499,
      "c1a": 1500,
      "76d": 1501,
      "f1a": 1502,
      "74f": 1503,
      "862": 1504,
      "255": 1505,
      "e45": 1506,
      "c31": 1507,
      "136": 1508,
      "065": 1509,
      "12e": 1510,
      "e68": 1511,
      "152": 1512,
      "dd4": 1513,
      "272": 1514,
      "366": 1515,
      "081": 1516,
      "ff7": 1517,
      "096": 1518,
      "2f3": 1519,
      "d5d": 1520,
      "03a": 1521,
      "5b6": 1522,
      "a66": 1523,
      "182": 1524,
      "ffa": 1525,
      "ed6": 1526,
      "642": 1527,
      "1df": 1528,
      "474": 1529,
      "a58": 1530,
      "291": 1531,
      "29e": 1532,
      "077": 1533,
      "1a5": 1534,
      "6e6": 1535,
      "f5b": 1536,
      "9d9": 1537,
      "ffb": 1538,
      "335": 1539,
      "076": 1540,
      "b35": 1541,
      "3d8": 1542,
      "04b": 1543,
      "047": 1544,
      "226": 1545,
      "36e": 1546,
      "2d92": 1547,
      "472": 1548,
      "27e": 1549,
      "d64": 1550,
      "db3": 1551,
      "513": 1552,
      "3a5": 1553,
      "7af": 1554,
      "3c4": 1555,
      "bb4": 1556,
      "069": 1557,
      "063": 1558,
      "f5e": 1559,
      "0d3": 1560,
      "e5a": 1561,
      "621": 1562,
      "13e": 1563,
      "4d1": 1564,
      "3ad": 1565,
      "155": 1566,
      "713": 1567,
      "e25": 1568,
      "bd5": 1569,
      "aa6": 1570,
      "37e": 1571,
      "a1b": 1572,
      "07f": 1573,
      "2f5": 1574,
      "36d": 1575,
      "588": 1576,
      "706": 1577,
      "054": 1578,
      "a42": 1579,
      "a06": 1580,
      "06d": 1581,
      "964": 1582,
      "8f9": 1583,
      "4d9": 1584,
      "e65": 1585,
      "b63": 1586,
      "c6d": 1587,
      "21b": 1588,
      "2a9": 1589,
      "804": 1590,
      "07e": 1591,
      "f53": 1592,
      "163": 1593,
      "196": 1594,
      "ef5": 1595,
      "ffc": 1596,
      "35d": 1597,
      "1ff": 1598,
      "d8b": 1599,
      "87a": 1600,
      "eaf": 1601,
      "f61": 1602,
      "b59": 1603,
      "5b8": 1604,
      "a49": 1605,
      "127": 1606,
      "0eb": 1607,
      "d7a": 1608,
      "693": 1609,
      "11e": 1610,
      "097": 1611,
      "7ff": 1612,
      "61c": 1613,
      "057": 1614,
      "4db": 1615,
      "125": 1616,
      "74d": 1617,
      "fb1": 1618,
      "459": 1619,
      "482": 1620,
      "5c5": 1621,
      "066": 1622,
      "f5c": 1623,
      "0f2": 1624,
      "106": 1625,
      "4ada": 1626,
      "2a5": 1627,
      "206": 1628,
      "738": 1629,
      "814": 1630,
      "d4a": 1631,
      "71a": 1632,
      "b15": 1633,
      "60f": 1634,
      "21f": 1635,
      "067": 1636,
      "038": 1637,
      "807": 1638,
      "f5a": 1639,
      "273": 1640,
      "569": 1641,
      "70d": 1642,
      "615": 1643,
      "5b5": 1644,
      "726": 1645,
      "5ca": 1646,
      "311": 1647,
      "349": 1648,
      "1d5": 1649,
      "f59": 1650,
      "f47": 1651,
      "0f5": 1652,
      "44e": 1653,
      "45f": 1654,
      "218": 1655,
      "76c": 1656,
      "4be": 1657,
      "855": 1658,
      "5ff": 1659,
      "9b5": 1660,
      "ff9": 1661,
      "4fe": 1662,
      "d33": 1663,
      "a97": 1664,
      "aef": 1665,
      "8000": 1666,
      "03c": 1667,
      "342": 1668,
      "369": 1669,
      "09f": 1670,
      "915": 1671,
      "f51": 1672,
      "f55": 1673,
      "e66": 1674,
      "279": 1675,
      "03b": 1676,
      "ff8": 1677,
      "a47": 1678,
      "148": 1679,
      "431": 1680,
      "68c": 1681,
      "d12": 1682,
      "0ea": 1683,
      "b7a": 1684,
      "053": 1685,
      "4ff": 1686,
      "2a4": 1687,
      "bb2": 1688,
      "24e": 1689,
      "06e": 1690,
      "724": 1691,
      "27f": 1692,
      "e74": 1693,
      "05d": 1694,
      "52c": 1695,
      "fee": 1696,
      "13f": 1697,
      "f56": 1698,
      "af1": 1699,
      "058": 1700,
      "ffd": 1701,
      "973": 1702,
      "436": 1703,
      "35c": 1704,
      "f35": 1705,
      "fc8": 1706,
      "a85": 1707,
      "bf8": 1708,
      "05c": 1709,
      "314": 1710,
      "5b4": 1711,
      "247": 1712,
      "597": 1713,
      "5fd": 1714,
      "151": 1715,
      "9ef": 1716,
      "d57": 1717,
      "033": 1718,
      "22a": 1719,
      "fd9": 1720,
      "75b": 1721,
      "c41": 1722,
      "20e": 1723,
      "ce4c": 1724,
      "622": 1725,
      "048": 1726,
      "25f": 1727,
      "d65": 1728,
      "22d": 1729,
      "07d": 1730,
      "3f1": 1731,
      "662": 1732,
      "7d2": 1733,
      "d31": 1734,
      "e05": 1735,
      "23f": 1736,
      "508": 1737,
      "1a1": 1738,
      "62b": 1739,
      "331": 1740,
      "398": 1741,
      "5d1": 1742,
      "079": 1743,
      "44d": 1744,
      "d1f": 1745,
      "f6f": 1746,
      "b1f": 1747,
      "732": 1748,
      "6e7": 1749,
      "0bd": 1750,
      "a2f": 1751,
      "b8e": 1752,
      "61d": 1753,
      "5bd": 1754,
      "0be": 1755,
      "5f8": 1756,
      "251": 1757,
      "505": 1758,
      "228": 1759,
      "5bc": 1760,
      "fef": 1761,
      "0b6": 1762,
      "34e": 1763,
      "368": 1764,
      "0d5": 1765,
      "f32": 1766,
      "48f": 1767,
      "0e2": 1768,
      "a07": 1769,
      "17d": 1770,
      "bb5": 1771,
      "348": 1772,
      "43d": 1773,
      "d14": 1774,
      "204": 1775,
      "b65": 1776,
      "a92": 1777,
      "507": 1778,
      "059": 1779,
      "55a": 1780,
      "a75": 1781,
      "a5f": 1782,
      "fce": 1783,
      "6cb": 1784,
      "212": 1785,
      "289": 1786,
      "2c4": 1787,
      "8fa": 1788,
      "606": 1789,
      "f0c": 1790,
      "81d": 1791,
      "347": 1792,
      "fd6": 1793,
      "24d": 1794,
      "0f4": 1795,
      "8fb": 1796,
      "5f7": 1797,
      "a04": 1798,
      "d08": 1799,
      "28f": 1800,
      "13d": 1801,
      "443": 1802,
      "45a": 1803,
      "d0c": 1804,
      "62d": 1805,
      "4f8": 1806,
      "4ab": 1807,
      "518": 1808,
      "12b": 1809,
      "452": 1810,
      "5f2": 1811,
      "b41": 1812,
      "a12": 1813,
      "3ff": 1814,
      "665": 1815,
      "e64": 1816,
      "451": 1817,
      "e13": 1818,
      "f64": 1819,
      "276": 1820,
      "c64": 1821,
      "178": 1822,
      "052": 1823,
      "627": 1824,
      "62f": 1825,
      "791": 1826,
      "28e": 1827,
      "a48": 1828,
      "13b": 1829,
      "139": 1830,
      "351": 1831,
      "121": 1832,
      "f15": 1833,
      "15b": 1834,
      "e5b": 1835,
      "40c": 1836,
      "03e": 1837,
      "186": 1838,
      "1e3": 1839,
      "686": 1840,
      "f57": 1841,
      "821": 1842,
      "5c4": 1843,
      "274": 1844,
      "f21": 1845,
      "ef1": 1846,
      "c75": 1847,
      "554": 1848,
      "26d": 1849,
      "f54": 1850,
      "7fe": 1851,
      "fcf": 1852,
      "2cb": 1853,
      "57d": 1854,
      "7e8": 1855,
      "7e5": 1856,
      "fb2": 1857,
      "2e4": 1858,
      "563": 1859,
      "78d": 1860,
      "1c8": 1861,
      "db9": 1862,
      "b04": 1863,
      "188": 1864,
      "28a": 1865,
      "1ed": 1866,
      "d91": 1867,
      "d9d": 1868,
      "358": 1869,
      "95a": 1870,
      "761": 1871,
      "315": 1872,
      "245": 1873,
      "14e": 1874,
      "b2c": 1875,
      "7f9": 1876,
      "05b": 1877,
      "bb3": 1878,
      "091": 1879,
      "1fe": 1880,
      "12d": 1881,
      "0fa": 1882,
      "3d2": 1883,
      "d61": 1884,
      "d0d": 1885,
      "089": 1886,
      "23d": 1887,
      "ff2": 1888,
      "284": 1889,
      "657": 1890,
      "293": 1891,
      "856": 1892,
      "fbe": 1893,
      "b42": 1894,
      "8e3": 1895,
      "1a2": 1896,
      "4ee": 1897,
      "905": 1898,
      "647": 1899,
      "689": 1900,
      "5a5": 1901,
      "35f": 1902,
      "3a6": 1903,
      "197": 1904,
      "f7f": 1905,
      "056": 1906,
      "375": 1907,
      "a46": 1908,
      "134": 1909,
      "8d1": 1910,
      "b25": 1911,
      "0b4": 1912,
      "7f5": 1913,
      "f3c": 1914,
      "2c1": 1915,
      "7e6": 1916,
      "9a5": 1917,
      "082": 1918,
      "1a9": 1919,
      "22f": 1920,
      "8d8": 1921,
      "07c": 1922,
      "062": 1923,
      "45b": 1924,
      "f7a": 1925,
      "941": 1926,
      "086": 1927,
      "10c": 1928,
      "23b": 1929,
      "211": 1930,
      "629": 1931,
      "5e1": 1932,
      "f19": 1933,
      "a89": 1934,
      "5c2": 1935,
      "fa9": 1936,
      "f69": 1937,
      "a3c": 1938,
      "b5a": 1939,
      "c65": 1940,
      "708": 1941,
      "eff": 1942,
      "1ad": 1943,
      "227": 1944,
      "364": 1945,
      "5d9": 1946,
      "fd7": 1947,
      "1e5": 1948,
      "13c": 1949,
      "0f3": 1950,
      "92c": 1951,
      "573": 1952,
      "20f": 1953,
      "1e2": 1954,
      "41f": 1955,
      "f4b": 1956,
      "e96": 1957,
      "741": 1958,
      "898": 1959,
      "574": 1960,
      "7e9": 1961,
      "7ee": 1962,
      "af6": 1963,
      "25e": 1964,
      "2b1": 1965,
      "b6c": 1966,
      "eca": 1967,
      "709": 1968,
      "8a6": 1969,
      "608": 1970,
      "088": 1971,
      "17a": 1972,
      "172": 1973,
      "a45": 1974,
      "65a": 1975,
      "41d": 1976,
      "b23": 1977,
      "3f3": 1978,
      "0df": 1979,
      "85b2": 1980,
      "2e5": 1981,
      "b94": 1982,
      "865": 1983,
      "e38": 1984,
      "9f1": 1985,
      "b5d": 1986,
      "ee9": 1987,
      "955": 1988,
      "4f45": 1989,
      "33e": 1990,
      "6e5": 1991,
      "91a": 1992,
      "0c3": 1993,
      "6d3": 1994,
      "746": 1995,
      "572": 1996,
      "58e": 1997,
      "0e4": 1998,
      "564": 1999,
      "d6d": 2000,
      "a0e": 2001,
      "b51": 2002,
      "bc4": 2003,
      "084": 2004,
      "115": 2005,
      "4e9": 2006,
      "093": 2007,
      "fed": 2008,
      "161": 2009,
      "0fc": 2010,
      "0d2": 2011,
      "57c": 2012,
      "2ee": 2013,
      "50d": 2014,
      "62c": 2015,
      "521": 2016,
      "286": 2017,
      "6da": 2018,
      "b24": 2019,
      "0db": 2020,
      "3e6": 2021,
      "583": 2022,
      "f67": 2023,
      "cfc": 2024,
      "841": 2025,
      "607": 2026,
      "382": 2027,
      "4e1": 2028,
      "bbb": 2029,
      "34c": 2030,
      "09b": 2031,
      "0c5": 2032,
      "143": 2033,
      "1f7": 2034,
      "06f": 2035,
      "f1d": 2036,
      "f3d": 2037,
      "422": 2038,
      "ea98": 2039,
      "db1": 2040,
      "e4f": 2041,
      "de4": 2042,
      "aa5": 2043,
      "659": 2044,
      "0c6": 2045,
      "87f": 2046,
      "27d": 2047,
      "098": 2048,
      "bff": 2049,
      "46d": 2050,
      "d67": 2051,
      "bbe": 2052,
      "341": 2053,
      "362": 2054,
      "1ef": 2055,
      "533": 2056,
      "0f8": 2057,
      "82c": 2058,
      "f9d": 2059,
      "c4e": 2060,
      "d75": 2061,
      "94e": 2062,
      "083": 2063,
      "334": 2064,
      "523": 2065,
      "911": 2066,
      "751": 2067,
      "4d4": 2068,
      "0d9": 2069,
      "d1e": 2070,
      "c42": 2071,
      "ecb": 2072,
      "9af": 2073,
      "509": 2074,
      "624": 2075,
      "04a": 2076,
      "411": 2077,
      "6a4": 2078,
      "6a8": 2079,
      "bf5": 2080,
      "d42": 2081,
      "dfc": 2082,
      "ba5": 2083,
      "d5b": 2084,
      "8c5": 2085,
      "c51": 2086,
      "309": 2087,
      "52e": 2088,
      "539": 2089,
      "774": 2090,
      "77f": 2091,
      "881": 2092,
      "858": 2093,
      "7a8": 2094,
      "ce5": 2095,
      "d21": 2096,
      "dc9": 2097,
      "be9": 2098,
      "55b": 2099,
      "64e": 2100,
      "631": 2101,
      "345": 2102,
      "5a9": 2103,
      "1bd": 2104,
      "ad1": 2105,
      "ad5": 2106,
      "db5": 2107,
      "e47": 2108,
      "9a1": 2109,
      "10e": 2110,
      "219": 2111,
      "506": 2112,
      "552": 2113,
      "22c": 2114,
      "395": 2115,
      "fde": 2116,
      "355": 2117,
      "442": 2118,
      "d85": 2119,
      "5fb": 2120,
      "fab": 2121,
      "20c": 2122,
      "93a": 2123,
      "996": 2124,
      "cf1": 2125,
      "1a4": 2126,
      "bb7": 2127,
      "295": 2128,
      "29c": 2129,
      "42d": 2130,
      "ad8": 2131,
      "4f1": 2132,
      "812": 2133,
      "759": 2134,
      "359": 2135,
      "1b5": 2136,
      "b3a": 2137,
      "67f": 2138,
      "d7e": 2139,
      "7c8": 2140,
      "37f": 2141,
      "14a": 2142,
      "12f": 2143,
      "57a": 2144,
      "7ea": 2145,
      "7ef": 2146,
      "fbf": 2147,
      "c48": 2148,
      "461": 2149,
      "23c": 2150,
      "641": 2151,
      "5e5": 2152,
      "fec": 2153,
      "1ec": 2154,
      "149": 2155,
      "0fb": 2156,
      "496": 2157,
      "747": 2158,
      "671": 2159,
      "f6a": 2160,
      "84e": 2161,
      "70c": 2162,
      "d55": 2163,
      "c37": 2164,
      "33d": 2165,
      "0ce": 2166,
      "6d1": 2167,
      "f4a": 2168,
      "fcc": 2169,
      "82d": 2170,
      "b95": 2171,
      "e21": 2172,
      "8b5": 2173,
      "cd1": 2174,
      "f09": 2175,
      "213": 2176,
      "50c": 2177,
      "618": 2178,
      "61b": 2179,
      "fe8": 2180,
      "296": 2181,
      "3ed": 2182,
      "576": 2183,
      "fb6": 2184,
      "83e": 2185,
      "c11": 2186,
      "c95": 2187,
      "ec7": 2188,
      "a56": 2189,
      "5bf": 2190,
      "63b": 2191,
      "e89": 2192,
      "fd8": 2193,
      "d96": 2194,
      "d9f": 2195,
      "b21": 2196,
      "f42": 2197,
      "b31": 2198,
      "f6d": 2199,
      "861": 2200,
      "d2d": 2201,
      "e56": 2202,
      "beb": 2203,
      "344": 2204,
      "5d4": 2205,
      "1d1": 2206,
      "298": 2207,
      "7fa": 2208,
      "0d8": 2209,
      "458": 2210,
      "f99": 2211,
      "835": 2212,
      "6cf": 2213,
      "6b9": 2214,
      "d3b": 2215,
      "7ce": 2216,
      "04f": 2217,
      "79f": 2218,
      "90c": 2219,
      "36b": 2220,
      "4c3": 2221,
      "6d9": 2222,
      "075": 2223,
      "3b8": 2224,
      "441": 2225,
      "448": 2226,
      "e93": 2227,
      "da9": 2228,
      "672": 2229,
      "7a9": 2230,
      "f74": 2231,
      "cff": 2232,
      "dff": 2233,
      "bae": 2234,
      "f07": 2235,
      "73f": 2236,
      "557": 2237,
      "111": 2238,
      "22e": 2239,
      "519": 2240,
      "095": 2241,
      "2d3": 2242,
      "971": 2243,
      "1d6": 2244,
      "4d5": 2245,
      "2c6": 2246,
      "989": 2247,
      "d16": 2248,
      "256": 2249,
      "6c7": 2250,
      "6b5": 2251,
      "f2f": 2252,
      "8ef": 2253,
      "cb2": 2254,
      "d0b": 2255,
      "18d": 2256,
      "694": 2257,
      "7bc": 2258,
      "1db": 2259,
      "b29": 2260,
      "66d": 2261,
      "8f1": 2262,
      "9b6": 2263,
      "d23": 2264,
      "e57": 2265,
      "52f": 2266,
      "fe3": 2267,
      "294": 2268,
      "132": 2269,
      "6af": 2270,
      "35a": 2271,
      "35e": 2272,
      "06b": 2273,
      "3f8": 2274,
      "664": 2275,
      "12c": 2276,
      "0e7": 2277,
      "0ee": 2278,
      "191": 2279,
      "2b4": 2280,
      "f89": 2281,
      "e52": 2282,
      "cd2": 2283,
      "b7f": 2284,
      "d05": 2285,
      "de9": 2286,
      "50b": 2287,
      "a4b": 2288,
      "97e": 2289,
      "652": 2290,
      "137": 2291,
      "d95": 2292,
      "6de": 2293,
      "727": 2294,
      "925": 2295,
      "571": 2296,
      "3a2": 2297,
      "824": 2298,
      "159": 2299,
      "19e": 2300,
      "2bc": 2301,
      "d79": 2302,
      "73e": 2303,
      "1a8": 2304,
      "2ad": 2305,
      "09e": 2306,
      "feb": 2307,
      "4cf": 2308,
      "068": 2309,
      "f1c": 2310,
      "8fe": 2311,
      "48e": 2312,
      "254": 2313,
      "e24": 2314,
      "c89": 2315,
      "bce": 2316,
      "b81": 2317,
      "4aa": 2318,
      "529": 2319,
      "a6d": 2320,
      "5dd": 2321,
      "419": 2322,
      "75f": 2323,
      "1b2": 2324,
      "f11": 2325,
      "3b2": 2326,
      "2ef": 2327,
      "19d": 2328,
      "25d": 2329,
      "b4e": 2330,
      "e49": 2331,
      "306": 2332,
      "5b3": 2333,
      "282": 2334,
      "415": 2335,
      "772": 2336,
      "b27": 2337,
      "92d": 2338,
      "575": 2339,
      "a82": 2340,
      "afd": 2341,
      "45c": 2342,
      "486": 2343,
      "c12": 2344,
      "0ef": 2345,
      "87d": 2346,
      "876": 2347,
      "2be": 2348,
      "dbd": 2349,
      "e51": 2350,
      "50e": 2351,
      "33f": 2352,
      "11d": 2353,
      "114": 2354,
      "22b": 2355,
      "fe7": 2356,
      "5da": 2357,
      "0b1": 2358,
      "0b3": 2359,
      "fcb": 2360,
      "d11": 2361,
      "2f4": 2362,
      "19f": 2363,
      "b6f": 2364,
      "842": 2365,
      "d22": 2366,
      "951": 2367,
      "609": 2368,
      "39d": 2369,
      "34f": 2370,
      "80c": 2371,
      "97d": 2372,
      "755": 2373,
      "06c": 2374,
      "742": 2375,
      "5cd": 2376,
      "b62": 2377,
      "1c4": 2378,
      "d47": 2379,
      "d46": 2380,
      "795": 2381,
      "511": 2382,
      "24f": 2383,
      "297": 2384,
      "5af": 2385,
      "129": 2386,
      "0d6": 2387,
      "596": 2388,
      "2ec": 2389,
      "e37": 2390,
      "d69": 2391,
      "788": 2392,
      "ba6": 2393,
      "372": 2394,
      "796": 2395,
      "bbd": 2396,
      "094": 2397,
      "809": 2398,
      "fe1": 2399,
      "6ab": 2400,
      "6a6": 2401,
      "06a": 2402,
      "1ba": 2403,
      "e63": 2404,
      "444": 2405,
      "e95": 2406,
      "d83": 2407,
      "d8c": 2408,
      "57e": 2409,
      "7ec": 2410,
      "5f3": 2411,
      "83d": 2412,
      "e1f": 2413,
      "c97": 2414,
      "562": 2415,
      "b64": 2416,
      "ec6": 2417,
      "e4a": 2418,
      "e42": 2419,
      "b57": 2420,
      "9e1": 2421,
      "ba7": 2422,
      "e5d": 2423,
      "cd3": 2424,
      "05e": 2425,
      "aa3": 2426,
      "551": 2427,
      "bb9": 2428,
      "5ed": 2429,
      "2d7": 2430,
      "5d5": 2431,
      "24b": 2432,
      "75d": 2433,
      "071": 2434,
      "473": 2435,
      "128": 2436,
      "1b6": 2437,
      "893": 2438,
      "b9d": 2439,
      "b96": 2440,
      "877": 2441,
      "d7c": 2442,
      "e2f": 2443,
      "61f": 2444,
      "aa1": 2445,
      "698": 2446,
      "81f": 2447,
      "6e1": 2448,
      "4c5": 2449,
      "14b": 2450,
      "d99": 2451,
      "4b1": 2452,
      "fc5": 2453,
      "f8d": 2454,
      "d41": 2455,
      "db2": 2456,
      "947": 2457,
      "4f4": 2458,
      "38f": 2459,
      "81b": 2460,
      "5a7": 2461,
      "0ba": 2462,
      "0f6": 2463,
      "722": 2464,
      "b3e": 2465,
      "7a4": 2466,
      "e3d": 2467,
      "b6e": 2468,
      "991": 2469,
      "e44": 2470,
      "f71": 2471,
      "94f": 2472,
      "8c1": 2473,
      "959": 2474,
      "329": 2475,
      "1ab": 2476,
      "76f": 2477,
      "36c": 2478,
      "4c9": 2479,
      "0c9": 2480,
      "29d": 2481,
      "53d": 2482,
      "775": 2483,
      "072": 2484,
      "547": 2485,
      "969": 2486,
      "fc9": 2487,
      "729": 2488,
      "85d": 2489,
      "498": 2490,
      "499": 2491,
      "fb4": 2492,
      "fb9": 2493,
      "453": 2494,
      "f96": 2495,
      "7a3": 2496,
      "a31": 2497,
      "93d": 2498,
      "8ee": 2499,
      "ee5": 2500,
      "ef9": 2501,
      "e5f": 2502,
      "08d": 2503,
      "731": 2504,
      "11b": 2505,
      "385": 2506,
      "318": 2507,
      "2a3": 2508,
      "2ac": 2509,
      "281": 2510,
      "287": 2511,
      "435": 2512,
      "6d4": 2513,
      "b26": 2514,
      "f41": 2515,
      "0b7": 2516,
      "0b9": 2517,
      "54e": 2518,
      "7fc": 2519,
      "44f": 2520,
      "487": 2521,
      "589": 2522,
      "208": 2523,
      "f88": 2524,
      "936": 2525,
      "df2": 2526,
      "dc1": 2527,
      "f05": 2528,
      "08a": 2529,
      "4fb": 2530,
      "2a1": 2531,
      "34d": 2532,
      "14f": 2533,
      "75a": 2534,
      "66f": 2535,
      "1b8": 2536,
      "f3a": 2537,
      "927": 2538,
      "7ed": 2539,
      "67e": 2540,
      "2f1": 2541,
      "469": 2542,
      "e39": 2543,
      "f81": 2544,
      "e7d": 2545,
      "b67": 2546,
      "e23": 2547,
      "efd": 2548,
      "c5a": 2549,
      "171": 2550,
      "1ae": 2551,
      "55d": 2552,
      "a78": 2553,
      "797": 2554,
      "79c": 2555,
      "2a8": 2556,
      "229": 2557,
      "818": 2558,
      "6e4": 2559,
      "2d9": 2560,
      "534": 2561,
      "8d9": 2562,
      "6a1": 2563,
      "778": 2564,
      "267": 2565,
      "356": 2566,
      "3fc": 2567,
      "543": 2568,
      "96b": 2569,
      "1bc": 2570,
      "e6a": 2571,
      "42f": 2572,
      "922": 2573,
      "a86": 2574,
      "af4": 2575,
      "5f5": 2576,
      "5fc": 2577,
      "bfb": 2578,
      "b97": 2579,
      "7a1": 2580,
      "7ac": 2581,
      "b4d": 2582,
      "ec2": 2583,
      "995": 2584,
      "a9e": 2585,
      "38b": 2586,
      "2ae": 2587,
      "a6c": 2588,
      "fe4": 2589,
      "1bb": 2590,
      "166": 2591,
      "3e9": 2592,
      "d84": 2593,
      "723": 2594,
      "7e7": 2595,
      "581": 2596,
      "2e2": 2597,
      "15d": 2598,
      "19a": 2599,
      "f66": 2600,
      "b4a": 2601,
      "aba": 2602,
      "711": 2603,
      "998": 2604,
      "dfd": 2605,
      "bd7": 2606,
      "ae4": 2607,
      "b82": 2608,
      "e53": 2609,
      "dea": 2610,
      "798": 2611,
      "a5c": 2612,
      "24c": 2613,
      "8d7": 2614,
      "5ab": 2615,
      "263": 2616,
      "478": 2617,
      "1bf": 2618,
      "889": 2619,
      "428": 2620,
      "0e5": 2621,
      "ea3": 2622,
      "195": 2623,
      "8e2": 2624,
      "ece": 2625,
      "718": 2626,
      "bd1": 2627,
      "954": 2628,
      "cad": 2629,
      "60b": 2630,
      "b0c": 2631,
      "be6": 2632,
      "113": 2633,
      "515": 2634,
      "2db": 2635,
      "1dc": 2636,
      "758": 2637,
      "5a2": 2638,
      "b2e": 2639,
      "44b": 2640,
      "2c9": 2641,
      "579": 2642,
      "afb": 2643,
      "b39": 2644,
      "0e6": 2645,
      "0ec": 2646,
      "2f2": 2647,
      "b43": 2648,
      "e71": 2649,
      "e78": 2650,
      "781": 2651,
      "ecc": 2652,
      "994": 2653,
      "e4e": 2654,
      "9e6": 2655,
      "30c": 2656,
      "c09": 2657,
      "793": 2658,
      "633": 2659,
      "5d7": 2660,
      "65b": 2661,
      "0c4": 2662,
      "0c8": 2663,
      "6df": 2664,
      "3bd": 2665,
      "d82": 2666,
      "57b": 2667,
      "fbd": 2668,
      "3a4": 2669,
      "3ae": 2670,
      "822": 2671,
      "585": 2672,
      "2e9": 2673,
      "277": 2674,
      "d3e": 2675,
      "8e1": 2676,
      "df9": 2677,
      "8bd": 2678,
      "bde": 2679,
      "704": 2680,
      "305": 2681,
      "a7d": 2682,
      "33a": 2683,
      "648": 2684,
      "649": 2685,
      "512": 2686,
      "246": 2687,
      "1e8": 2688,
      "0c7": 2689,
      "532": 2690,
      "6d7": 2691,
      "7fd": 2692,
      "96d": 2693,
      "3e1": 2694,
      "748": 2695,
      "27a": 2696,
      "27b": 2697,
      "6c6": 2698,
      "f29": 2699,
      "a0b": 2700,
      "cec": 2701,
      "95d": 2702,
      "c71": 2703,
      "605": 2704,
      "08c": 2705,
      "811": 2706,
      "819": 2707,
      "644": 2708,
      "5ea": 2709,
      "fe2": 2710,
      "e84": 2711,
      "a14": 2712,
      "476": 2713,
      "1b4": 2714,
      "f38": 2715,
      "fc1": 2716,
      "d89": 2717,
      "d1c": 2718,
      "58f": 2719,
      "5c9": 2720,
      "ea4": 2721,
      "2b9": 2722,
      "d7d": 2723,
      "b52": 2724,
      "cb9": 2725,
      "e55": 2726,
      "10b": 2727,
      "322": 2728,
      "de8": 2729,
      "81e": 2730,
      "7b1": 2731,
      "a4a": 2732,
      "268": 2733,
      "7f2": 2734,
      "e6d": 2735,
      "d86": 2736,
      "d8e": 2737,
      "495": 2738,
      "599": 2739,
      "b32": 2740,
      "e7c": 2741,
      "7d9": 2742,
      "d74": 2743,
      "9ff": 2744,
      "c82": 2745,
      "8b1": 2746,
      "d56": 2747,
      "d5f": 2748,
      "e09": 2749,
      "18a": 2750,
      "cca": 2751,
      "a5b": 2752,
      "283": 2753,
      "2d6": 2754,
      "a1c": 2755,
      "5ac": 2756,
      "26b": 2757,
      "4de": 2758,
      "168": 2759,
      "3ee": 2760,
      "2cd": 2761,
      "57f": 2762,
      "fbc": 2763,
      "2bb": 2764,
      "6bb": 2765,
      "1c9": 2766,
      "9e9": 2767,
      "c69": 2768,
      "d06": 2769,
      "10a": 2770,
      "173": 2771,
      "7ca": 2772,
      "771": 2773,
      "d81": 2774,
      "421": 2775,
      "74a": 2776,
      "5cb": 2777,
      "9bd": 2778,
      "e35": 2779,
      "f84": 2780,
      "7da": 2781,
      "d5a": 2782,
      "bc5": 2783,
      "185": 2784,
      "214": 2785,
      "aa9": 2786,
      "69c": 2787,
      "11f": 2788,
      "31d": 2789,
      "4ed": 2790,
      "7b4": 2791,
      "28b": 2792,
      "09a": 2793,
      "b2a": 2794,
      "47d": 2795,
      "3fe": 2796,
      "7f6": 2797,
      "0de": 2798,
      "e97": 2799,
      "7e4": 2800,
      "463": 2801,
      "2b5": 2802,
      "e7e": 2803,
      "845": 2804,
      "8c7": 2805,
      "328": 2806,
      "7cb": 2807,
      "a7b": 2808,
      "119": 2809,
      "391": 2810,
      "80e": 2811,
      "fd1": 2812,
      "d97": 2813,
      "f4e": 2814,
      "3f2": 2815,
      "721": 2816,
      "45e": 2817,
      "bf3": 2818,
      "3d9": 2819,
      "5c3": 2820,
      "2fb": 2821,
      "157": 2822,
      "869": 2823,
      "464": 2824,
      "f25": 2825,
      "1c7": 2826,
      "ba4": 2827,
      "cb5": 2828,
      "8c6": 2829,
      "50f": 2830,
      "69d": 2831,
      "4f7": 2832,
      "792": 2833,
      "28c": 2834,
      "099": 2835,
      "65f": 2836,
      "249": 2837,
      "53a": 2838,
      "536": 2839,
      "26a": 2840,
      "72e": 2841,
      "921": 2842,
      "896": 2843,
      "bfc": 2844,
      "15a": 2845,
      "f65": 2846,
      "86a": 2847,
      "a38": 2848,
      "3c2": 2849,
      "a2d": 2850,
      "b47": 2851,
      "e76": 2852,
      "789": 2853,
      "db4": 2854,
      "dbc": 2855,
      "d73": 2856,
      "848": 2857,
      "bab": 2858,
      "e5c": 2859,
      "e0b": 2860,
      "32a": 2861,
      "68d": 2862,
      "a11": 2863,
      "123": 2864,
      "882": 2865,
      "e91": 2866,
      "d8f": 2867,
      "da3": 2868,
      "e3a": 2869,
      "2ba": 2870,
      "d66": 2871,
      "b4f": 2872,
      "e79": 2873,
      "712": 2874,
      "9f8": 2875,
      "ba3": 2876,
      "8b7": 2877,
      "bd9": 2878,
      "8a4": 2879,
      "b71": 2880,
      "9c6": 2881,
      "f0e": 2882,
      "32f": 2883,
      "aa4": 2884,
      "559": 2885,
      "762": 2886,
      "118": 2887,
      "4eb": 2888,
      "e8a": 2889,
      "918": 2890,
      "1ee": 2891,
      "1fd": 2892,
      "f49": 2893,
      "895": 2894,
      "d13": 2895,
      "da2": 2896,
      "192": 2897,
      "253": 2898,
      "25c": 2899,
      "2b2": 2900,
      "568": 2901,
      "ab2": 2902,
      "c85": 2903,
      "eb3": 2904,
      "c3a": 2905,
      "8a1": 2906,
      "405": 2907,
      "4a5": 2908,
      "a44": 2909,
      "4c8": 2910,
      "1e9": 2911,
      "16d": 2912,
      "72b": 2913,
      "85a": 2914,
      "494": 2915,
      "f9b": 2916,
      "e33": 2917,
      "56f": 2918,
      "d48": 2919,
      "e4b": 2920,
      "cfd": 2921,
      "ba8": 2922,
      "c86": 2923,
      "bca": 2924,
      "e58": 2925,
      "dc5": 2926,
      "b72": 2927,
      "d09": 2928,
      "18e": 2929,
      "1af": 2930,
      "ccb": 2931,
      "cc2": 2932,
      "4f2": 2933,
      "90d": 2934,
      "51d": 2935,
      "51e": 2936,
      "528": 2937,
      "5e9": 2938,
      "65e": 2939,
      "248": 2940,
      "146": 2941,
      "542": 2942,
      "af3": 2943,
      "f9c": 2944,
      "e1c": 2945,
      "5c1": 2946,
      "193": 2947,
      "b6a": 2948,
      "dba": 2949,
      "9fe": 2950,
      "f77": 2951,
      "cf7": 2952,
      "df4": 2953,
      "b5c": 2954,
      "bda": 2955,
      "bc2": 2956,
      "d24": 2957,
      "94b": 2958,
      "c59": 2959,
      "0305": 2960,
      "08e": 2961,
      "0ae": 2962,
      "be1": 2963,
      "ccf": 2964,
      "4ea": 2965,
      "51b": 2966,
      "432": 2967,
      "77c": 2968,
      "0b2": 2969,
      "126": 2970,
      "1b9": 2971,
      "e6e": 2972,
      "fc3": 2973,
      "2c5": 2974,
      "72a": 2975,
      "593": 2976,
      "af2": 2977,
      "5fa": 2978,
      "b91": 2979,
      "20d": 2980,
      "c96": 2981,
      "f85": 2982,
      "d45": 2983,
      "ec5": 2984,
      "ec9": 2985,
      "e26": 2986,
      "ee8": 2987,
      "406": 2988,
      "c0c": 2989,
      "18c": 2990,
      "aa2": 2991,
      "5de": 2992,
      "65c": 2993,
      "e8d": 2994,
      "078": 2995,
      "4d6": 2996,
      "549": 2997,
      "66c": 2998,
      "3ef": 2999,
      "851": 3000,
      "928": 3001,
      "577": 3002,
      "da5": 3003,
      "584": 3004,
      "c1d": 3005,
      "c45": 3006,
      "86c": 3007,
      "f2d": 3008,
      "f28": 3009,
      "b66": 3010,
      "78a": 3011,
      "ec1": 3012,
      "99f": 3013,
      "cfb": 3014,
      "dda": 3015,
      "0003": 3016,
      "08e6": 3017,
      "10d": 3018,
      "18b": 3019,
      "7bb": 3020,
      "522": 3021,
      "092": 3022,
      "5e8": 3023,
      "978": 3024,
      "fdd": 3025,
      "0cc": 3026,
      "5a1": 3027,
      "967": 3028,
      "d15": 3029,
      "af9": 3030,
      "5f1": 3031,
      "f97": 3032,
      "3cf": 3033,
      "f23": 3034,
      "93c": 3035,
      "783": 3036,
      "ab1": 3037,
      "d39": 3038,
      "cfe": 3039,
      "849": 3040,
      "bd8": 3041,
      "eea": 3042,
      "c6c": 3043,
      "ebb": 3044,
      "c0b": 3045,
      "73a": 3046,
      "bec": 3047,
      "4ba": 3048,
      "6a9": 3049,
      "07a": 3050,
      "963": 3051,
      "f3f": 3052,
      "89a": 3053,
      "da7": 3054,
      "67a": 3055,
      "199": 3056,
      "f27": 3057,
      "938": 3058,
      "b48": 3059,
      "b68": 3060,
      "abf": 3061,
      "d4e": 3062,
      "df1": 3063,
      "dde": 3064,
      "ae1": 3065,
      "bc1": 3066,
      "95f": 3067,
      "c2f": 3068,
      "60e": 3069,
      "c55": 3070,
      "be5": 3071,
      "1ac": 3072,
      "a72": 3073,
      "38d": 3074,
      "4ef": 3075,
      "bbc": 3076,
      "7b3": 3077,
      "1de": 3078,
      "acb": 3079,
      "77d": 3080,
      "66e": 3081,
      "725": 3082,
      "674": 3083,
      "b9e": 3084,
      "6c5": 3085,
      "e7f": 3086,
      "782": 3087,
      "7d8": 3088,
      "e48": 3089,
      "844": 3090,
      "eb1": 3091,
      "958": 3092,
      "d04": 3093,
      "619": 3094,
      "7ba": 3095,
      "416": 3096,
      "6a3": 3097,
      "07b": 3098,
      "4d8": 3099,
      "f45": 3100,
      "12a": 3101,
      "122": 3102,
      "f14": 3103,
      "8f4": 3104,
      "f92": 3105,
      "fae": 3106,
      "a0c": 3107,
      "997": 3108,
      "9ed": 3109,
      "9e8": 3110,
      "8c4": 3111,
      "e59": 3112,
      "30b": 3113,
      "0021": 3114,
      "73c": 3115,
      "7c1": 3116,
      "cc6": 3117,
      "377": 3118,
      "63d": 3119,
      "63a": 3120,
      "658": 3121,
      "e85": 3122,
      "4cc": 3123,
      "4ce": 3124,
      "77e": 3125,
      "e99": 3126,
      "8f7": 3127,
      "744": 3128,
      "fb7": 3129,
      "826": 3130,
      "831": 3131,
      "e16": 3132,
      "f62": 3133,
      "25a": 3134,
      "e22": 3135,
      "ceb": 3136,
      "f7d": 3137,
      "b11": 3138,
      "c6f": 3139,
      "a9f": 3140,
      "d26": 3141,
      "8a7": 3142,
      "32d": 3143,
      "bef": 3144,
      "aa7": 3145,
      "a52": 3146,
      "6e3": 3147,
      "5db": 3148,
      "4cd": 3149,
      "29f": 3150,
      "144": 3151,
      "6d6": 3152,
      "4b9": 3153,
      "6ad": 3154,
      "546": 3155,
      "9d8": 3156,
      "1b1": 3157,
      "885": 3158,
      "0da": 3159,
      "3e5": 3160,
      "489": 3161,
      "c19": 3162,
      "5c7": 3163,
      "5c6": 3164,
      "ea1": 3165,
      "7ae": 3166,
      "2fc": 3167,
      "f68": 3168,
      "f6b": 3169,
      "2b3": 3170,
      "b6b": 3171,
      "ec8": 3172,
      "999": 3173,
      "b18": 3174,
      "84a": 3175,
      "d5e": 3176,
      "c79": 3177,
      "28d": 3178,
      "4ca": 3179,
      "91d": 3180,
      "439": 3181,
      "f13": 3182,
      "8fc": 3183,
      "7e2": 3184,
      "d1b": 3185,
      "2e8": 3186,
      "2b6": 3187,
      "6bf": 3188,
      "d7f": 3189,
      "9fd": 3190,
      "b16": 3191,
      "b55": 3192,
      "cb1": 3193,
      "aed": 3194,
      "946": 3195,
      "304": 3196,
      "c08": 3197,
      "1a7": 3198,
      "39e": 3199,
      "64f": 3200,
      "525": 3201,
      "41c": 3202,
      "299": 3203,
      "53e": 3204,
      "752": 3205,
      "6a2": 3206,
      "47e": 3207,
      "491": 3208,
      "ad3": 3209,
      "fbb": 3210,
      "3a7": 3211,
      "827": 3212,
      "5f4": 3213,
      "5f6": 3214,
      "5fe": 3215,
      "67d": 3216,
      "673": 3217,
      "5ce": 3218,
      "7ab": 3219,
      "c98": 3220,
      "cfa": 3221,
      "cbb": 3222,
      "cdd": 3223,
      "b75": 3224,
      "c5d": 3225,
      "e04": 3226,
      "7c7": 3227,
      "cc5": 3228,
      "4f3": 3229,
      "55e": 3230,
      "4a1": 3231,
      "909": 3232,
      "fda": 3233,
      "29a": 3234,
      "68b": 3235,
      "5ad": 3236,
      "e6c": 3237,
      "3b5": 3238,
      "fcd": 3239,
      "429": 3240,
      "2e1": 3241,
      "679": 3242,
      "5c8": 3243,
      "ea6": 3244,
      "6b6": 3245,
      "ecd": 3246,
      "f79": 3247,
      "cf5": 3248,
      "8b3": 3249,
      "ae7": 3250,
      "c7d": 3251,
      "b06": 3252,
      "4f6": 3253,
      "556": 3254,
      "5e2": 3255,
      "2d8": 3256,
      "976": 3257,
      "654": 3258,
      "8df": 3259,
      "6aa": 3260,
      "96f": 3261,
      "833": 3262,
      "2fa": 3263,
      "ab5": 3264,
      "e2a": 3265,
      "cea": 3266,
      "cf8": 3267,
      "d2b": 3268,
      "c74": 3269,
      "c29": 3270,
      "fea": 3271,
      "5d6": 3272,
      "5d2": 3273,
      "0cb": 3274,
      "0c2": 3275,
      "d92": 3276,
      "684": 3277,
      "682": 3278,
      "1f5": 3279,
      "4df": 3280,
      "2cf": 3281,
      "897": 3282,
      "a8d": 3283,
      "dae": 3284,
      "481": 3285,
      "67b": 3286,
      "fa7": 3287,
      "15e": 3288,
      "2b7": 3289,
      "6c2": 3290,
      "56c": 3291,
      "785": 3292,
      "715": 3293,
      "d59": 3294,
      "942": 3295,
      "8a5": 3296,
      "408": 3297,
      "08f": 3298,
      "ccd": 3299,
      "4f9": 3300,
      "389": 3301,
      "367": 3302,
      "4c7": 3303,
      "14c": 3304,
      "75e": 3305,
      "b2d": 3306,
      "e12": 3307,
      "c44": 3308,
      "0ed": 3309,
      "156": 3310,
      "15c": 3311,
      "6c9": 3312,
      "784": 3313,
      "d43": 3314,
      "84f": 3315,
      "baf": 3316,
      "dd8": 3317,
      "d28": 3318,
      "c32": 3319,
      "de7": 3320,
      "699": 3321,
      "6ec": 3322,
      "a65": 3323,
      "5d3": 3324,
      "d93": 3325,
      "6d2": 3326,
      "4da": 3327,
      "4d3": 3328,
      "3b6": 3329,
      "447": 3330,
      "3ea": 3331,
      "2c2": 3332,
      "7eb": 3333,
      "f9f": 3334,
      "f93": 3335,
      "b33": 3336,
      "e14": 3337,
      "c4d": 3338,
      "2f9": 3339,
      "19c": 3340,
      "e72": 3341,
      "f72": 3342,
      "a91": 3343,
      "9c1": 3344,
      "c22": 3345,
      "321": 3346,
      "1a6": 3347,
      "a7a": 3348,
      "a77": 3349,
      "8d4": 3350,
      "6dd": 3351,
      "75c": 3352,
      "0b8": 3353,
      "1b3": 3354,
      "167": 3355,
      "0d1": 3356,
      "743": 3357,
      "591": 3358,
      "595": 3359,
      "a8f": 3360,
      "488": 3361,
      "839": 3362,
      "e11": 3363,
      "2fe": 3364,
      "a35": 3365,
      "f83": 3366,
      "932": 3367,
      "b53": 3368,
      "eec": 3369,
      "a96": 3370,
      "d51": 3371,
      "efc": 3372,
      "95c": 3373,
      "b0b": 3374,
      "be3": 3375,
      "cc1": 3376,
      "4fa": 3377,
      "379": 3378,
      "6eb": 3379,
      "39a": 3380,
      "64a": 3381,
      "637": 3382,
      "97c": 3383,
      "65d": 3384,
      "655": 3385,
      "e86": 3386,
      "1da": 3387,
      "7f7": 3388,
      "162": 3389,
      "f3e": 3390,
      "3eb": 3391,
      "d88": 3392,
      "59e": 3393,
      "afa": 3394,
      "456": 3395,
      "3a1": 3396,
      "f6e": 3397,
      "56d": 3398,
      "56e": 3399,
      "f86": 3400,
      "787": 3401,
      "a0d": 3402,
      "71e": 3403,
      "cf6": 3404,
      "ba2": 3405,
      "70f": 3406,
      "eb9": 3407,
      "dd7": 3408,
      "bcd": 3409,
      "1aa1": 3410,
      "514": 3411,
      "a41": 3412,
      "5e3": 3413,
      "4c6": 3414,
      "53f": 3415,
      "a1e": 3416,
      "269": 3417,
      "54f": 3418,
      "669": 3419,
      "0dc": 3420,
      "f36": 3421,
      "988": 3422,
      "f91": 3423,
      "e19": 3424,
      "e3e": 3425,
      "f22": 3426,
      "ec3": 3427,
      "bc8": 3428,
      "b83": 3429,
      "c78": 3430,
      "dca": 3431,
      "ca8": 3432,
      "6ee": 3433,
      "39f": 3434,
      "3938": 3435,
      "1e7": 3436,
      "ac6": 3437,
      "ada": 3438,
      "3a3": 3439,
      "83c": 3440,
      "bf9": 3441,
      "b34": 3442,
      "0e8": 3443,
      "e2b": 3444,
      "f78": 3445,
      "cf9": 3446,
      "8bb": 3447,
      "9a6": 3448,
      "c34": 3449,
      "ca7": 3450,
      "de1": 3451,
      "cce": 3452,
      "516": 3453,
      "639": 3454,
      "538": 3455,
      "d98": 3456,
      "683": 3457,
      "b2f": 3458,
      "475": 3459,
      "667": 3460,
      "f1e": 3461,
      "e9e": 3462,
      "425": 3463,
      "bfa": 3464,
      "b9f": 3465,
      "fa4": 3466,
      "468": 3467,
      "a36": 3468,
      "56a": 3469,
      "f82": 3470,
      "933": 3471,
      "1cb": 3472,
      "71c": 3473,
      "e2e": 3474,
      "a94": 3475,
      "ae5": 3476,
      "944": 3477,
      "8c2": 3478,
      "cd5": 3479,
      "b7d": 3480,
      "40b": 3481,
      "08b": 3482,
      "087": 3483,
      "69b": 3484,
      "6e9": 3485,
      "80f": 3486,
      "a15": 3487,
      "ac9": 3488,
      "f16": 3489,
      "fc2": 3490,
      "d1d": 3491,
      "f94": 3492,
      "198": 3493,
      "257": 3494,
      "f8f": 3495,
      "1c1": 3496,
      "d4f": 3497,
      "dbf": 3498,
      "847": 3499,
      "ba9": 3500,
      "c66": 3501,
      "9ae": 3502,
      "eb4": 3503,
      "eb6": 3504,
      "dd2": 3505,
      "c3e": 3506,
      "60d": 3507,
      "f0d": 3508,
      "32c": 3509,
      "739": 3510,
      "deb": 3511,
      "558": 3512,
      "4a9": 3513,
      "80d": 3514,
      "975": 3515,
      "26f": 3516,
      "f18": 3517,
      "adb": 3518,
      "da6": 3519,
      "83a": 3520,
      "9b9": 3521,
      "867": 3522,
      "462": 3523,
      "271": 3524,
      "278": 3525,
      "6b3": 3526,
      "e75": 3527,
      "a09": 3528,
      "99d": 3529,
      "ce8": 3530,
      "ba1": 3531,
      "bad": 3532,
      "eed": 3533,
      "c72": 3534,
      "cd9": 3535,
      "9c3": 3536,
      "c25": 3537,
      "f06": 3538,
      "11c": 3539,
      "a53": 3540,
      "36a": 3541,
      "97a": 3542,
      "43e": 3543,
      "4b3": 3544,
      "a16": 3545,
      "54a": 3546,
      "668": 3547,
      "e94": 3548,
      "d8a": 3549,
      "72d": 3550,
      "859": 3551,
      "926": 3552,
      "fb3": 3553,
      "dad": 3554,
      "48b": 3555,
      "b9a": 3556,
      "153": 3557,
      "46a": 3558,
      "259": 3559,
      "2bf": 3560,
      "a3e": 3561,
      "6b4": 3562,
      "7d1": 3563,
      "1ce": 3564,
      "9fb": 3565,
      "846": 3566,
      "bd6": 3567,
      "ee4": 3568,
      "c67": 3569,
      "d25": 3570,
      "dc8": 3571,
      "9cd": 3572,
      "7cd": 3573,
      "338": 3574,
      "112": 3575,
      "972": 3576,
      "756": 3577,
      "966": 3578,
      "3ac": 3579,
      "c1f": 3580,
      "b92": 3581,
      "fa1": 3582,
      "864": 3583,
      "2bd": 3584,
      "a32": 3585,
      "d3a": 3586,
      "d78": 3587,
      "c63": 3588,
      "8c8": 3589,
      "956": 3590,
      "c5b": 3591,
      "407": 3592,
      "919": 3593,
      "6a5": 3594,
      "77a": 3595,
      "357": 3596,
      "7fb": 3597,
      "96a": 3598,
      "e9d": 3599,
      "85b": 3600,
      "bf6": 3601,
      "27c": 3602,
      "258": 3603,
      "d6b": 3604,
      "1c5": 3605,
      "8b4": 3606,
      "a93": 3607,
      "949": 3608,
      "be4": 3609,
      "bea": 3610,
      "1aa": 3611,
      "79b": 3612,
      "5ec": 3613,
      "681": 3614,
      "4b8": 3615,
      "6a7": 3616,
      "5aa": 3617,
      "4d2": 3618,
      "54d": 3619,
      "886": 3620,
      "852": 3621,
      "f98": 3622,
      "2ea": 3623,
      "2eb": 3624,
      "5cf": 3625,
      "7aa": 3626,
      "c9d": 3627,
      "f8a": 3628,
      "d6e": 3629,
      "b49": 3630,
      "b69": 3631,
      "d4d": 3632,
      "719": 3633,
      "cf4": 3634,
      "ae8": 3635,
      "e54": 3636,
      "dc4": 3637,
      "c2b": 3638,
      "f08": 3639,
      "09c": 3640,
      "97f": 3641,
      "5df": 3642,
      "1eb": 3643,
      "a1f": 3644,
      "ac4": 3645,
      "471": 3646,
      "89d": 3647,
      "a84": 3648,
      "b36": 3649,
      "871": 3650,
      "46e": 3651,
      "e36": 3652,
      "a25": 3653,
      "93f": 3654,
      "1cf": 3655,
      "70e": 3656,
      "eb2": 3657,
      "b88": 3658,
      "8cb": 3659,
      "dc7": 3660,
      "dc3": 3661,
      "ca4": 3662,
      "73d": 3663,
      "be8": 3664,
      "69a": 3665,
      "69f": 3666,
      "4ac": 3667,
      "a74": 3668,
      "a76": 3669,
      "381": 3670,
      "2af": 3671,
      "bb8": 3672,
      "e81": 3673,
      "e83": 3674,
      "914": 3675,
      "ac3": 3676,
      "fc7": 3677,
      "7e1": 3678,
      "592": 3679,
      "48c": 3680,
      "82f": 3681,
      "f9a": 3682,
      "c14": 3683,
      "c1b": 3684,
      "87b": 3685,
      "6b8": 3686,
      "566": 3687,
      "e4d": 3688,
      "c8e": 3689,
      "c38": 3690,
      "cd4": 3691,
      "b7c": 3692,
      "c56": 3693,
      "b09": 3694,
      "4a7": 3695,
      "7bd": 3696,
      "7b9": 3697,
      "52b": 3698,
      "5e4": 3699,
      "433": 3700,
      "5a6": 3701,
      "887": 3702,
      "f34": 3703,
      "59f": 3704,
      "bfe": 3705,
      "c43": 3706,
      "3da": 3707,
      "eaa": 3708,
      "d6a": 3709,
      "7df": 3710,
      "d38": 3711,
      "9fa": 3712,
      "9f2": 3713,
      "e2c": 3714,
      "e4c": 3715,
      "94d": 3716,
      "952": 3717,
      "7cc": 3718,
      "691": 3719,
      "37b": 3720,
      "906": 3721,
      "24a": 3722,
      "145": 3723,
      "4b4": 3724,
      "757": 3725,
      "5a8": 3726,
      "663": 3727,
      "0d4": 3728,
      "ad6": 3729,
      "ad2": 3730,
      "ade": 3731,
      "67c": 3732,
      "fad": 3733,
      "6ca": 3734,
      "8ec": 3735,
      "71d": 3736,
      "f7c": 3737,
      "df6": 3738,
      "eee": 3739,
      "cbd": 3740,
      "d2a": 3741,
      "8ad": 3742,
      "9c8": 3743,
      "b0d": 3744,
      "55c": 3745,
      "37d": 3746,
      "6ea": 3747,
      "fdb": 3748,
      "4dd": 3749,
      "54c": 3750,
      "9d6": 3751,
      "72f": 3752,
      "49e": 3753,
      "faf": 3754,
      "e32": 3755,
      "3c1": 3756,
      "3c8": 3757,
      "a26": 3758,
      "d72": 3759,
      "b5e": 3760,
      "9e4": 3761,
      "c8d": 3762,
      "9a2": 3763,
      "70b": 3764,
      "c39": 3765,
      "8ac": 3766,
      "b74": 3767,
      "f0b": 3768,
      "be2": 3769,
      "a67": 3770,
      "2d2": 3771,
      "753": 3772,
      "b2b": 3773,
      "42a": 3774,
      "49b": 3775,
      "8f2": 3776,
      "2e7": 3777,
      "c49": 3778,
      "46b": 3779,
      "b54": 3780,
      "ebf": 3781,
      "aee": 3782,
      "8af": 3783,
      "c7b": 3784,
      "ca3": 3785,
      "c53": 3786,
      "e0c": 3787,
      "32e": 3788,
      "7cf": 3789,
      "a71": 3790,
      "31b": 3791,
      "51c": 3792,
      "5ef": 3793,
      "6dc": 3794,
      "4bf": 3795,
      "1b7": 3796,
      "857": 3797,
      "a81": 3798,
      "a87": 3799,
      "fa6": 3800,
      "207": 3801,
      "158": 3802,
      "c99": 3803,
      "e34": 3804,
      "937": 3805,
      "78f": 3806,
      "b56": 3807,
      "dd5": 3808,
      "ae9": 3809,
      "8a3": 3810,
      "e0d": 3811,
      "6ed": 3812,
      "63e": 3813,
      "651": 3814,
      "687": 3815,
      "6ac": 3816,
      "b28": 3817,
      "b22": 3818,
      "0dd": 3819,
      "f33": 3820,
      "72c": 3821,
      "423": 3822,
      "74e": 3823,
      "598": 3824,
      "fb8": 3825,
      "457": 3826,
      "87e": 3827,
      "f63": 3828,
      "f6c": 3829,
      "c92": 3830,
      "25b": 3831,
      "2b8": 3832,
      "6c8": 3833,
      "a22": 3834,
      "b46": 3835,
      "d4b": 3836,
      "9f9": 3837,
      "cee": 3838,
      "b13": 3839,
      "efa": 3840,
      "e5e": 3841,
      "c28": 3842,
      "cc8": 3843,
      "5e7": 3844,
      "979": 3845,
      "912": 3846,
      "29b": 3847,
      "43a": 3848,
      "3fd": 3849,
      "8f5": 3850,
      "983": 3851,
      "3af": 3852,
      "ea7": 3853,
      "6bd": 3854,
      "d34": 3855,
      "1c6": 3856,
      "8ed": 3857,
      "714": 3858,
      "ef4": 3859,
      "dcc": 3860,
      "324": 3861,
      "55f": 3862,
      "79d": 3863,
      "64d": 3864,
      "2d1": 3865,
      "8d2": 3866,
      "6db": 3867,
      "0d7": 3868,
      "3ec": 3869,
      "42e": 3870,
      "c46": 3871,
      "6ba": 3872,
      "f8c": 3873,
      "d6c": 3874,
      "7de": 3875,
      "71f": 3876,
      "b1d": 3877,
      "eb8": 3878,
      "ddf": 3879,
      "8ca": 3880,
      "c7e": 3881,
      "404": 3882,
      "e07": 3883,
      "5eb": 3884,
      "d9b": 3885,
      "5a4": 3886,
      "f44": 3887,
      "9da": 3888,
      "a8a": 3889,
      "586": 3890,
      "a3a": 3891,
      "a3b": 3892,
      "1c3": 3893,
      "ecf": 3894,
      "d7b": 3895,
      "ce7": 3896,
      "dfa": 3897,
      "c84": 3898,
      "8b8": 3899,
      "ee1": 3900,
      "ee6": 3901,
      "9a7": 3902,
      "aeb": 3903,
      "8ae": 3904,
      "caa": 3905,
      "3f9": 3906,
      "16e": 3907,
      "677": 3908,
      "faa": 3909,
      "194": 3910,
      "78b": 3911,
      "7dc": 3912,
      "9e5": 3913,
      "8b9": 3914,
      "eb5": 3915,
      "ae2": 3916,
      "c76": 3917,
      "cd7": 3918,
      "ca5": 3919,
      "f0f": 3920,
      "dec": 3921,
      "4fc": 3922,
      "378": 3923,
      "38e": 3924,
      "907": 3925,
      "526": 3926,
      "2de": 3927,
      "0cd": 3928,
      "16a": 3929,
      "3bf": 3930,
      "0f7": 3931,
      "85f": 3932,
      "afe": 3933,
      "873": 3934,
      "7d5": 3935,
      "e29": 3936,
      "ce3": 3937,
      "c81": 3938,
      "9ac": 3939,
      "ef8": 3940,
      "bcc": 3941,
      "d2f": 3942,
      "553": 3943,
      "91e": 3944,
      "41e": 3945,
      "4b6": 3946,
      "4dc": 3947,
      "f46": 3948,
      "9d5": 3949,
      "16b": 3950,
      "446": 3951,
      "92f": 3952,
      "892": 3953,
      "a8c": 3954,
      "678": 3955,
      "3db": 3956,
      "874": 3957,
      "20b": 3958,
      "e7a": 3959,
      "7db": 3960,
      "d32": 3961,
      "df3": 3962,
      "ee3": 3963,
      "cb8": 3964,
      "bc6": 3965,
      "e0e": 3966,
      "ded": 3967,
      "def": 3968,
      "4af": 3969,
      "908": 3970,
      "7f3": 3971,
      "e98": 3972,
      "5f9": 3973,
      "b3d": 3974,
      "e18": 3975,
      "a2e": 3976,
      "bc7": 3977,
      "b8f": 3978,
      "dc6": 3979,
      "b77": 3980,
      "c23": 3981,
      "30d": 3982,
      "30f": 3983,
      "388": 3984,
      "319": 3985,
      "2ca": 3986,
      "492": 3987,
      "3df": 3988,
      "d3c": 3989,
      "d44": 3990,
      "c6a": 3991,
      "cde": 3992,
      "409": 3993,
      "b08": 3994,
      "de6": 3995,
      "8d6": 3996,
      "e6f": 3997,
      "923": 3998,
      "484": 3999,
      "b98": 4000,
      "786": 4001,
      "df8": 4002,
      "dfe": 4003,
      "9ee": 4004,
      "ebc": 4005,
      "cd8": 4006,
      "9c7": 4007,
      "c5f": 4008,
      "17b": 4009,
      "be7": 4010,
      "cc9": 4011,
      "bba": 4012,
      "962": 4013,
      "e9a": 4014,
      "e9f": 4015,
      "467": 4016,
      "c9a": 4017,
      "3cd": 4018,
      "3ca": 4019,
      "f87": 4020,
      "ec4": 4021,
      "a9d": 4022,
      "d5c": 4023,
      "efb": 4024,
      "8a9": 4025,
      "9cf": 4026,
      "904": 4027,
      "a1d": 4028,
      "548": 4029,
      "f1f": 4030,
      "3b7": 4031,
      "986": 4032,
      "929": 4033,
      "59c": 4034,
      "a8b": 4035,
      "af8": 4036,
      "eac": 4037,
      "56b": 4038,
      "e41": 4039,
      "ee7": 4040,
      "cb3": 4041,
      "dd6": 4042,
      "ae6": 4043,
      "c3f": 4044,
      "943": 4045,
      "dc2": 4046,
      "cdb": 4047,
      "69e": 4048,
      "4a4": 4049,
      "4a2": 4050,
      "4a3": 4051,
      "33b": 4052,
      "2ab": 4053,
      "a57": 4054,
      "8db": 4055,
      "66b": 4056,
      "d8d": 4057,
      "85e": 4058,
      "49d": 4059,
      "adf": 4060,
      "f9e": 4061,
      "c15": 4062,
      "3d3": 4063,
      "86b": 4064,
      "3c9": 4065,
      "567": 4066,
      "d63": 4067,
      "7d4": 4068,
      "1ca": 4069,
      "d77": 4070,
      "bd4": 4071,
      "9a4": 4072,
      "dd1": 4073,
      "c7c": 4074,
      "c07": 4075,
      "c06": 4076,
      "4a8": 4077,
      "52a": 4078,
      "974": 4079,
      "4b5": 4080,
      "aca": 4081,
      "ac5": 4082,
      "47c": 4083,
      "9dc": 4084,
      "85c": 4085,
      "ad7": 4086,
      "92b": 4087,
      "832": 4088,
      "3c7": 4089,
      "78c": 4090,
      "78e": 4091,
      "d76": 4092,
      "9eb": 4093,
      "9e2": 4094,
      "c8a": 4095,
      "c83": 4096,
      "9a8": 4097,
      "bcf": 4098,
      "c33": 4099,
      "8a8": 4100,
      "cd6": 4101,
      "c58": 4102,
      "bed": 4103,
      "4cb": 4104,
      "9dd": 4105,
      "888": 4106,
      "e92": 4107,
      "fca": 4108,
      "c16": 4109,
      "c4f": 4110,
      "eab": 4111,
      "8e8": 4112,
      "f73": 4113,
      "84d": 4114,
      "84b": 4115,
      "c87": 4116,
      "8bf": 4117,
      "ebd": 4118,
      "a9c": 4119,
      "b84": 4120,
      "957": 4121,
      "dcb": 4122,
      "cdc": 4123,
      "e06": 4124,
      "51f": 4125,
      "fc6": 4126,
      "891": 4127,
      "c91": 4128,
      "e3f": 4129,
      "ab9": 4130,
      "ce2": 4131,
      "a9a": 4132,
      "b85": 4133,
      "9c9": 4134,
      "4ad": 4135,
      "384": 4136,
      "63f": 4137,
      "a6b": 4138,
      "2d4": 4139,
      "d9a": 4140,
      "4b2": 4141,
      "754": 4142,
      "9df": 4143,
      "42b": 4144,
      "42c": 4145,
      "493": 4146,
      "98b": 4147,
      "899": 4148,
      "b9c": 4149,
      "878": 4150,
      "fa2": 4151,
      "7a6": 4152,
      "b4c": 4153,
      "d71": 4154,
      "f7b": 4155,
      "f76": 4156,
      "cf2": 4157,
      "b76": 4158,
      "9c5": 4159,
      "ca6": 4160,
      "79a": 4161,
      "41b": 4162,
      "a19": 4163,
      "9d7": 4164,
      "3e3": 4165,
      "daa": 4166,
      "48a": 4167,
      "3a9": 4168,
      "b38": 4169,
      "b3f": 4170,
      "c47": 4171,
      "3c6": 4172,
      "3c3": 4173,
      "d3d": 4174,
      "9e7": 4175,
      "9ad": 4176,
      "dcd": 4177,
      "c24": 4178,
      "c5e": 4179,
      "b0e": 4180,
      "c0e": 4181,
      "645": 4182,
      "779": 4183,
      "1fa": 4184,
      "1f9": 4185,
      "884": 4186,
      "3b1": 4187,
      "bf7": 4188,
      "bf2": 4189,
      "2f7": 4190,
      "252": 4191,
      "a3d": 4192,
      "f2b": 4193,
      "ddb": 4194,
      "aec": 4195,
      "ef6": 4196,
      "8aa": 4197,
      "ca1": 4198,
      "40d": 4199,
      "794": 4200,
      "38a": 4201,
      "4ec": 4202,
      "1d3": 4203,
      "5a3": 4204,
      "16f": 4205,
      "92e": 4206,
      "c13": 4207,
      "9b1": 4208,
      "d35": 4209,
      "cef": 4210,
      "b1b": 4211,
      "cb4": 4212,
      "bc3": 4213,
      "b0f": 4214,
      "90e": 4215,
      "1d2": 4216,
      "0ca": 4217,
      "d94": 4218,
      "8da": 4219,
      "6d8": 4220,
      "477": 4221,
      "3b9": 4222,
      "3bc": 4223,
      "49f": 4224,
      "da8": 4225,
      "b99": 4226,
      "a34": 4227,
      "6ce": 4228,
      "f2e": 4229,
      "e7b": 4230,
      "ee2": 4231,
      "d29": 4232,
      "8c9": 4233,
      "ca2": 4234,
      "30e": 4235,
      "327": 4236,
      "aa8": 4237,
      "527": 4238,
      "80b": 4239,
      "e87": 4240,
      "916": 4241,
      "4d7": 4242,
      "9d2": 4243,
      "88a": 4244,
      "2cc": 4245,
      "49c": 4246,
      "afc": 4247,
      "82b": 4248,
      "fa8": 4249,
      "1c2": 4250,
      "db8": 4251,
      "bd2": 4252,
      "94c": 4253,
      "dce": 4254,
      "b79": 4255,
      "b7e": 4256,
      "c2c": 4257,
      "c5c": 4258,
      "32b": 4259,
      "cc3": 4260,
      "31e": 4261,
      "6ef": 4262,
      "977": 4263,
      "913": 4264,
      "66a": 4265,
      "968": 4266,
      "74b": 4267,
      "a39": 4268,
      "e77": 4269,
      "bdd": 4270,
      "efe": 4271,
      "c3d": 4272,
      "b86": 4273,
      "95e": 4274,
      "c73": 4275,
      "d0e": 4276,
      "0127": 4277,
      "fdc": 4278,
      "d9c": 4279,
      "4bd": 4280,
      "ac7": 4281,
      "1f8": 4282,
      "3fa": 4283,
      "f1b": 4284,
      "adc": 4285,
      "98d": 4286,
      "7e3": 4287,
      "829": 4288,
      "9b7": 4289,
      "154": 4290,
      "6c1": 4291,
      "dfb": 4292,
      "cbf": 4293,
      "d54": 4294,
      "b8d": 4295,
      "b78": 4296,
      "b73": 4297,
      "0019": 4298,
      "de2": 4299,
      "816": 4300,
      "64c": 4301,
      "2dd": 4302,
      "e8f": 4303,
      "8d3": 4304,
      "d19": 4305,
      "59a": 4306,
      "823": 4307,
      "c9f": 4308,
      "d62": 4309,
      "a29": 4310,
      "a2c": 4311,
      "ab8": 4312,
      "716": 4313,
      "9fc": 4314,
      "948": 4315,
      "c77": 4316,
      "1a3": 4317,
      "33c": 4318,
      "7be": 4319,
      "8de": 4320,
      "43b": 4321,
      "1f1": 4322,
      "479": 4323,
      "f43": 4324,
      "3b3": 4325,
      "924": 4326,
      "daf": 4327,
      "58a": 4328,
      "9ba": 4329,
      "9b8": 4330,
      "ea2": 4331,
      "7a2": 4332,
      "466": 4333,
      "8e5": 4334,
      "e27": 4335,
      "baa": 4336,
      "9a3": 4337,
      "ddd": 4338,
      "ae3": 4339,
      "b8b": 4340,
      "c2d": 4341,
      "38c": 4342,
      "2df": 4343,
      "53b": 4344,
      "3b4": 4345,
      "e9c": 4346,
      "3e2": 4347,
      "58b": 4348,
      "9bf": 4349,
      "9bc": 4350,
      "6c3": 4351,
      "8e7": 4352,
      "c8f": 4353,
      "c6e": 4354,
      "945": 4355,
      "9c2": 4356,
      "cab": 4357,
      "90f": 4358,
      "a6f": 4359,
      "fd2": 4360,
      "8dc": 4361,
      "5ae": 4362,
      "f3b": 4363,
      "3d6": 4364,
      "d6f": 4365,
      "e28": 4366,
      "f7e": 4367,
      "bdb": 4368,
      "d52": 4369,
      "b8c": 4370,
      "cac": 4371,
      "40e": 4372,
      "68e": 4373,
      "6ae": 4374,
      "f48": 4375,
      "424": 4376,
      "894": 4377,
      "89b": 4378,
      "b93": 4379,
      "939": 4380,
      "8e4": 4381,
      "ce6": 4382,
      "ebe": 4383,
      "c27": 4384,
      "cc4": 4385,
      "e82": 4386,
      "3f6": 4387,
      "2c7": 4388,
      "5cc": 4389,
      "19b": 4390,
      "b4b": 4391,
      "ab4": 4392,
      "9e3": 4393,
      "eba": 4394,
      "eb7": 4395,
      "a9b": 4396,
      "c21": 4397,
      "1dd": 4398,
      "47f": 4399,
      "9de": 4400,
      "48d": 4401,
      "c1c": 4402,
      "3d5": 4403,
      "1cd": 4404,
      "8e9": 4405,
      "b1e": 4406,
      "8be": 4407,
      "aea": 4408,
      "8ab": 4409,
      "307": 4410,
      "c04": 4411,
      "97b": 4412,
      "acc": 4413,
      "828": 4414,
      "58d": 4415,
      "9b2": 4416,
      "e73": 4417,
      "e43": 4418,
      "c7a": 4419,
      "387": 4420,
      "ac2": 4421,
      "47a": 4422,
      "2c8": 4423,
      "59b": 4424,
      "e1e": 4425,
      "87c": 4426,
      "2fd": 4427,
      "46c": 4428,
      "f24": 4429,
      "9f3": 4430,
      "99a": 4431,
      "b5b": 4432,
      "eeb": 4433,
      "a99": 4434,
      "d2e": 4435,
      "dcf": 4436,
      "43f": 4437,
      "96c": 4438,
      "98f": 4439,
      "af7": 4440,
      "b3c": 4441,
      "fa5": 4442,
      "868": 4443,
      "e3c": 4444,
      "f8b": 4445,
      "d36": 4446,
      "9ea": 4447,
      "bd3": 4448,
      "9aa": 4449,
      "9ab": 4450,
      "cb6": 4451,
      "a43": 4452,
      "e8b": 4453,
      "ad4": 4454,
      "c18": 4455,
      "c93": 4456,
      "ab3": 4457,
      "db6": 4458,
      "b19": 4459,
      "dee": 4460,
      "4a6": 4461,
      "5ee": 4462,
      "2dc": 4463,
      "5dc": 4464,
      "4b7": 4465,
      "82a": 4466,
      "c1e": 4467,
      "b14": 4468,
      "b07": 4469,
      "7c9": 4470,
      "3ba": 4471,
      "44a": 4472,
      "449": 4473,
      "e9b": 4474,
      "89c": 4475,
      "836": 4476,
      "ead": 4477,
      "7d6": 4478,
      "8ba": 4479,
      "c7f": 4480,
      "cc7": 4481,
      "a7e": 4482,
      "37a": 4483,
      "4c2": 4484,
      "1f6": 4485,
      "9d4": 4486,
      "f37": 4487,
      "fac": 4488,
      "7a7": 4489,
      "866": 4490,
      "abd": 4491,
      "bc9": 4492,
      "9cc": 4493,
      "de3": 4494,
      "799": 4495,
      "31c": 4496,
      "394": 4497,
      "43c": 4498,
      "1f3": 4499,
      "49a": 4500,
      "3aa": 4501,
      "b37": 4502,
      "f2c": 4503,
      "c35": 4504,
      "aad": 4505,
      "1f4": 4506,
      "54b": 4507,
      "3d7": 4508,
      "d37": 4509,
      "dbb": 4510,
      "ced": 4511,
      "cba": 4512,
      "ca9": 4513,
      "308": 4514,
      "31f": 4515,
      "68f": 4516,
      "26c": 4517,
      "7f8": 4518,
      "88c": 4519,
      "7ad": 4520,
      "a3f": 4521,
      "6c4": 4522,
      "992": 4523,
      "99c": 4524,
      "99e": 4525,
      "df7": 4526,
      "bac": 4527,
      "8bc": 4528,
      "cdf": 4529,
      "c26": 4530,
      "63c": 4531,
      "2da": 4532,
      "2900": 4533,
      "9d3": 4534,
      "92a": 4535,
      "89f": 4536,
      "fba": 4537,
      "93e": 4538,
      "1cc": 4539,
      "71b": 4540,
      "bdc": 4541,
      "c62": 4542,
      "b87": 4543,
      "9ca": 4544,
      "68a": 4545,
      "3e7": 4546,
      "98a": 4547,
      "a28": 4548,
      "d3f": 4549,
      "e46": 4550,
      "c8b": 4551,
      "a95": 4552,
      "a6a": 4553,
      "5e6": 4554,
      "cf3": 4555,
      "843": 4556,
      "dd3": 4557,
      "b8a": 4558,
      "d0f": 4559,
      "e8e": 4560,
      "91f": 4561,
      "3fb": 4562,
      "3bb": 4563,
      "984": 4564,
      "dac": 4565,
      "58c": 4566,
      "abb": 4567,
      "db7": 4568,
      "9f4": 4569,
      "ce4": 4570,
      "c6b": 4571,
      "c0f": 4572,
      "aab": 4573,
      "acf": 4574,
      "da4": 4575,
      "c94": 4576,
      "f2a": 4577,
      "a98": 4578,
      "8cf": 4579,
      "8c3": 4580,
      "e08": 4581,
      "4ae": 4582,
      "79e": 4583,
      "4bc": 4584,
      "ace": 4585,
      "89e": 4586,
      "3ab": 4587,
      "ef3": 4588,
      "cda": 4589,
      "16c": 4590,
      "a2b": 4591,
      "ab7": 4592,
      "8eb": 4593,
      "99b": 4594,
      "bdf": 4595,
      "3e4": 4596,
      "e1b": 4597,
      "c9e": 4598,
      "7d3": 4599,
      "ef2": 4600,
      "8a2": 4601,
      "399": 4602,
      "acd": 4603,
      "9ec": 4604,
      "e0f": 4605,
      "7c2": 4606,
      "f12": 4607,
      "c4b": 4608,
      "abc": 4609,
      "9f5": 4610,
      "eef": 4611,
      "c54": 4612,
      "025c": 4613,
      "c9c": 4614,
      "6b2": 4615,
      "7d7": 4616,
      "c52": 4617,
      "d07": 4618,
      "1ea": 4619,
      "418": 4620,
      "98e": 4621,
      "483": 4622,
      "cb7": 4623,
      "692": 4624,
      "53c": 4625,
      "ad47": 4626,
      "6bc": 4627,
      "c8c": 4628,
      "d2c": 4629,
      "40f": 4630,
      "64b": 4631,
      "8dd": 4632,
      "98c": 4633,
      "9f6": 4634,
      "b3b": 4635,
      "3dc": 4636,
      "2f8": 4637,
      "6b7": 4638,
      "c88": 4639,
      "c36": 4640,
      "8cc": 4641,
      "aae": 4642,
      "81c": 4643,
      "1fb": 4644,
      "834": 4645,
      "3dd": 4646,
      "9cb": 4647,
      "caf": 4648,
      "ac8": 4649,
      "b2c9": 4650,
      "88b": 4651,
      "853": 4652,
      "b1c": 4653,
      "94a": 4654,
      "953": 4655,
      "88f": 4656,
      "c0d": 4657,
      "a83": 4658,
      "83b": 4659,
      "6be": 4660,
      "91c": 4661,
      "426": 4662,
      "8f6": 4663,
      "eae": 4664,
      "8b2": 4665,
      "bcb": 4666,
      "cae": 4667,
      "4bb": 4668,
      "82e": 4669,
      "ddc": 4670,
      "39c": 4671,
      "ab6": 4672,
      "b7b": 4673,
      "9ce": 4674,
      "90b": 4675,
      "8ea": 4676,
      "88e": 4677,
      "3ce": 4678,
      "a2a": 4679,
      "9f7": 4680,
      "9bb": 4681,
      "93b": 4682,
      "8b6": 4683,
      "39b": 4684,
      "a33": 4685,
      "054e": 4686,
      "7dd": 4687,
      "9c4": 4688,
      "86e": 4689,
      "427": 4690,
      "3de": 4691,
      "f8e": 4692,
      "993": 4693,
      "84c": 4694,
      "883": 4695,
      "8ce": 4696,
      "a8e": 4697,
      "3cc": 4698,
      "74c": 4699,
      "c68": 4700,
      "1f2": 4701,
      "9a9": 4702,
      "cbc": 4703,
      "ea8": 4704,
      "c2e": 4705,
      "2a02": 4706,
      "add": 4707,
      "c3b": 4708,
      "77b": 4709,
      "3d4": 4710,
      "ea9": 4711,
      "d27": 4712,
      "8f3": 4713,
      "0005": 4714,
      "001a": 4715,
      "c3c": 4716,
      "c2a": 4717,
      "2300": 4718,
      "8cd": 4719,
      "a27": 4720,
      "03e1": 4721,
      "0357": 4722,
      "010f": 4723,
      "2200": 4724,
      "6132": 4725,
      "370b": 4726,
      "0110": 4727,
      "1603": 4728,
      "6f6e": 4729,
      "011e": 4730,
      "0014": 4731,
      "327c": 4732,
      "437c": 4733,
      "0936": 4734,
      "8018": 4735,
      "6163": 4736,
      "f1fe": 4737,
      "6e64": 4738,
      "6f77": 4739,
      "2d76": 4740,
      "6134": 4741,
      "01d1": 4742,
      "7350": 4743,
      "4265": 4744,
      "5769": 4745,
      "2909": 4746,
      "0c8e": 4747,
      "82d8": 4748,
      "729d": 4749,
      "cf53": 4750,
      "6533": 4751,
      "6bb5": 4752,
      "0036": 4753,
      "025d": 4754,
      "b041": 4755,
      "df6c": 4756,
      "2400": 4757,
      "eb55": 4758,
      "025e": 4759,
      "0260": 4760,
      "49d6": 4761,
      "0302": 4762,
      "00fe": 4763,
      "61fd": 4764,
      "00ff": 4765,
      "0052": 4766,
      "965b": 4767,
      "fd20": 4768,
      "0261": 4769,
      "0128": 4770,
      "002e": 4771,
      "2100": 4772,
      "d934": 4773,
      "002d": 4774,
      "0214": 4775,
      "0006": 4776,
      "0229": 4777,
      "0013": 4778,
      "025f": 4779,
      "0304": 4780,
      "0160": 4781,
      "002c": 4782,
      "0020": 4783,
      "859b": 4784,
      "0012": 4785,
      "038f": 4786,
      "80c9": 4787,
      "8581": 4788,
      "bd3b": 4789,
      "3030": 4790,
      "2600": 4791,
      "965a": 4792,
      "e3af": 4793,
      "0102": 4794,
      "00fb": 4795,
      "0011": 4796,
      "7633": 4797,
      "7ce3": 4798,
      "002b": 4799,
      "000c": 4800,
      "9fb4": 4801,
      "f595": 4802,
      "a82a": 4803,
      "051a": 4804,
      "683c": 4805,
      "c1d8": 4806,
      "050a": 4807,
      "1aa5": 4808,
      "8073": 4809,
      "edaf": 4810,
      "0355": 4811,
      "9d51": 4812,
      "000e": 4813,
      "514d": 4814,
      "0007": 4815,
      "2a70": 4816,
      "0262": 4817,
      "24f4": 4818,
      "010e": 4819,
      "89dd": 4820,
      "003f": 4821,
      "2000": 4822,
      "3133": 4823,
      "026e": 4824,
      "afae": 4825,
      "797e": 4826,
      "3eea": 4827,
      "0061": 4828,
      "0125": 4829,
      "d935": 4830,
      "3839": 4831,
      "3433": 4832,
      "d977": 4833,
      "3532": 4834,
      "3434": 4835,
      "d47a": 4836,
      "5472": 4837,
      "370f": 4838,
      "3262": 4839,
      "0051": 4840,
      "3838": 4841,
      "109e": 4842,
      "3261": 4843,
      "921f": 4844,
      "15d5": 4845,
      "007a": 4846,
      "3836": 4847,
      "9060": 4848,
      "3831": 4849,
      "003e": 4850,
      "3832": 4851,
      "3537": 4852,
      "0a03": 4853,
      "001b": 4854,
      "3733": 4855,
      "706a": 4856,
      "1a00": 4857,
      "3731": 4858,
      "4254": 4859,
      "0303": 4860,
      "6137": 4861,
      "5f7c": 4862,
      "3062": 4863,
      "1800": 4864,
      "6364": 4865,
      "3364": 4866,
      "9796": 4867,
      "10a6": 4868,
      "1e00": 4869,
      "3033": 4870,
      "00fc": 4871,
      "026d": 4872,
      "6639": 4873,
      "4553": 4874,
      "7970": 4875,
      "6335": 4876,
      "4c41": 4877,
      "3362": 4878,
      "3165": 4879,
      "6662": 4880,
      "6138": 4881,
      "6238": 4882,
      "3766": 4883,
      "6537": 4884,
      "007c": 4885,
      "005d": 4886,
      "547c": 4887,
      "9795": 4888,
      "6461": 4889,
      "6539": 4890,
      "5ae5": 4891,
      "1c77": 4892,
      "10aa": 4893,
      "109b": 4894,
      "10ac": 4895,
      "d500": 4896,
      "0037": 4897,
      "2a00": 4898,
      "0008": 4899,
      "000b": 4900,
      "000f": 4901,
      "312e": 4902,
      "64b6": 4903,
      "2800": 4904,
      "0124": 4905,
      "026f": 4906,
      "3144": 4907,
      "7ed7": 4908,
      "b010": 4909,
      "004f": 4910,
      "173d": 4911,
      "6432": 4912,
      "9797": 4913,
      "1e22": 4914,
      "00fd": 4915,
      "0310": 4916,
      "10ec": 4917,
      "0126": 4918,
      "07fb": 4919,
      "49f2": 4920,
      "10a9": 4921,
      "10ab": 4922,
      "4a43": 4923,
      "4b7c": 4924,
      "2048": 4925,
      "0079": 4926,
      "0010": 4927,
      "4f44": 4928,
      "6ebf": 4929,
      "9799": 4930,
      "4152": 4931,
      "011d": 4932,
      "000d": 4933,
      "2700": 4934,
      "4000": 4935,
      "026c": 4936,
      "0c17": 4937,
      "821a": 4938,
      "310d": 4939,
      "0158": 4940,
      "979b": 4941,
      "5454": 4942,
      "0129": 4943,
      "4200": 4944,
      "9add": 4945,
      "10ad": 4946,
      "502f": 4947,
      "010d": 4948,
      "5345": 4949,
      "0153": 4950,
      "1097": 4951,
      "202a": 4952,
      "007d": 4953,
      "4c9d": 4954,
      "4d2d": 4955,
      "88e7": 4956,
      "4348": 4957,
      "b2bf": 4958,
      "2500": 4959,
      "0076": 4960,
      "0078": 4961,
      "ff14": 4962,
      "9798": 4963,
      "0077": 4964,
      "7c01": 4965,
      "3700": 4966,
      "329b": 4967,
      "6a13": 4968,
      "0031": 4969,
      "0009": 4970,
      "cf1a": 4971,
      "ee45": 4972,
      "0af2": 4973,
      "deea": 4974,
      "5b21": 4975,
      "9067": 4976,
      "8377": 4977,
      "007e": 4978,
      "0c4b": 4979,
      "797f": 4980,
      "7990": 4981,
      "4d00": 4982,
      "2c00": 4983,
      "78a2": 4984,
      "002f": 4985,
      "020f": 4986,
      "1221": 4987,
      "4099": 4988,
      "10a0": 4989,
      "d82a": 4990,
      "000a": 4991,
      "10a4": 4992,
      "0015": 4993,
      "aa26": 4994,
      "0c3e": 4995,
      "ee40": 4996,
      "006a": 4997,
      "1139": 4998,
      "0030": 4999,
      "a581": 5000,
      "2586": 5001,
      "10a8": 5002,
      "1090": 5003,
      "1403": 5004,
      "acb3": 5005,
      "4854": 5006,
      "edf5": 5007,
      "0675": 5008,
      "f6a8": 5009,
      "8cd5": 5010,
      "0035": 5011,
      "1095": 5012,
      "1195": 5013,
      "1137": 5014,
      "2a45": 5015,
      "0267": 5016,
      "7c16": 5017,
      "4cfd": 5018,
      "77fd": 5019,
      "0032": 5020,
      "119d": 5021,
      "b2c0": 5022,
      "82f5": 5023,
      "2056": 5024,
      "1099": 5025,
      "115d": 5026,
      "22f4": 5027,
      "108e": 5028,
      "7efb": 5029,
      "1193": 5030,
      "0024": 5031,
      "109f": 5032,
      "117a": 5033,
      "11a8": 5034,
      "118d": 5035,
      "4100": 5036,
      "29da": 5037,
      "75bd": 5038,
      "9367": 5039,
      "007f": 5040,
      "0120": 5041,
      "514c": 5042,
      "1dba": 5043,
      "0033": 5044,
      "e968": 5045,
      "1096": 5046,
      "0528": 5047,
      "a8e8": 5048,
      "834d": 5049,
      "25ec": 5050,
      "7022": 5051,
      "0114": 5052,
      "10a3": 5053,
      "7c60": 5054,
      "7997": 5055,
      "11af": 5056,
      "118b": 5057,
      "41b1": 5058,
      "7ed8": 5059,
      "dd02": 5060,
      "f029": 5061,
      "012a": 5062,
      "10a1": 5063,
      "69f0": 5064,
      "553f": 5065,
      "7983": 5066,
      "113f": 5067,
      "1eba": 5068,
      "c12f": 5069,
      "f7f3": 5070,
      "c83f": 5071,
      "0080": 5072,
      "1092": 5073,
      "1093": 5074,
      "1135": 5075,
      "112e": 5076,
      "5d3a": 5077,
      "0b37": 5078,
      "3a69": 5079,
      "e058": 5080,
      "1191": 5081,
      "10a5": 5082,
      "73ea": 5083,
      "1145": 5084,
      "1143": 5085,
      "4e53": 5086,
      "523c": 5087,
      "5a16": 5088,
      "d798": 5089,
      "c20b": 5090,
      "0354": 5091,
      "1098": 5092,
      "10a7": 5093,
      "174c": 5094,
      "33a5": 5095,
      "7988": 5096,
      "4ea3": 5097,
      "ae6b": 5098,
      "bc81": 5099,
      "37e2": 5100,
      "1147": 5101,
      "13b5": 5102,
      "6a78": 5103,
      "1503": 5104,
      "562c": 5105,
      "d759": 5106,
      "f787": 5107,
      "109d": 5108,
      "109c": 5109,
      "11a4": 5110,
      "282e": 5111,
      "979a": 5112,
      "e370": 5113,
      "0350": 5114,
      "1091": 5115,
      "4f2c": 5116,
      "4aa8": 5117,
      "761f": 5118,
      "108f": 5119,
      "29db": 5120,
      "1f69": 5121,
      "b468": 5122,
      "1094": 5123,
      "7994": 5124,
      "11a6": 5125,
      "7be0": 5126,
      "5244": 5127,
      "133f": 5128,
      "6774": 5129,
      "113d": 5130,
      "2b00": 5131,
      "303a": 5132,
      "7992": 5133,
      "1177": 5134,
      "1198": 5135,
      "119a": 5136,
      "113b": 5137,
      "574f": 5138,
      "c4d7": 5139,
      "0029": 5140,
      "011c": 5141,
      "4fd6": 5142,
      "1175": 5143,
      "0352": 5144,
      "0351": 5145,
      "034b": 5146,
      "defa": 5147,
      "76df": 5148,
      "117c": 5149,
      "11b6": 5150,
      "09c0": 5151,
      "fd4a": 5152,
      "7f40": 5153,
      "2f31": 5154,
      "7986": 5155,
      "5b4e": 5156,
      "1089": 5157,
      "4c00": 5158,
      "3fb8": 5159,
      "2c31": 5160,
      "f0f4": 5161,
      "7c36": 5162,
      "a143": 5163,
      "bf80": 5164,
      "f839": 5165,
      "a989": 5166,
      "4f52": 5167,
      "7982": 5168,
      "1166": 5169,
      "5241": 5170,
      "0034": 5171,
      "0081": 5172,
      "0072": 5173,
      "08fa": 5174,
      "08e4": 5175,
      "76f9": 5176,
      "1130": 5177,
      "fa35": 5178,
      "c065": 5179,
      "034d": 5180,
      "10ae": 5181,
      "11b2": 5182,
      "108d": 5183,
      "dae1": 5184,
      "956d": 5185,
      "10a2": 5186,
      "7995": 5187,
      "4d03": 5188,
      "1c86": 5189,
      "0a3c": 5190,
      "0270": 5191,
      "7985": 5192,
      "798c": 5193,
      "1133": 5194,
      "d523": 5195,
      "d50c": 5196,
      "034e": 5197,
      "7980": 5198,
      "3b50": 5199,
      "f010": 5200,
      "21b1": 5201,
      "514f": 5202,
      "0038": 5203,
      "0356": 5204,
      "537c": 5205,
      "ad3d": 5206,
      "0075": 5207,
      "5b95": 5208,
      "2807": 5209,
      "5d44": 5210,
      "498d": 5211,
      "0026": 5212,
      "108a": 5213,
      "29f7": 5214,
      "8826": 5215,
      "3e0a": 5216,
      "034c": 5217,
      "23a0": 5218,
      "fff3": 5219,
      "ff7a": 5220,
      "798f": 5221,
      "1141": 5222,
      "7ed6": 5223,
      "109a": 5224,
      "24b3": 5225,
      "6b68": 5226,
      "d43e": 5227,
      "004c": 5228,
      "0074": 5229,
      "108b": 5230,
      "9d73": 5231,
      "016f": 5232,
      "0353": 5233,
      "514e": 5234,
      "0073": 5235,
      "1a43": 5236,
      "4a37": 5237,
      "798d": 5238,
      "b9f9": 5239,
      "4686": 5240,
      "f04e": 5241,
      "5efc": 5242,
      "1088": 5243,
      "1d14": 5244,
      "0115": 5245,
      "fc03": 5246,
      "7248": 5247,
      "7e9e": 5248,
      "0268": 5249,
      "5102": 5250,
      "1214": 5251,
      "00cb": 5252,
      "3300": 5253,
      "7989": 5254,
      "3131": 5255,
      "64b7": 5256,
      "3acd": 5257,
      "0122": 5258,
      "97a3": 5259,
      "5a0a": 5260,
      "744f": 5261,
      "7e9c": 5262,
      "afad": 5263,
      "5f7d": 5264,
      "11c3": 5265,
      "289f": 5266,
      "2d85": 5267,
      "ac7d": 5268,
      "a3aa": 5269,
      "3c2f": 5270,
      "798a": 5271,
      "108c": 5272,
      "0320": 5273,
      "2373": 5274,
      "5b00": 5275,
      "5151": 5276,
      "0113": 5277,
      "6f6f": 5278,
      "4a31": 5279,
      "798e": 5280,
      "7993": 5281,
      "798b": 5282,
      "112c": 5283,
      "c44e": 5284,
      "7069": 5285,
      "0082": 5286,
      "0271": 5287,
      "11c8": 5288,
      "1660": 5289,
      "3acc": 5290,
      "3c57": 5291,
      "0340": 5292,
      "de92": 5293,
      "1086": 5294,
      "003c": 5295,
      "2378": 5296,
      "696e": 5297,
      "7981": 5298,
      "0d4f": 5299,
      "9fdc": 5300,
      "d232": 5301,
      "c52f": 5302,
      "026a": 5303,
      "7984": 5304,
      "115b": 5305,
      "09c4": 5306,
      "0af1": 5307,
      "7996": 5308,
      "0277": 5309,
      "6996": 5310,
      "68ea": 5311,
      "4b00": 5312,
      "5a0b": 5313,
      "1b00": 5314,
      "60b5": 5315,
      "2032": 5316,
      "0266": 5317,
      "5a0d": 5318,
      "1209": 5319,
      "1b9a": 5320,
      "f382": 5321,
      "0273": 5322,
      "3230": 5323,
      "1087": 5324,
      "6873": 5325,
      "5a0c": 5326,
      "0112": 5327,
      "18cd": 5328,
      "a511": 5329,
      "97a2": 5330,
      "6acf": 5331,
      "2020": 5332,
      "6c5e": 5333,
      "d3a7": 5334,
      "0200": 5335,
      "0272": 5336,
      "5a11": 5337,
      "ba00": 5338,
      "8b1e": 5339,
      "0149": 5340,
      "0123": 5341,
      "0379": 5342,
      "211b": 5343,
      "0501": 5344,
      "056a": 5345,
      "2d86": 5346,
      "4c0f": 5347,
      "e459": 5348,
      "006f": 5349,
      "0083": 5350,
      "0084": 5351,
      "235f": 5352,
      "05dc": 5353,
      "7c55": 5354,
      "979d": 5355,
      "10af": 5356,
      "0269": 5357,
      "024a": 5358,
      "05f9": 5359,
      "6924": 5360,
      "7987": 5361,
      "0c0c": 5362,
      "1375": 5363,
      "77f2": 5364,
      "5420": 5365,
      "85d6": 5366,
      "c350": 5367,
      "636f": 5368,
      "4b99": 5369,
      "4745": 5370,
      "4d4c": 5371,
      "e6cf": 5372,
      "ab8f": 5373,
      "cfc5": 5374,
      "034f": 5375,
      "4f43": 5376,
      "fccf": 5377,
      "3200": 5378,
      "32c8": 5379,
      "6ef0": 5380,
      "97a0": 5381,
      "6535": 5382,
      "6667": 5383,
      "8566": 5384,
      "2e31": 5385,
      "fa92": 5386,
      "1500": 5387,
      "0028": 5388,
      "00ac": 5389,
      "6160": 5390,
      "69b9": 5391,
      "f1fc": 5392,
      "88ec": 5393,
      "3a00": 5394,
      "e750": 5395,
      "c61a": 5396,
      "01e6": 5397,
      "10b0": 5398,
      "2d30": 5399,
      "6874": 5400,
      "c400": 5401,
      "2063": 5402,
      "0274": 5403,
      "32d7": 5404,
      "733d": 5405,
      "6473": 5406,
      "5121": 5407,
      "4c8e": 5408,
      "2401": 5409,
      "5450": 5410,
      "92c0": 5411,
      "7e8f": 5412,
      "7d9a": 5413,
      "b03e": 5414,
      "0070": 5415,
      "2371": 5416,
      "0512": 5417,
      "4f2a": 5418,
      "1149": 5419,
      "348b": 5420,
      "80c8": 5421,
      "979f": 5422,
      "0cf6": 5423,
      "07d0": 5424,
      "1f50": 5425,
      "fcda": 5426,
      "fb2b": 5427,
      "20c0": 5428,
      "5000": 5429,
      "024f": 5430,
      "18ce": 5431,
      "18c5": 5432,
      "18cb": 5433,
      "6f72": 5434,
      "5e77": 5435,
      "6afe": 5436,
      "5a0f": 5437,
      "f1fd": 5438,
      "7264": 5439,
      "82e5": 5440,
      "0133": 5441,
      "012b": 5442,
      "03e3": 5443,
      "10bc": 5444,
      "0276": 5445,
      "0252": 5446,
      "18af": 5447,
      "2d68": 5448,
      "59f0": 5449,
      "6172": 5450,
      "979e": 5451,
      "7540": 5452,
      "443e": 5453,
      "7465": 5454,
      "99b5": 5455,
      "f70b": 5456,
      "efe9": 5457,
      "1003": 5458,
      "0071": 5459,
      "034a": 5460,
      "0275": 5461,
      "001c": 5462,
      "0400": 5463,
      "4cfc": 5464,
      "8dde": 5465,
      "5a0e": 5466,
      "3e3c": 5467,
      "3d22": 5468,
      "fa63": 5469,
      "1c3d": 5470,
      "0309": 5471,
      "0249": 5472,
      "32d6": 5473,
      "fffa": 5474,
      "a7f0": 5475,
      "5100": 5476,
      "5150": 5477,
      "5a09": 5478,
      "5a08": 5479,
      "1259": 5480,
      "8565": 5481,
      "89dc": 5482,
      "5700": 5483,
      "e130": 5484,
      "3d45": 5485,
      "9fdb": 5486,
      "40ab": 5487,
      "18c7": 5488,
      "1188": 5489,
      "3600": 5490,
      "1edb": 5491,
      "82c4": 5492,
      "7d20": 5493,
      "1c17": 5494,
      "d549": 5495,
      "7c03": 5496,
      "2a86": 5497,
      "d938": 5498,
      "fcdb": 5499,
      "7210": 5500,
      "a8c8": 5501,
      "e4ef": 5502,
      "d010": 5503,
      "004e": 5504,
      "00ad": 5505,
      "0af4": 5506,
      "211d": 5507,
      "0105": 5508,
      "68f5": 5509,
      "7f84": 5510,
      "965c": 5511,
      "5c82": 5512,
      "e4c1": 5513,
      "3038": 5514,
      "0194": 5515,
      "0278": 5516,
      "236c": 5517,
      "97a1": 5518,
      "5de0": 5519,
      "4cfe": 5520,
      "1e21": 5521,
      "5a00": 5522,
      "07d1": 5523,
      "e915": 5524,
      "3000": 5525,
      "0279": 5526,
      "18cc": 5527,
      "69f2": 5528,
      "979c": 5529,
      "5a10": 5530,
      "25da": 5531,
      "f06d": 5532,
      "10c3": 5533,
      "690e": 5534,
      "bb00": 5535,
      "6431": 5536,
      "7745": 5537,
      "e914": 5538,
      "c112": 5539,
      "b03a": 5540,
      "0053": 5541,
      "0257": 5542,
      "2374": 5543,
      "211c": 5544,
      "69f1": 5545,
      "11cd": 5546,
      "6e6f": 5547,
      "6574": 5548,
      "fd93": 5549,
      "0c52": 5550,
      "7fc4": 5551,
      "e661": 5552,
      "f16a": 5553,
      "f200": 5554,
      "e4e8": 5555,
      "2370": 5556,
      "3100": 5557,
      "6572": 5558,
      "1085": 5559,
      "4cff": 5560,
      "fcdc": 5561,
      "d155": 5562,
      "5c83": 5563,
      "70ac": 5564,
      "0af3": 5565,
      "3234": 5566,
      "3231": 5567,
      "4a07": 5568,
      "7991": 5569,
      "3132": 5570,
      "9069": 5571,
      "908d": 5572,
      "64a9": 5573,
      "513f": 5574,
      "a6b1": 5575,
      "3500": 5576,
      "fcbf": 5577,
      "5f86": 5578,
      "c450": 5579,
      "8c05": 5580,
      "0085": 5581,
      "00f1": 5582,
      "0016": 5583,
      "21c0": 5584,
      "0583": 5585,
      "88ea": 5586,
      "4400": 5587,
      "89db": 5588,
      "5f7f": 5589,
      "bf75": 5590,
      "2f00": 5591,
      "2f57": 5592,
      "00f0": 5593,
      "a73d": 5594,
      "3400": 5595,
      "5de9": 5596,
      "d933": 5597,
      "6875": 5598,
      "e622": 5599,
      "0d0a": 5600,
      "7469": 5601,
      "3a61": 5602,
      "c4af": 5603,
      "9383": 5604,
      "7879": 5605,
      "c300": 5606,
      "9413": 5607,
      "b06b": 5608,
      "00b0": 5609,
      "2372": 5610,
      "1ae4": 5611,
      "2231": 5612,
      "2d00": 5613,
      "5de7": 5614,
      "4300": 5615,
      "acfe": 5616,
      "0b6a": 5617,
      "666f": 5618,
      "85d5": 5619,
      "59f1": 5620,
      "b1a6": 5621,
      "df71": 5622,
      "8b1d": 5623,
      "302c": 5624,
      "01d9": 5625,
      "18c6": 5626,
      "1de9": 5627,
      "6dc7": 5628,
      "353a": 5629,
      "4420": 5630,
      "67be": 5631,
      "b945": 5632,
      "8b1c": 5633,
      "f071": 5634,
      "b040": 5635,
      "10b3": 5636,
      "10b1": 5637,
      "3233": 5638,
      "32a1": 5639,
      "615e": 5640,
      "7c00": 5641,
      "285c": 5642,
      "149e": 5643,
      "88e8": 5644,
      "c183": 5645,
      "1c00": 5646,
      "ce98": 5647,
      "3036": 5648,
      "b03b": 5649,
      "0358": 5650,
      "3236": 5651,
      "236f": 5652,
      "05fe": 5653,
      "1182": 5654,
      "6e24": 5655,
      "e831": 5656,
      "6876": 5657,
      "6832": 5658,
      "44ec": 5659,
      "48b5": 5660,
      "3a20": 5661,
      "58f8": 5662,
      "002a": 5663,
      "7036": 5664,
      "32f0": 5665,
      "32a2": 5666,
      "18c4": 5667,
      "0500": 5668,
      "4a09": 5669,
      "3800": 5670,
      "6465": 5671,
      "5152": 5672,
      "d93e": 5673,
      "f1ff": 5674,
      "89de": 5675,
      "89d9": 5676,
      "3ae4": 5677,
      "f936": 5678,
      "998e": 5679,
      "c6a2": 5680,
      "bc00": 5681,
      "e52b": 5682,
      "cdd4": 5683,
      "006d": 5684,
      "0087": 5685,
      "027a": 5686,
      "0585": 5687,
      "2a15": 5688,
      "511c": 5689,
      "3630": 5690,
      "5dde": 5691,
      "6d55": 5692,
      "6d57": 5693,
      "26eb": 5694,
      "44e6": 5695,
      "42af": 5696,
      "fba5": 5697,
      "c111": 5698,
      "ee51": 5699,
      "b800": 5700,
      "c716": 5701,
      "cd7a": 5702,
      "0040": 5703,
      "0138": 5704,
      "10b2": 5705,
      "0251": 5706,
      "3235": 5707,
      "05ac": 5708,
      "3335": 5709,
      "6e74": 5710,
      "6448": 5711,
      "633f": 5712,
      "28ad": 5713,
      "1352": 5714,
      "d939": 5715,
      "d93c": 5716,
      "ac59": 5717,
      "7f7e": 5718,
      "44ed": 5719,
      "89d8": 5720,
      "d14a": 5721,
      "59f8": 5722,
      "da36": 5723,
      "20d4": 5724,
      "7dd6": 5725,
      "236e": 5726,
      "6173": 5727,
      "38ad": 5728,
      "2a07": 5729,
      "5de3": 5730,
      "0c97": 5731,
      "d93f": 5732,
      "6d52": 5733,
      "1f1c": 5734,
      "4895": 5735,
      "58bf": 5736,
      "c453": 5737,
      "f074": 5738,
      "00af": 5739,
      "01b5": 5740,
      "08e5": 5741,
      "10b5": 5742,
      "001f": 5743,
      "236d": 5744,
      "2146": 5745,
      "6f2b": 5746,
      "62a3": 5747,
      "223e": 5748,
      "3900": 5749,
      "363a": 5750,
      "d936": 5751,
      "5459": 5752,
      "88e9": 5753,
      "59ef": 5754,
      "c100": 5755,
      "c455": 5756,
      "ea00": 5757,
      "a2d8": 5758,
      "ba86": 5759,
      "f06c": 5760,
      "f0fc": 5761,
      "a000": 5762,
      "c000": 5763,
      "10c5": 5764,
      "024e": 5765,
      "3232": 5766,
      "32f3": 5767,
      "3239": 5768,
      "32af": 5769,
      "32ba": 5770,
      "3224": 5771,
      "3249": 5772,
      "322f": 5773,
      "3280": 5774,
      "3289": 5775,
      "3208": 5776,
      "73ec": 5777,
      "236b": 5778,
      "615d": 5779,
      "69bc": 5780,
      "319f": 5781,
      "4eb8": 5782,
      "3633": 5783,
      "97e6": 5784,
      "5ddf": 5785,
      "1300": 5786,
      "6663": 5787,
      "7fbd": 5788,
      "120e": 5789,
      "f1a1": 5790,
      "88eb": 5791,
      "4425": 5792,
      "e90e": 5793,
      "49c5": 5794,
      "8fce": 5795,
      "fabf": 5796,
      "ecf9": 5797,
      "c717": 5798,
      "f072": 5799,
      "f03a": 5800,
      "00a0": 5801,
      "0086": 5802,
      "0169": 5803,
      "0a33": 5804,
      "32aa": 5805,
      "32e2": 5806,
      "329c": 5807,
      "3282": 5808,
      "73eb": 5809,
      "616c": 5810,
      "694d": 5811,
      "2a9f": 5812,
      "29f5": 5813,
      "07a7": 5814,
      "6636": 5815,
      "3b00": 5816,
      "44eb": 5817,
      "49e9": 5818,
      "c454": 5819,
      "c457": 5820,
      "b900": 5821,
      "204f": 5822,
      "3c00": 5823,
      "6b99": 5824,
      "6b72": 5825,
      "8e99": 5826,
      "b03f": 5827,
      "0045": 5828,
      "0103": 5829,
      "10c4": 5830,
      "0204": 5831,
      "3276": 5832,
      "3247": 5833,
      "3244": 5834,
      "323f": 5835,
      "32b6": 5836,
      "327e": 5837,
      "3271": 5838,
      "323b": 5839,
      "322d": 5840,
      "18c3": 5841,
      "be5c": 5842,
      "4a00": 5843,
      "64b8": 5844,
      "2d62": 5845,
      "9792": 5846,
      "5dcf": 5847,
      "0cd5": 5848,
      "d937": 5849,
      "d940": 5850,
      "43af": 5851,
      "4b0d": 5852,
      "07af": 5853,
      "3f00": 5854,
      "54d2": 5855,
      "44e8": 5856,
      "44e9": 5857,
      "89e0": 5858,
      "fb3b": 5859,
      "4800": 5860,
      "faeb": 5861,
      "c9e9": 5862,
      "d690": 5863,
      "ee4b": 5864,
      "00ae": 5865,
      "01b3": 5866,
      "08e3": 5867,
      "026b": 5868,
      "324a": 5869,
      "3228": 5870,
      "322c": 5871,
      "3299": 5872,
      "328f": 5873,
      "32fa": 5874,
      "325a": 5875,
      "32c6": 5876,
      "32c4": 5877,
      "32cd": 5878,
      "0584": 5879,
      "3139": 5880,
      "64b9": 5881,
      "fe39": 5882,
      "5de4": 5883,
      "352c": 5884,
      "b2f0": 5885,
      "0b2a": 5886,
      "7fbf": 5887,
      "9db2": 5888,
      "89da": 5889,
      "89df": 5890,
      "59f9": 5891,
      "59ec": 5892,
      "5ff0": 5893,
      "f039": 5894,
      "0095": 5895,
      "01b6": 5896,
      "3203": 5897,
      "327b": 5898,
      "3263": 5899,
      "32e3": 5900,
      "32ce": 5901,
      "32c7": 5902,
      "2375": 5903,
      "aad6": 5904,
      "33d7": 5905,
      "332d": 5906,
      "374d": 5907,
      "6e22": 5908,
      "6e1c": 5909,
      "393a": 5910,
      "feff": 5911,
      "e8f4": 5912,
      "260e": 5913,
      "e638": 5914,
      "f346": 5915,
      "89e2": 5916,
      "da12": 5917,
      "5f68": 5918,
      "8757": 5919,
      "1525": 5920,
      "f201": 5921,
      "b47c": 5922,
      "f06e": 5923,
      "003a": 5924,
      "b03d": 5925,
      "006c": 5926,
      "0155": 5927,
      "012c": 5928,
      "013a": 5929,
      "10b9": 5930,
      "10ba": 5931,
      "10b7": 5932,
      "3286": 5933,
      "32a5": 5934,
      "32db": 5935,
      "321d": 5936,
      "616d": 5937,
      "05a4": 5938,
      "6974": 5939,
      "5567": 5940,
      "044b": 5941,
      "04a9": 5942,
      "0106": 5943,
      "3135": 5944,
      "6e67": 5945,
      "6e1b": 5946,
      "90b8": 5947,
      "6362": 5948,
      "342c": 5949,
      "0961": 5950,
      "e858": 5951,
      "2965": 5952,
      "6865": 5953,
      "6d53": 5954,
      "f1f6": 5955,
      "88ed": 5956,
      "d800": 5957,
      "89e3": 5958,
      "d1e8": 5959,
      "af69": 5960,
      "f6e5": 5961,
      "cb19": 5962,
      "9436": 5963,
      "b03c": 5964,
      "008d": 5965,
      "00c8": 5966,
      "016c": 5967,
      "0182": 5968,
      "08d4": 5969,
      "0201": 5970,
      "3201": 5971,
      "32da": 5972,
      "32e8": 5973,
      "32ea": 5974,
      "3266": 5975,
      "3283": 5976,
      "329e": 5977,
      "3227": 5978,
      "328b": 5979,
      "32c3": 5980,
      "320d": 5981,
      "18c8": 5982,
      "7332": 5983,
      "2323": 5984,
      "0586": 5985,
      "5525": 5986,
      "551d": 5987,
      "044e": 5988,
      "4e45": 5989,
      "81c9": 5990,
      "342d": 5991,
      "682d": 5992,
      "4bbc": 5993,
      "ac00": 5994,
      "666c": 5995,
      "f1fb": 5996,
      "f1f0": 5997,
      "e916": 5998,
      "85ba": 5999,
      "594b": 6000,
      "af66": 6001,
      "3a72": 6002,
      "c110": 6003,
      "c11e": 6004,
      "fa6b": 6005,
      "93bc": 6006,
      "c800": 6007,
      "e57d": 6008,
      "b743": 6009,
      "40e8": 6010,
      "0025": 6011,
      "0060": 6012,
      "0090": 6013,
      "0130": 6014,
      "32cc": 6015,
      "32fd": 6016,
      "32c9": 6017,
      "32bf": 6018,
      "327a": 6019,
      "32e1": 6020,
      "32e9": 6021,
      "3296": 6022,
      "321e": 6023,
      "3285": 6024,
      "3216": 6025,
      "32ee": 6026,
      "3209": 6027,
      "321c": 6028,
      "211e": 6029,
      "5515": 6030,
      "4a08": 6031,
      "3136": 6032,
      "5bec": 6033,
      "6e1e": 6034,
      "d944": 6035,
      "6d56": 6036,
      "2609": 6037,
      "4700": 6038,
      "96c9": 6039,
      "44ea": 6040,
      "59f3": 6041,
      "f956": 6042,
      "f99f": 6043,
      "6765": 6044,
      "7a4b": 6045,
      "7a49": 6046,
      "25ea": 6047,
      "a23e": 6048,
      "9f2e": 6049,
      "9e4d": 6050,
      "f06b": 6051,
      "4027": 6052,
      "f038": 6053,
      "0139": 6054,
      "0189": 6055,
      "10b6": 6056,
      "320a": 6057,
      "3229": 6058,
      "3297": 6059,
      "325e": 6060,
      "3258": 6061,
      "3225": 6062,
      "32dc": 6063,
      "3214": 6064,
      "323e": 6065,
      "3211": 6066,
      "32a7": 6067,
      "be58": 6068,
      "057a": 6069,
      "053c": 6070,
      "6911": 6071,
      "332c": 6072,
      "114c": 6073,
      "6400": 6074,
      "2d50": 6075,
      "4147": 6076,
      "29f9": 6077,
      "d941": 6078,
      "d93b": 6079,
      "4b49": 6080,
      "4d61": 6081,
      "5443": 6082,
      "6672": 6083,
      "7fc5": 6084,
      "f1d1": 6085,
      "f359": 6086,
      "8980": 6087,
      "59f6": 6088,
      "c117": 6089,
      "6769": 6090,
      "3d41": 6091,
      "7a48": 6092,
      "8e24": 6093,
      "ba85": 6094,
      "9a70": 6095,
      "dc00": 6096,
      "ca19": 6097,
      "f03b": 6098,
      "00e5": 6099,
      "0088": 6100,
      "081f": 6101,
      "0823": 6102,
      "0348": 6103,
      "10dc": 6104,
      "0254": 6105,
      "32ff": 6106,
      "325d": 6107,
      "3222": 6108,
      "3278": 6109,
      "329f": 6110,
      "32bc": 6111,
      "32ae": 6112,
      "32d2": 6113,
      "320b": 6114,
      "3215": 6115,
      "73e8": 6116,
      "2376": 6117,
      "2379": 6118,
      "055d": 6119,
      "0588": 6120,
      "3333": 6121,
      "372c": 6122,
      "3834": 6123,
      "316b": 6124,
      "2a71": 6125,
      "5148": 6126,
      "09e8": 6127,
      "0917": 6128,
      "fe9c": 6129,
      "2d61": 6130,
      "4144": 6131,
      "5368": 6132,
      "4328": 6133,
      "6d58": 6134,
      "5a12": 6135,
      "b209": 6136,
      "1f00": 6137,
      "7fbc": 6138,
      "e6b5": 6139,
      "e98f": 6140,
      "4241": 6141,
      "42ba": 6142,
      "59fd": 6143,
      "4558": 6144,
      "8200": 6145,
      "c12a": 6146,
      "c137": 6147,
      "6700": 6148,
      "3d00": 6149,
      "3d16": 6150,
      "8759": 6151,
      "2fe4": 6152,
      "2050": 6153,
      "2043": 6154,
      "8664": 6155,
      "3c69": 6156,
      "f2f9": 6157,
      "d667": 6158,
      "e7e1": 6159,
      "782f": 6160,
      "ce18": 6161,
      "e4c8": 6162,
      "eb87": 6163,
      "408e": 6164,
      "1000": 6165,
      "006e": 6166,
      "004d": 6167,
      "013f": 6168,
      "0a80": 6169,
      "0250": 6170,
      "326f": 6171,
      "3277": 6172,
      "3238": 6173,
      "321f": 6174,
      "32d8": 6175,
      "3237": 6176,
      "3210": 6177,
      "32d1": 6178,
      "3284": 6179,
      "32e0": 6180,
      "32c5": 6181,
      "322b": 6182,
      "32c1": 6183,
      "32cb": 6184,
      "3242": 6185,
      "320e": 6186,
      "320c": 6187,
      "2361": 6188,
      "2377": 6189,
      "616b": 6190,
      "0587": 6191,
      "4f4a": 6192,
      "5514": 6193,
      "7665": 6194,
      "116d": 6195,
      "312c": 6196,
      "4e1f": 6197,
      "2a2e": 6198,
      "6e20": 6199,
      "6e1f": 6200,
      "2828": 6201,
      "2df3": 6202,
      "0c00": 6203,
      "53af": 6204,
      "d93a": 6205,
      "d942": 6206,
      "4302": 6207,
      "6610": 6208,
      "7fed": 6209,
      "7fbe": 6210,
      "e926": 6211,
      "e924": 6212,
      "4250": 6213,
      "af67": 6214,
      "bf77": 6215,
      "c121": 6216,
      "fa03": 6217,
      "20e4": 6218,
      "5600": 6219,
      "a2a3": 6220,
      "d4c8": 6221,
      "9e92": 6222,
      "9e13": 6223,
      "7059": 6224,
      "9469": 6225,
      "0039": 6226,
      "0068": 6227,
      "00b6": 6228,
      "0058": 6229,
      "0056": 6230,
      "01a6": 6231,
      "039d": 6232,
      "10b4": 6233,
      "024b": 6234,
      "3250": 6235,
      "3221": 6236,
      "32a4": 6237,
      "324d": 6238,
      "329a": 6239,
      "3212": 6240,
      "18ca": 6241,
      "2360": 6242,
      "be5b": 6243,
      "044a": 6244,
      "0410": 6245,
      "3730": 6246,
      "7998": 6247,
      "797d": 6248,
      "117f": 6249,
      "4e34": 6250,
      "bb57": 6251,
      "bbe0": 6252,
      "3939": 6253,
      "5200": 6254,
      "52eb": 6255,
      "3635": 6256,
      "3607": 6257,
      "5de6": 6258,
      "5de8": 6259,
      "5ddb": 6260,
      "6573": 6261,
      "656d": 6262,
      "e81f": 6263,
      "1084": 6264,
      "2966": 6265,
      "5365": 6266,
      "77bd": 6267,
      "54d1": 6268,
      "7f5d": 6269,
      "1600": 6270,
      "0dd2": 6271,
      "d8c5": 6272,
      "89d5": 6273,
      "b30e": 6274,
      "5c44": 6275,
      "5c84": 6276,
      "875d": 6277,
      "25ba": 6278,
      "7875": 6279,
      "f7fe": 6280,
      "4083": 6281,
      "3034": 6282,
      "00c0": 6283,
      "00eb": 6284,
      "016e": 6285,
      "0135": 6286,
      "0144": 6287,
      "0171": 6288,
      "0a00": 6289,
      "0a4b": 6290,
      "0385": 6291,
      "3269": 6292,
      "32bb": 6293,
      "322a": 6294,
      "3260": 6295,
      "3298": 6296,
      "32a6": 6297,
      "32b5": 6298,
      "3243": 6299,
      "322e": 6300,
      "32a8": 6301,
      "3202": 6302,
      "3217": 6303,
      "32cf": 6304,
      "32f6": 6305,
      "32df": 6306,
      "32d4": 6307,
      "3288": 6308,
      "323a": 6309,
      "32b7": 6310,
      "321b": 6311,
      "3207": 6312,
      "616e": 6313,
      "6174": 6314,
      "615f": 6315,
      "6f73": 6316,
      "691c": 6317,
      "4f49": 6318,
      "4abf": 6319,
      "4a12": 6320,
      "79fd": 6321,
      "1184": 6322,
      "3137": 6323,
      "392c": 6324,
      "3922": 6325,
      "6300": 6326,
      "280a": 6327,
      "a4d1": 6328,
      "096d": 6329,
      "1db4": 6330,
      "5370": 6331,
      "d943": 6332,
      "8d7f": 6333,
      "6d82": 6334,
      "4b50": 6335,
      "ac5c": 6336,
      "26fa": 6337,
      "b205": 6338,
      "06fc": 6339,
      "0bba": 6340,
      "1208": 6341,
      "f10c": 6342,
      "42b4": 6343,
      "42b8": 6344,
      "59ff": 6345,
      "59f7": 6346,
      "af6b": 6347,
      "dad8": 6348,
      "484c": 6349,
      "5868": 6350,
      "c133": 6351,
      "fa66": 6352,
      "7a47": 6353,
      "20e6": 6354,
      "1900": 6355,
      "2b70": 6356,
      "2b97": 6357,
      "6c61": 6358,
      "3c11": 6359,
      "f8b6": 6360,
      "ba84": 6361,
      "ef2a": 6362,
      "9437": 6363,
      "9c4b": 6364,
      "c203": 6365,
      "3020": 6366,
      "f070": 6367,
      "00d6": 6368,
      "0066": 6369,
      "00ba": 6370,
      "0046": 6371,
      "00d9": 6372,
      "01f4": 6373,
      "030a": 6374,
      "03e0": 6375,
      "0312": 6376,
      "32de": 6377,
      "3245": 6378,
      "329d": 6379,
      "325c": 6380,
      "32d5": 6381,
      "32b4": 6382,
      "32f8": 6383,
      "323d": 6384,
      "32e7": 6385,
      "328c": 6386,
      "216f": 6387,
      "be57": 6388,
      "be59": 6389,
      "ff28": 6390,
      "766e": 6391,
      "3134": 6392,
      "2aef": 6393,
      "a5c6": 6394,
      "5b01": 6395,
      "5bad": 6396,
      "3970": 6397,
      "3930": 6398,
      "3436": 6399,
      "9791": 6400,
      "5dd9": 6401,
      "e878": 6402,
      "1d89": 6403,
      "6d54": 6404,
      "6d2e": 6405,
      "5af9": 6406,
      "5a07": 6407,
      "7fbb": 6408,
      "7fc1": 6409,
      "7fc2": 6410,
      "1213": 6411,
      "d843": 6412,
      "7276": 6413,
      "42b9": 6414,
      "add1": 6415,
      "adce": 6416,
      "92b1": 6417,
      "fb87": 6418,
      "4500": 6419,
      "5f7e": 6420,
      "f9e5": 6421,
      "c452": 6422,
      "c451": 6423,
      "8761": 6424,
      "8789": 6425,
      "2f46": 6426,
      "c900": 6427,
      "2b96": 6428,
      "7874": 6429,
      "ab00": 6430,
      "d4c1": 6431,
      "994c": 6432,
      "eb00": 6433,
      "a9fb": 6434,
      "dc66": 6435,
      "f06f": 6436,
      "4077": 6437,
      "408d": 6438,
      "3035": 6439,
      "d000": 6440,
      "b039": 6441,
      "f0aa": 6442,
      "0064": 6443,
      "0048": 6444,
      "00e6": 6445,
      "00ef": 6446,
      "014c": 6447,
      "011f": 6448,
      "084b": 6449,
      "08e7": 6450,
      "1033": 6451,
      "10dd": 6452,
      "10b8": 6453,
      "02f6": 6454,
      "3291": 6455,
      "3264": 6456,
      "326c": 6457,
      "32a0": 6458,
      "32f9": 6459,
      "3279": 6460,
      "3223": 6461,
      "32f1": 6462,
      "32b8": 6463,
      "32ef": 6464,
      "32d0": 6465,
      "32b0": 6466,
      "32ab": 6467,
      "18c9": 6468,
      "732f": 6469,
      "23e9": 6470,
      "059c": 6471,
      "6905": 6472,
      "ed9e": 6473,
      "5527": 6474,
      "3138": 6475,
      "5b5b": 6476,
      "6e21": 6477,
      "6ef2": 6478,
      "64c6": 6479,
      "5133": 6480,
      "5131": 6481,
      "5201": 6482,
      "5265": 6483,
      "3438": 6484,
      "3639": 6485,
      "5dea": 6486,
      "6500": 6487,
      "fdd4": 6488,
      "24ff": 6489,
      "4129": 6490,
      "43a6": 6491,
      "07d7": 6492,
      "7f03": 6493,
      "7fc9": 6494,
      "7f46": 6495,
      "1206": 6496,
      "f16c": 6497,
      "f1fa": 6498,
      "883e": 6499,
      "44e7": 6500,
      "e900": 6501,
      "e913": 6502,
      "2c32": 6503,
      "7265": 6504,
      "7220": 6505,
      "42b1": 6506,
      "42b7": 6507,
      "7461": 6508,
      "89d6": 6509,
      "89e6": 6510,
      "fb17": 6511,
      "584a": 6512,
      "f929": 6513,
      "c126": 6514,
      "5cff": 6515,
      "1501": 6516,
      "19a3": 6517,
      "4632": 6518,
      "27bc": 6519,
      "25fe": 6520,
      "f8c5": 6521,
      "7877": 6522,
      "1c39": 6523,
      "db48": 6524,
      "ec07": 6525,
      "e4dc": 6526,
      "b5d2": 6527,
      "bdc8": 6528,
      "eba5": 6529,
      "3032": 6530,
      "003d": 6531,
      "003b": 6532,
      "0065": 6533,
      "0041": 6534,
      "0063": 6535,
      "0043": 6536,
      "00ec": 6537,
      "005a": 6538,
      "005f": 6539,
      "008a": 6540,
      "00ee": 6541,
      "0824": 6542,
      "1038": 6543,
      "10c2": 6544,
      "0208": 6545,
      "3252": 6546,
      "32b9": 6547,
      "3254": 6548,
      "327f": 6549,
      "3275": 6550,
      "3246": 6551,
      "32be": 6552,
      "32a3": 6553,
      "32ac": 6554,
      "3218": 6555,
      "6f74": 6556,
      "0557": 6557,
      "0516": 6558,
      "1a1a": 6559,
      "69ba": 6560,
      "5564": 6561,
      "552f": 6562,
      "04e6": 6563,
      "4a73": 6564,
      "a7c5": 6565,
      "010c": 6566,
      "79fe": 6567,
      "114f": 6568,
      "4e48": 6569,
      "4e2d": 6570,
      "4e3e": 6571,
      "5bab": 6572,
      "6e26": 6573,
      "6e23": 6574,
      "64ff": 6575,
      "647d": 6576,
      "5130": 6577,
      "636c": 6578,
      "3439": 6579,
      "28f3": 6580,
      "a4d8": 6581,
      "fea7": 6582,
      "5ddc": 6583,
      "652f": 6584,
      "414c": 6585,
      "5300": 6586,
      "5312": 6587,
      "6d00": 6588,
      "6d68": 6589,
      "6a3f": 6590,
      "5af1": 6591,
      "3565": 6592,
      "3530": 6593,
      "0610": 6594,
      "f5ad": 6595,
      "f4e7": 6596,
      "0b23": 6597,
      "0bc1": 6598,
      "666a": 6599,
      "7f77": 6600,
      "9dd9": 6601,
      "120b": 6602,
      "f1f9": 6603,
      "f1f7": 6604,
      "8813": 6605,
      "4432": 6606,
      "2cd2": 6607,
      "723a": 6608,
      "89e1": 6609,
      "89e4": 6610,
      "59ee": 6611,
      "af6a": 6612,
      "5f00": 6613,
      "2e63": 6614,
      "c120": 6615,
      "c11b": 6616,
      "7a32": 6617,
      "2f32": 6618,
      "159f": 6619,
      "4600": 6620,
      "25d6": 6621,
      "3cc6": 6622,
      "56e5": 6623,
      "d68f": 6624,
      "e700": 6625,
      "7dd7": 6626,
      "8e90": 6627,
      "b54d": 6628,
      "c8db": 6629,
      "ee65": 6630,
      "7065": 6631,
      "9581": 6632,
      "f0e5": 6633,
      "408f": 6634,
      "404b": 6635,
      "c083": 6636,
      "030c": 6637,
      "0069": 6638,
      "00a4": 6639,
      "009b": 6640,
      "00a8": 6641,
      "004b": 6642,
      "00dc": 6643,
      "00e7": 6644,
      "00d0": 6645,
      "0042": 6646,
      "0192": 6647,
      "01b4": 6648,
      "0a20": 6649,
      "326e": 6650,
      "3253": 6651,
      "32fb": 6652,
      "3257": 6653,
      "324b": 6654,
      "3256": 6655,
      "321a": 6656,
      "32b3": 6657,
      "32eb": 6658,
      "3219": 6659,
      "3205": 6660,
      "3204": 6661,
      "73e9": 6662,
      "21ca": 6663,
      "be04": 6664,
      "057b": 6665,
      "4f47": 6666,
      "0420": 6667,
      "0448": 6668,
      "a7a7": 6669,
      "37a4": 6670,
      "6e4c": 6671,
      "6e25": 6672,
      "90ca": 6673,
      "6478": 6674,
      "3430": 6675,
      "fd0e": 6676,
      "4c49": 6677,
      "249d": 6678,
      "1362": 6679,
      "d93d": 6680,
      "6dc6": 6681,
      "4bf9": 6682,
      "ac7b": 6683,
      "35de": 6684,
      "b2d9": 6685,
      "1f1b": 6686,
      "0600": 6687,
      "4db2": 6688,
      "4dc8": 6689,
      "54f0": 6690,
      "7fc6": 6691,
      "7fc3": 6692,
      "3b87": 6693,
      "0d00": 6694,
      "0d35": 6695,
      "f32a": 6696,
      "f380": 6697,
      "e929": 6698,
      "fcaf": 6699,
      "fc2e": 6700,
      "2c35": 6701,
      "2c25": 6702,
      "7267": 6703,
      "42b5": 6704,
      "adc9": 6705,
      "89d7": 6706,
      "59fe": 6707,
      "fb20": 6708,
      "af00": 6709,
      "af68": 6710,
      "48e9": 6711,
      "58e8": 6712,
      "5815": 6713,
      "5f3b": 6714,
      "c11a": 6715,
      "c10f": 6716,
      "3dc6": 6717,
      "0e00": 6718,
      "8768": 6719,
      "7a43": 6720,
      "2f4c": 6721,
      "8693": 6722,
      "863b": 6723,
      "6c69": 6724,
      "3c12": 6725,
      "f298": 6726,
      "d691": 6727,
      "9300": 6728,
      "d3f7": 6729,
      "8e00": 6730,
      "e267": 6731,
      "f738": 6732,
      "cf00": 6733,
      "8b1f": 6734,
      "8b51": 6735,
      "bd6c": 6736,
      "ee00": 6737,
      "9a00": 6738,
      "cb56": 6739,
      "ef63": 6740,
      "ef8c": 6741,
      "8c71": 6742,
      "30b6": 6743,
      "f073": 6744,
      "40e9": 6745,
      "b064": 6746,
      "c055": 6747,
      "0210": 6748,
      "203e": 6749,
      "00c9": 6750,
      "0067": 6751,
      "008f": 6752,
      "0097": 6753,
      "0059": 6754,
      "00a5": 6755,
      "00d4": 6756,
      "00cd": 6757,
      "0134": 6758,
      "0136": 6759,
      "0193": 6760,
      "0180": 6761,
      "017d": 6762,
      "0a53": 6763,
      "03f7": 6764,
      "02fa": 6765,
      "3273": 6766,
      "3255": 6767,
      "32f5": 6768,
      "326a": 6769,
      "3268": 6770,
      "3241": 6771,
      "32b2": 6772,
      "3267": 6773,
      "328e": 6774,
      "32f2": 6775,
      "323c": 6776,
      "32d9": 6777,
      "32e4": 6778,
      "32b1": 6779,
      "327d": 6780,
      "73ed": 6781,
      "73dc": 6782,
      "73e0": 6783,
      "23d7": 6784,
      "505c": 6785,
      "be5a": 6786,
      "61bd": 6787,
      "0537": 6788,
      "0559": 6789,
      "055a": 6790,
      "ff00": 6791,
      "fffe": 6792,
      "ff60": 6793,
      "4f4b": 6794,
      "4a0a": 6795,
      "4a06": 6796,
      "a7a3": 6797,
      "79c6": 6798,
      "3130": 6799,
      "2a01": 6800,
      "22ee": 6801,
      "5bae": 6802,
      "81cc": 6803,
      "6ef1": 6804,
      "6ee7": 6805,
      "bb69": 6806,
      "3932": 6807,
      "3947": 6808,
      "392f": 6809,
      "5155": 6810,
      "51e1": 6811,
      "513c": 6812,
      "51ad": 6813,
      "5111": 6814,
      "6377": 6815,
      "a600": 6816,
      "09cf": 6817,
      "5de2": 6818,
      "24a2": 6819,
      "53be": 6820,
      "d9e9": 6821,
      "d9f8": 6822,
      "43bf": 6823,
      "6820": 6824,
      "6d2f": 6825,
      "7511": 6826,
      "5a8d": 6827,
      "3546": 6828,
      "072b": 6829,
      "4d51": 6830,
      "1bff": 6831,
      "f1f8": 6832,
      "f1cf": 6833,
      "f1f1": 6834,
      "e927": 6835,
      "494e": 6836,
      "49f9": 6837,
      "8f99": 6838,
      "7468": 6839,
      "9800": 6840,
      "89e8": 6841,
      "5998": 6842,
      "48e8": 6843,
      "582f": 6844,
      "b391": 6845,
      "676f": 6846,
      "67bf": 6847,
      "5c00": 6848,
      "7a51": 6849,
      "4610": 6850,
      "c969": 6851,
      "25f3": 6852,
      "6cff": 6853,
      "6b54": 6854,
      "f235": 6855,
      "f8ef": 6856,
      "a220": 6857,
      "93ac": 6858,
      "1cac": 6859,
      "8e98": 6860,
      "db12": 6861,
      "ec47": 6862,
      "c869": 6863,
      "c8c1": 6864,
      "d2f1": 6865,
      "6097": 6866,
      "30f0": 6867,
      "e06e": 6868,
      "d061": 6869,
      "0306": 6870,
      "3031": 6871,
      "f000": 6872,
      "7002": 6873,
      "4015": 6874,
      "7030": 6875,
      "7032": 6876,
      "e010": 6877,
      "009d": 6878,
      "0044": 6879,
      "008e": 6880,
      "00e3": 6881,
      "006b": 6882,
      "00c3": 6883,
      "017a": 6884,
      "01dd": 6885,
      "01ad": 6886,
      "0116": 6887,
      "01c2": 6888,
      "0a41": 6889,
      "0335": 6890,
      "0349": 6891,
      "02ed": 6892,
      "32ed": 6893,
      "324e": 6894,
      "324c": 6895,
      "3220": 6896,
      "32f4": 6897,
      "3226": 6898,
      "32dd": 6899,
      "326b": 6900,
      "3290": 6901,
      "18d5": 6902,
      "73db": 6903,
      "217f": 6904,
      "6161": 6905,
      "6129": 6906,
      "6179": 6907,
      "6f43": 6908,
      "6f66": 6909,
      "05a6": 6910,
      "0522": 6911,
      "ff19": 6912,
      "7cb2": 6913,
      "6900": 6914,
      "62fe": 6915,
      "626d": 6916,
      "0477": 6917,
      "0412": 6918,
      "040f": 6919,
      "0406": 6920,
      "0404": 6921,
      "4a02": 6922,
      "a700": 6923,
      "0109": 6924,
      "3338": 6925,
      "3339": 6926,
      "3330": 6927,
      "37d6": 6928,
      "76ff": 6929,
      "3835": 6930,
      "38a5": 6931,
      "a5ed": 6932,
      "5b49": 6933,
      "814d": 6934,
      "3934": 6935,
      "3937": 6936,
      "6471": 6937,
      "518a": 6938,
      "638b": 6939,
      "a622": 6940,
      "80c5": 6941,
      "fe00": 6942,
      "2d38": 6943,
      "9790": 6944,
      "5d00": 6945,
      "5d51": 6946,
      "5d3c": 6947,
      "6569": 6948,
      "fdbf": 6949,
      "24a1": 6950,
      "0c02": 6951,
      "412f": 6952,
      "2968": 6953,
      "5305": 6954,
      "d900": 6955,
      "6805": 6956,
      "6df5": 6957,
      "6d67": 6958,
      "ac28": 6959,
      "5a90": 6960,
      "26bf": 6961,
      "3539": 6962,
      "b206": 6963,
      "1fc7": 6964,
      "f56d": 6965,
      "4dea": 6966,
      "4d58": 6967,
      "f425": 6968,
      "7fba": 6969,
      "12ff": 6970,
      "1210": 6971,
      "1224": 6972,
      "1282": 6973,
      "1b0e": 6974,
      "e928": 6975,
      "fca5": 6976,
      "fc06": 6977,
      "3e00": 6978,
      "2c38": 6979,
      "2c39": 6980,
      "2c57": 6981,
      "57ee": 6982,
      "d129": 6983,
      "59f2": 6984,
      "fbff": 6985,
      "fb9d": 6986,
      "fb83": 6987,
      "daa8": 6988,
      "4584": 6989,
      "3a83": 6990,
      "5fdf": 6991,
      "b333": 6992,
      "b3e9": 6993,
      "e115": 6994,
      "c135": 6995,
      "3df3": 6996,
      "5c64": 6997,
      "0e56": 6998,
      "fa00": 6999,
      "7a4f": 7000,
      "7a09": 7001,
      "2f61": 7002,
      "2f22": 7003,
      "f60f": 7004,
      "25ff": 7005,
      "25e6": 7006,
      "6b61": 7007,
      "f2ab": 7008,
      "f8d4": 7009,
      "a2e9": 7010,
      "b402": 7011,
      "e7fa": 7012,
      "7dcf": 7013,
      "a08c": 7014,
      "ecc9": 7015,
      "d7ff": 7016,
      "7100": 7017,
      "71ac": 7018,
      "ba70": 7019,
      "ddf4": 7020,
      "ae36": 7021,
      "8c00": 7022,
      "cdc1": 7023,
      "caf0": 7024,
      "40e7": 7025,
      "d0db": 7026,
      "0308": 7027,
      "0307": 7028,
      "303e": 7029,
      "0a07": 7030,
      "7006": 7031,
      "f030": 7032,
      "00e8": 7033,
      "00fa": 7034,
      "0049": 7035,
      "008b": 7036,
      "00f6": 7037,
      "00c4": 7038,
      "00b1": 7039,
      "0147": 7040,
      "016d": 7041,
      "0154": 7042,
      "018b": 7043,
      "01b1": 7044,
      "0118": 7045,
      "08c0": 7046,
      "03a5": 7047,
      "0388": 7048,
      "104c": 7049,
      "103d": 7050,
      "02a8": 7051,
      "0256": 7052,
      "3270": 7053,
      "32fe": 7054,
      "32ec": 7055,
      "3240": 7056,
      "328d": 7057,
      "3287": 7058,
      "32ad": 7059,
      "32bd": 7060,
      "3213": 7061,
      "32f7": 7062,
      "32d3": 7063,
      "73e3": 7064,
      "73e2": 7065,
      "73e7": 7066,
      "23c9": 7067,
      "6f2a": 7068,
      "6fa4": 7069,
      "0525": 7070,
      "1aa2": 7071,
      "ff49": 7072,
      "ffdf": 7073,
      "69f3": 7074,
      "69e8": 7075,
      "ed39": 7076,
      "62fa": 7077,
      "4f48": 7078,
      "5531": 7079,
      "04d9": 7080,
      "3732": 7081,
      "37dc": 7082,
      "11dd": 7083,
      "11b8": 7084,
      "3188": 7085,
      "4e00": 7086,
      "2a7a": 7087,
      "2ace": 7088,
      "5b91": 7089,
      "5b10": 7090,
      "8197": 7091,
      "6e1d": 7092,
      "7b87": 7093,
      "5168": 7094,
      "52d8": 7095,
      "52d4": 7096,
      "34d8": 7097,
      "3437": 7098,
      "3631": 7099,
      "362c": 7100,
      "36d1": 7101,
      "36c1": 7102,
      "a400": 7103,
      "a4d7": 7104,
      "a6d5": 7105,
      "098e": 7106,
      "5e8a": 7107,
      "febf": 7108,
      "2d07": 7109,
      "9751": 7110,
      "9749": 7111,
      "9785": 7112,
      "5de5": 7113,
      "65b0": 7114,
      "e85b": 7115,
      "1d43": 7116,
      "0c28": 7117,
      "414a": 7118,
      "4102": 7119,
      "295b": 7120,
      "2902": 7121,
      "1400": 7122,
      "14d2": 7123,
      "d9e8": 7124,
      "4312": 7125,
      "6d77": 7126,
      "6d6c": 7127,
      "6d74": 7128,
      "4bf4": 7129,
      "7510": 7130,
      "ac57": 7131,
      "77ce": 7132,
      "5ade": 7133,
      "0734": 7134,
      "0726": 7135,
      "b2b6": 7136,
      "477b": 7137,
      "06ac": 7138,
      "f5eb": 7139,
      "0b33": 7140,
      "7f67": 7141,
      "9d30": 7142,
      "1203": 7143,
      "1267": 7144,
      "e636": 7145,
      "160a": 7146,
      "0d01": 7147,
      "0dff": 7148,
      "0dcb": 7149,
      "4489": 7150,
      "42b3": 7151,
      "4900": 7152,
      "74c6": 7153,
      "7e46": 7154,
      "d100": 7155,
      "d14b": 7156,
      "59f4": 7157,
      "593e": 7158,
      "45ff": 7159,
      "453e": 7160,
      "4886": 7161,
      "5800": 7162,
      "58f9": 7163,
      "f9d8": 7164,
      "e18b": 7165,
      "c12e": 7166,
      "6757": 7167,
      "67bc": 7168,
      "8782": 7169,
      "fafd": 7170,
      "7a00": 7171,
      "7a4a": 7172,
      "152c": 7173,
      "8665": 7174,
      "4603": 7175,
      "279d": 7176,
      "2b7a": 7177,
      "2b71": 7178,
      "a376": 7179,
      "a32b": 7180,
      "3c67": 7181,
      "f2ea": 7182,
      "f862": 7183,
      "f8f0": 7184,
      "f8eb": 7185,
      "9349": 7186,
      "b486": 7187,
      "b65d": 7188,
      "abf0": 7189,
      "7dbe": 7190,
      "d4d1": 7191,
      "8eca": 7192,
      "e216": 7193,
      "e21c": 7194,
      "cf87": 7195,
      "dfff": 7196,
      "dfa8": 7197,
      "b549": 7198,
      "9efe": 7199,
      "c629": 7200,
      "c6a7": 7201,
      "70e8": 7202,
      "cb10": 7203,
      "eb86": 7204,
      "dd0e": 7205,
      "8aeb": 7206,
      "c78d": 7207,
      "e5bf": 7208,
      "e5e2": 7209,
      "9c53": 7210,
      "ca00": 7211,
      "c200": 7212,
      "f0fd": 7213,
      "d08a": 7214,
      "c02b": 7215,
      "030b": 7216,
      "7000": 7217,
      "0505": 7218,
      "f0a6": 7219,
      "0047": 7220,
      "0057": 7221,
      "010a": 7222,
      "018f": 7223,
      "011a": 7224,
      "0828": 7225,
      "0822": 7226,
      "0af9": 7227,
      "036c": 7228,
      "038e": 7229,
      "03c5": 7230,
      "03d4": 7231,
      "03ac": 7232,
      "10c0": 7233,
      "02b7": 7234,
      "0205": 7235,
      "3295": 7236,
      "3251": 7237,
      "3259": 7238,
      "18b9": 7239,
      "73de": 7240,
      "73e6": 7241,
      "73e1": 7242,
      "2116": 7243,
      "5048": 7244,
      "6101": 7245,
      "6f88": 7246,
      "ff0a": 7247,
      "ff48": 7248,
      "ff89": 7249,
      "7cfb": 7250,
      "edb6": 7251,
      "6200": 7252,
      "624d": 7253,
      "62a2": 7254,
      "04b6": 7255,
      "048b": 7256,
      "4add": 7257,
      "3332": 7258,
      "3331": 7259,
      "33d6": 7260,
      "3737": 7261,
      "7900": 7262,
      "7669": 7263,
      "760b": 7264,
      "1183": 7265,
      "382c": 7266,
      "31ed": 7267,
      "4e74": 7268,
      "4e49": 7269,
      "2222": 7270,
      "22e0": 7271,
      "81ff": 7272,
      "6eee": 7273,
      "bb61": 7274,
      "bb32": 7275,
      "7b36": 7276,
      "6421": 7277,
      "64cf": 7278,
      "5169": 7279,
      "51e8": 7280,
      "51d5": 7281,
      "6365": 7282,
      "6372": 7283,
      "63f8": 7284,
      "52db": 7285,
      "36fe": 7286,
      "28da": 7287,
      "281a": 7288,
      "2846": 7289,
      "28b8": 7290,
      "a448": 7291,
      "a4d9": 7292,
      "a6d6": 7293,
      "0903": 7294,
      "5e00": 7295,
      "5e53": 7296,
      "fea8": 7297,
      "2d4f": 7298,
      "97ff": 7299,
      "5df3": 7300,
      "5dc2": 7301,
      "6561": 7302,
      "6566": 7303,
      "1e08": 7304,
      "0cff": 7305,
      "0c35": 7306,
      "0cb4": 7307,
      "4143": 7308,
      "41f9": 7309,
      "41d3": 7310,
      "2967": 7311,
      "1328": 7312,
      "d95a": 7313,
      "43fe": 7314,
      "4398": 7315,
      "4336": 7316,
      "6da6": 7317,
      "6d40": 7318,
      "6de4": 7319,
      "4b5c": 7320,
      "4b02": 7321,
      "4b1b": 7322,
      "7700": 7323,
      "776d": 7324,
      "5a1f": 7325,
      "5a37": 7326,
      "265e": 7327,
      "3536": 7328,
      "352d": 7329,
      "070a": 7330,
      "07d5": 7331,
      "b261": 7332,
      "b2db": 7333,
      "1f99": 7334,
      "47f9": 7335,
      "471e": 7336,
      "478c": 7337,
      "06ea": 7338,
      "06e0": 7339,
      "06cb": 7340,
      "f500": 7341,
      "3f26": 7342,
      "3ff7": 7343,
      "3f04": 7344,
      "0b5e": 7345,
      "544b": 7346,
      "54c4": 7347,
      "7fc8": 7348,
      "7f14": 7349,
      "7fc7": 7350,
      "12fe": 7351,
      "12cf": 7352,
      "120c": 7353,
      "e600": 7354,
      "0f5c": 7355,
      "0d40": 7356,
      "449b": 7357,
      "e9ad": 7358,
      "fca6": 7359,
      "d85a": 7360,
      "425a": 7361,
      "4970": 7362,
      "adb5": 7363,
      "add4": 7364,
      "7475": 7365,
      "926e": 7366,
      "89e5": 7367,
      "5928": 7368,
      "59fb": 7369,
      "59fa": 7370,
      "5916": 7371,
      "da8d": 7372,
      "3a6a": 7373,
      "8209": 7374,
      "5feb": 7375,
      "bf78": 7376,
      "2e00": 7377,
      "2e37": 7378,
      "b366": 7379,
      "e18c": 7380,
      "c116": 7381,
      "67c9": 7382,
      "6756": 7383,
      "5c72": 7384,
      "b919": 7385,
      "ea45": 7386,
      "ea64": 7387,
      "7a50": 7388,
      "7a44": 7389,
      "206f": 7390,
      "19de": 7391,
      "19cb": 7392,
      "86be": 7393,
      "46a7": 7394,
      "e3b0": 7395,
      "2b69": 7396,
      "6c9b": 7397,
      "3c47": 7398,
      "f8ba": 7399,
      "d6f6": 7400,
      "a2ff": 7401,
      "a2a2": 7402,
      "e7f4": 7403,
      "ab01": 7404,
      "7d00": 7405,
      "7d46": 7406,
      "7d13": 7407,
      "ecd7": 7408,
      "e431": 7409,
      "f7a5": 7410,
      "dffc": 7411,
      "c853": 7412,
      "c8e8": 7413,
      "8ba3": 7414,
      "ee01": 7415,
      "c64f": 7416,
      "c6d4": 7417,
      "9a2a": 7418,
      "9ae3": 7419,
      "eb70": 7420,
      "efe7": 7421,
      "d2ff": 7422,
      "b851": 7423,
      "944b": 7424,
      "8cf0": 7425,
      "951a": 7426,
      "e55e": 7427,
      "dc73": 7428,
      "ca3a": 7429,
      "60fc": 7430,
      "60ba": 7431,
      "c500": 7432,
      "40f9": 7433,
      "c0c4": 7434,
      "8014": 7435,
      "400a": 7436,
      "4009": 7437,
      "0507": 7438,
      "050c": 7439,
      "9502": 7440,
      "b034": 7441,
      "20a8": 7442,
      "0062": 7443,
      "00b2": 7444,
      "0054": 7445,
      "0096": 7446,
      "00f2": 7447,
      "00a1": 7448,
      "009e": 7449,
      "00e4": 7450,
      "0089": 7451,
      "00b7": 7452,
      "014e": 7453,
      "0170": 7454,
      "0168": 7455,
      "01ea": 7456,
      "01d2": 7457,
      "08ea": 7458,
      "0875": 7459,
      "0abb": 7460,
      "03fe": 7461,
      "03e9": 7462,
      "038a": 7463,
      "106f": 7464,
      "1063": 7465,
      "1036": 7466,
      "1035": 7467,
      "103c": 7468,
      "10c6": 7469,
      "10c1": 7470,
      "0203": 7471,
      "0296": 7472,
      "0280": 7473,
      "0282": 7474,
      "023b": 7475,
      "022b": 7476,
      "1790": 7477,
      "3292": 7478,
      "3248": 7479,
      "3274": 7480,
      "328a": 7481,
      "32ca": 7482,
      "18fd": 7483,
      "7301": 7484,
      "73da": 7485,
      "23ac": 7486,
      "5055": 7487,
      "50e8": 7488,
      "0578": 7489,
      "aa81": 7490,
      "aa84": 7491,
      "aaeb": 7492,
      "1a0f": 7493,
      "fffb": 7494,
      "ff6d": 7495,
      "ff26": 7496,
      "6966": 7497,
      "69e5": 7498,
      "4f39": 7499,
      "55a1": 7500,
      "0434": 7501,
      "04bc": 7502,
      "a7a4": 7503,
      "0104": 7504,
      "3337": 7505,
      "3371": 7506,
      "37a9": 7507,
      "79ff": 7508,
      "79a9": 7509,
      "3875": 7510,
      "4ee3": 7511,
      "2a49": 7512,
      "2ac7": 7513,
      "2260": 7514,
      "a500": 7515,
      "5bb2": 7516,
      "5b48": 7517,
      "5b7e": 7518,
      "6e28": 7519,
      "6e27": 7520,
      "bbd9": 7521,
      "6373": 7522,
      "6363": 7523,
      "6380": 7524,
      "5259": 7525,
      "52d2": 7526,
      "3431": 7527,
      "3454": 7528,
      "3499": 7529,
      "28ef": 7530,
      "a48a": 7531,
      "a62c": 7532,
      "a68d": 7533,
      "a6a2": 7534,
      "091e": 7535,
      "09df": 7536,
      "2dfa": 7537,
      "2d56": 7538,
      "9789": 7539,
      "5d5f": 7540,
      "6570": 7541,
      "6531": 7542,
      "6526": 7543,
      "6524": 7544,
      "653c": 7545,
      "e868": 7546,
      "e84b": 7547,
      "247c": 7548,
      "2453": 7549,
      "24a0": 7550,
      "1e99": 7551,
      "0c3f": 7552,
      "0c3c": 7553,
      "4141": 7554,
      "2903": 7555,
      "29fa": 7556,
      "53bf": 7557,
      "1322": 7558,
      "147c": 7559,
      "6800": 7560,
      "6d72": 7561,
      "4bf8": 7562,
      "4b8a": 7563,
      "6a2b": 7564,
      "ac77": 7565,
      "ac78": 7566,
      "772d": 7567,
      "5a68": 7568,
      "5abf": 7569,
      "5a25": 7570,
      "5a3e": 7571,
      "5a18": 7572,
      "3533": 7573,
      "3538": 7574,
      "3549": 7575,
      "b2e9": 7576,
      "1fda": 7577,
      "1fc8": 7578,
      "47a0": 7579,
      "47a8": 7580,
      "47ad": 7581,
      "47b0": 7582,
      "0620": 7583,
      "f559": 7584,
      "4d7b": 7585,
      "4dd2": 7586,
      "f402": 7587,
      "3fa1": 7588,
      "3feb": 7589,
      "0b6e": 7590,
      "667e": 7591,
      "66ba": 7592,
      "666b": 7593,
      "9dfd": 7594,
      "1211": 7595,
      "120d": 7596,
      "1205": 7597,
      "1bb3": 7598,
      "1b11": 7599,
      "1662": 7600,
      "f1f4": 7601,
      "f1ec": 7602,
      "8828": 7603,
      "3b86": 7604,
      "0fed": 7605,
      "0dfc": 7606,
      "0d06": 7607,
      "fc62": 7608,
      "7274": 7609,
      "8525": 7610,
      "85bc": 7611,
      "4253": 7612,
      "42b2": 7613,
      "4258": 7614,
      "4911": 7615,
      "8fea": 7616,
      "7420": 7617,
      "7425": 7618,
      "9200": 7619,
      "d1db": 7620,
      "59f5": 7621,
      "597a": 7622,
      "59fc": 7623,
      "59db": 7624,
      "59b7": 7625,
      "a800": 7626,
      "fbfd": 7627,
      "fb8e": 7628,
      "da83": 7629,
      "da8a": 7630,
      "5851": 7631,
      "8372": 7632,
      "2e24": 7633,
      "e1ac": 7634,
      "c129": 7635,
      "c124": 7636,
      "c11d": 7637,
      "c11c": 7638,
      "c118": 7639,
      "c4ff": 7640,
      "c456": 7641,
      "3d5e": 7642,
      "3d3b": 7643,
      "0eee": 7644,
      "b9fd": 7645,
      "b924": 7646,
      "8764": 7647,
      "8756": 7648,
      "87b3": 7649,
      "8790": 7650,
      "eaea": 7651,
      "fabb": 7652,
      "fa76": 7653,
      "fa52": 7654,
      "fa34": 7655,
      "facf": 7656,
      "7a16": 7657,
      "2f4d": 7658,
      "2f96": 7659,
      "2061": 7660,
      "206a": 7661,
      "2074": 7662,
      "f6f9": 7663,
      "867f": 7664,
      "e3bb": 7665,
      "e3ba": 7666,
      "2539": 7667,
      "2be1": 7668,
      "a352": 7669,
      "f204": 7670,
      "f8f3": 7671,
      "d65c": 7672,
      "a23b": 7673,
      "935a": 7674,
      "93f6": 7675,
      "b400": 7676,
      "e7fb": 7677,
      "b67b": 7678,
      "b652": 7679,
      "abda": 7680,
      "ab95": 7681,
      "ab02": 7682,
      "abb7": 7683,
      "7d53": 7684,
      "d314": 7685,
      "d312": 7686,
      "1c58": 7687,
      "8eac": 7688,
      "8e09": 7689,
      "ec69": 7690,
      "ec46": 7691,
      "9fcb": 7692,
      "9f13": 7693,
      "9900": 7694,
      "cf23": 7695,
      "9e98": 7696,
      "9ee3": 7697,
      "c85a": 7698,
      "8b4b": 7699,
      "8b1a": 7700,
      "8bef": 7701,
      "bd79": 7702,
      "eb3f": 7703,
      "eb16": 7704,
      "dd6b": 7705,
      "dd08": 7706,
      "d5bd": 7707,
      "d248": 7708,
      "d23f": 7709,
      "94f1": 7710,
      "9527": 7711,
      "e55c": 7712,
      "cd97": 7713,
      "ca91": 7714,
      "cac0": 7715,
      "c2d2": 7716,
      "c5fc": 7717,
      "f02d": 7718,
      "4069": 7719,
      "40ff": 7720,
      "404d": 7721,
      "e0fc": 7722,
      "d0e5": 7723,
      "c05b": 7724,
      "5014": 7725,
      "3037": 7726,
      "7005": 7727,
      "7003": 7728,
      "950d": 7729,
      "c010": 7730,
      "80a7": 7731,
      "00cc": 7732,
      "005c": 7733,
      "00d5": 7734,
      "009f": 7735,
      "014d": 7736,
      "01dc": 7737,
      "01c3": 7738,
      "089d": 7739,
      "0a16": 7740,
      "0314": 7741,
      "107c": 7742,
      "024c": 7743,
      "0221": 7744,
      "02f9": 7745,
      "02ce": 7746,
      "02f7": 7747,
      "023a": 7748,
      "02c2": 7749,
      "3281": 7750,
      "3265": 7751,
      "326d": 7752,
      "324f": 7753,
      "32e6": 7754,
      "32c0": 7755,
      "3293": 7756,
      "73b6": 7757,
      "73dd": 7758,
      "738a": 7759,
      "2320": 7760,
      "2347": 7761,
      "23d6": 7762,
      "de63": 7763,
      "50dd": 7764,
      "6fc9": 7765,
      "6ffb": 7766,
      "6f7e": 7767,
      "0561": 7768,
      "0555": 7769,
      "aaff": 7770,
      "aafe": 7771,
      "ff73": 7772,
      "ff62": 7773,
      "ff47": 7774,
      "ff39": 7775,
      "ff3f": 7776,
      "ffc3": 7777,
      "ff0b": 7778,
      "7cff": 7779,
      "7ce8": 7780,
      "7c1d": 7781,
      "6964": 7782,
      "69a5": 7783,
      "cc45": 7784,
      "ed63": 7785,
      "edbf": 7786,
      "eddf": 7787,
      "628f": 7788,
      "6206": 7789,
      "4f00": 7790,
      "4f7f": 7791,
      "55b7": 7792,
      "04ff": 7793,
      "04e3": 7794,
      "0418": 7795,
      "040e": 7796,
      "4a62": 7797,
      "3301": 7798,
      "33c9": 7799,
      "3322": 7800,
      "3346": 7801,
      "3739": 7802,
      "37e8": 7803,
      "3706": 7804,
      "79a5": 7805,
      "767e": 7806,
      "76ef": 7807,
      "118f": 7808,
      "1189": 7809,
      "11ee": 7810,
      "3126": 7811,
      "4e6c": 7812,
      "4e4f": 7813,
      "4e2c": 7814,
      "4e46": 7815,
      "2aad": 7816,
      "2234": 7817,
      "2266": 7818,
      "a548": 7819,
      "a5e9": 7820,
      "5b31": 7821,
      "5b2c": 7822,
      "5b90": 7823,
      "5b09": 7824,
      "5ba9": 7825,
      "5b07": 7826,
      "81fb": 7827,
      "81c5": 7828,
      "6e97": 7829,
      "90e3": 7830,
      "7bab": 7831,
      "6469": 7832,
      "647c": 7833,
      "64b4": 7834,
      "512a": 7835,
      "513b": 7836,
      "632d": 7837,
      "52c8": 7838,
      "3457": 7839,
      "2838": 7840,
      "5ea0": 7841,
      "5e8d": 7842,
      "5e17": 7843,
      "fee1": 7844,
      "fe7f": 7845,
      "2dff": 7846,
      "2d43": 7847,
      "2daf": 7848,
      "2de4": 7849,
      "2d3b": 7850,
      "9786": 7851,
      "5d31": 7852,
      "5db6": 7853,
      "5ddd": 7854,
      "5da1": 7855,
      "5dc8": 7856,
      "5dd2": 7857,
      "65b2": 7858,
      "65ae": 7859,
      "e848": 7860,
      "fdff": 7861,
      "fd32": 7862,
      "fdf2": 7863,
      "fd2f": 7864,
      "fd71": 7865,
      "fdce": 7866,
      "2460": 7867,
      "24a6": 7868,
      "248b": 7869,
      "9100": 7870,
      "1ebc": 7871,
      "1e05": 7872,
      "1d01": 7873,
      "1de8": 7874,
      "0c96": 7875,
      "0cd3": 7876,
      "41a2": 7877,
      "137a": 7878,
      "1319": 7879,
      "14b5": 7880,
      "d997": 7881,
      "d946": 7882,
      "4303": 7883,
      "4344": 7884,
      "6dcc": 7885,
      "6d6d": 7886,
      "6d5c": 7887,
      "6d66": 7888,
      "6d78": 7889,
      "6d0e": 7890,
      "7500": 7891,
      "7585": 7892,
      "6a19": 7893,
      "ace8": 7894,
      "acdd": 7895,
      "acc2": 7896,
      "5a6e": 7897,
      "5ada": 7898,
      "5a1c": 7899,
      "2669": 7900,
      "264f": 7901,
      "26b0": 7902,
      "3531": 7903,
      "07f3": 7904,
      "b210": 7905,
      "b2f1": 7906,
      "1fff": 7907,
      "1fc5": 7908,
      "4762": 7909,
      "47ff": 7910,
      "4733": 7911,
      "4794": 7912,
      "0676": 7913,
      "063f": 7914,
      "f52a": 7915,
      "f56c": 7916,
      "4d28": 7917,
      "f492": 7918,
      "3f6f": 7919,
      "3f98": 7920,
      "3f8f": 7921,
      "3f24": 7922,
      "3f8d": 7923,
      "0b00": 7924,
      "0b77": 7925,
      "0bf8": 7926,
      "6603": 7927,
      "66d6": 7928,
      "7f6e": 7929,
      "7f65": 7930,
      "7f44": 7931,
      "7f7f": 7932,
      "126e": 7933,
      "1294": 7934,
      "1204": 7935,
      "9645": 7936,
      "9624": 7937,
      "96a7": 7938,
      "e6dd": 7939,
      "0f1f": 7940,
      "0dac": 7941,
      "443b": 7942,
      "f3bb": 7943,
      "e965": 7944,
      "e9f4": 7945,
      "e9ec": 7946,
      "e925": 7947,
      "fc32": 7948,
      "fc2a": 7949,
      "fcec": 7950,
      "fc26": 7951,
      "fc9c": 7952,
      "fcab": 7953,
      "3e62": 7954,
      "3e34": 7955,
      "2c15": 7956,
      "d84a": 7957,
      "d808": 7958,
      "7200": 7959,
      "724a": 7960,
      "85ca": 7961,
      "42ff": 7962,
      "4240": 7963,
      "49ff": 7964,
      "491e": 7965,
      "ad7c": 7966,
      "add3": 7967,
      "8f17": 7968,
      "8fa3": 7969,
      "7400": 7970,
      "7432": 7971,
      "7498": 7972,
      "7472": 7973,
      "9267": 7974,
      "92d7": 7975,
      "922f": 7976,
      "7e00": 7977,
      "7e33": 7978,
      "7eee": 7979,
      "d1cc": 7980,
      "5968": 7981,
      "594f": 7982,
      "59cb": 7983,
      "a8f5": 7984,
      "4586": 7985,
      "4525": 7986,
      "3ade": 7987,
      "5869": 7988,
      "5853": 7989,
      "5848": 7990,
      "58fa": 7991,
      "58a1": 7992,
      "58f1": 7993,
      "5f7b": 7994,
      "5f4c": 7995,
      "f9a6": 7996,
      "f992": 7997,
      "f96d": 7998,
      "8399": 7999,
      "bfff": 8000,
      "2e36": 8001,
      "b3b9": 8002,
      "e1fd": 8003,
      "e15a": 8004,
      "e189": 8005,
      "e1ad": 8006,
      "e111": 8007,
      "c128": 8008,
      "c125": 8009,
      "c114": 8010,
      "c123": 8011,
      "675b": 8012,
      "676c": 8013,
      "3d10": 8014,
      "3df2": 8015,
      "3dce": 8016,
      "5ce7": 8017,
      "b95d": 8018,
      "9bac": 8019,
      "87b6": 8020,
      "8783": 8021,
      "eafd": 8022,
      "ea39": 8023,
      "ea05": 8024,
      "fad7": 8025,
      "fae7": 8026,
      "7a45": 8027,
      "7a46": 8028,
      "7ae4": 8029,
      "2fb6": 8030,
      "2f72": 8031,
      "206e": 8032,
      "20be": 8033,
      "19e1": 8034,
      "46ed": 8035,
      "c942": 8036,
      "25ed": 8037,
      "256e": 8038,
      "2be3": 8039,
      "a3d6": 8040,
      "6c8b": 8041,
      "3c68": 8042,
      "f202": 8043,
      "f841": 8044,
      "f8d6": 8045,
      "d66f": 8046,
      "a269": 8047,
      "a228": 8048,
      "936e": 8049,
      "9357": 8050,
      "b46d": 8051,
      "b4b0": 8052,
      "787a": 8053,
      "78e5": 8054,
      "7d66": 8055,
      "7dc5": 8056,
      "7d94": 8057,
      "d31b": 8058,
      "d318": 8059,
      "1c34": 8060,
      "1c63": 8061,
      "a050": 8062,
      "a0ff": 8063,
      "8e80": 8064,
      "8e08": 8065,
      "db46": 8066,
      "713d": 8067,
      "9fff": 8068,
      "e24d": 8069,
      "e205": 8070,
      "e485": 8071,
      "e418": 8072,
      "b181": 8073,
      "b1f3": 8074,
      "9e99": 8075,
      "bae0": 8076,
      "c8be": 8077,
      "8b1b": 8078,
      "bd84": 8079,
      "eede": 8080,
      "ee61": 8081,
      "9ab3": 8082,
      "9a8a": 8083,
      "7072": 8084,
      "70db": 8085,
      "70e3": 8086,
      "cb9f": 8087,
      "a99e": 8088,
      "a9c0": 8089,
      "d5d5": 8090,
      "d51a": 8091,
      "d51d": 8092,
      "ef50": 8093,
      "ef7e": 8094,
      "d2bf": 8095,
      "c3e8": 8096,
      "c75d": 8097,
      "e5b5": 8098,
      "dc28": 8099,
      "c209": 8100,
      "60ed": 8101,
      "c55a": 8102,
      "3022": 8103,
      "4050": 8104,
      "40ed": 8105,
      "40be": 8106,
      "b04e": 8107,
      "b07e": 8108,
      "e05c": 8109,
      "d042": 8110,
      "0217": 8111,
      "4002": 8112,
      "e507": 8113,
      "4011": 8114,
      "401b": 8115,
      "901c": 8116,
      "9030": 8117,
      "00bb": 8118,
      "004a": 8119,
      "0091": 8120,
      "00a6": 8121,
      "0092": 8122,
      "00da": 8123,
      "0099": 8124,
      "00db": 8125,
      "00be": 8126,
      "00f7": 8127,
      "00d3": 8128,
      "00a7": 8129,
      "0191": 8130,
      "0165": 8131,
      "0148": 8132,
      "01d5": 8133,
      "019e": 8134,
      "01ca": 8135,
      "08ff": 8136,
      "0821": 8137,
      "0863": 8138,
      "0a28": 8139,
      "0af8": 8140,
      "0373": 8141,
      "0377": 8142,
      "0363": 8143,
      "1037": 8144,
      "02cc": 8145,
      "0233": 8146,
      "029a": 8147,
      "02ad": 8148,
      "02a2": 8149,
      "1700": 8150,
      "325f": 8151,
      "1863": 8152,
      "7357": 8153,
      "234e": 8154,
      "2310": 8155,
      "232c": 8156,
      "23db": 8157,
      "de35": 8158,
      "de66": 8159,
      "2133": 8160,
      "5050": 8161,
      "50e9": 8162,
      "6121": 8163,
      "6147": 8164,
      "6131": 8165,
      "61e2": 8166,
      "61c5": 8167,
      "6f6d": 8168,
      "6fe7": 8169,
      "05cc": 8170,
      "054c": 8171,
      "0535": 8172,
      "0556": 8173,
      "05f6": 8174,
      "05bc": 8175,
      "aa6d": 8176,
      "aa10": 8177,
      "1a4d": 8178,
      "1a9f": 8179,
      "1a08": 8180,
      "ff01": 8181,
      "ff69": 8182,
      "ff6c": 8183,
      "ffbf": 8184,
      "ff71": 8185,
      "ff0f": 8186,
      "6909": 8187,
      "cc75": 8188,
      "620a": 8189,
      "6267": 8190,
      "6240": 8191,
      "4fdf": 8192,
      "55ea": 8193,
      "5517": 8194,
      "4ae6": 8195,
      "4a83": 8196,
      "4acf": 8197,
      "a752": 8198,
      "0108": 8199,
      "3370": 8200,
      "3336": 8201,
      "33dd": 8202,
      "37ff": 8203,
      "3776": 8204,
      "370e": 8205,
      "79bd": 8206,
      "7677": 8207,
      "1180": 8208,
      "387f": 8209,
      "3195": 8210,
      "31bf": 8211,
      "31b8": 8212,
      "4e32": 8213,
      "4e35": 8214,
      "4e72": 8215,
      "4e04": 8216,
      "2a79": 8217,
      "2a8d": 8218,
      "2a17": 8219,
      "2273": 8220,
      "2220": 8221,
      "2236": 8222,
      "2289": 8223,
      "a592": 8224,
      "5b83": 8225,
      "5b02": 8226,
      "8103": 8227,
      "81dd": 8228,
      "819e": 8229,
      "81d9": 8230,
      "6e29": 8231,
      "9045": 8232,
      "9068": 8233,
      "9071": 8234,
      "7b00": 8235,
      "7bf1": 8236,
      "39a4": 8237,
      "646f": 8238,
      "6452": 8239,
      "641f": 8240,
      "6472": 8241,
      "645a": 8242,
      "640c": 8243,
      "5156": 8244,
      "51ac": 8245,
      "63a5": 8246,
      "63cb": 8247,
      "5210": 8248,
      "52e4": 8249,
      "52cd": 8250,
      "52d3": 8251,
      "3448": 8252,
      "347e": 8253,
      "3634": 8254,
      "2801": 8255,
      "2844": 8256,
      "a464": 8257,
      "a668": 8258,
      "a605": 8259,
      "09cc": 8260,
      "099d": 8261,
      "097f": 8262,
      "09c5": 8263,
      "090d": 8264,
      "5ee9": 8265,
      "fee8": 8266,
      "fec2": 8267,
      "2d6a": 8268,
      "2d46": 8269,
      "2def": 8270,
      "2d16": 8271,
      "2d0e": 8272,
      "9743": 8273,
      "978b": 8274,
      "9787": 8275,
      "9794": 8276,
      "5d21": 8277,
      "5d95": 8278,
      "5da8": 8279,
      "5dee": 8280,
      "656f": 8281,
      "656e": 8282,
      "65f2": 8283,
      "655a": 8284,
      "e8ff": 8285,
      "e81b": 8286,
      "e80c": 8287,
      "fd61": 8288,
      "fde8": 8289,
      "fdaf": 8290,
      "fd82": 8291,
      "fdb8": 8292,
      "fd1b": 8293,
      "1dff": 8294,
      "1dc9": 8295,
      "1d04": 8296,
      "0cfe": 8297,
      "0cb3": 8298,
      "41fa": 8299,
      "4112": 8300,
      "292e": 8301,
      "29e2": 8302,
      "13a8": 8303,
      "13f8": 8304,
      "1314": 8305,
      "14ea": 8306,
      "14b4": 8307,
      "d945": 8308,
      "436a": 8309,
      "4319": 8310,
      "6d6f": 8311,
      "6d91": 8312,
      "6d6e": 8313,
      "6d7f": 8314,
      "6df2": 8315,
      "6da8": 8316,
      "6dd7": 8317,
      "6d6b": 8318,
      "4b1f": 8319,
      "4b83": 8320,
      "4b6b": 8321,
      "4bc6": 8322,
      "a1f3": 8323,
      "a167": 8324,
      "a1e4": 8325,
      "a10e": 8326,
      "7529": 8327,
      "75dd": 8328,
      "75a7": 8329,
      "6aa1": 8330,
      "ac8e": 8331,
      "ac56": 8332,
      "ac93": 8333,
      "ac88": 8334,
      "778c": 8335,
      "5a6f": 8336,
      "5aa6": 8337,
      "0741": 8338,
      "0742": 8339,
      "1fcd": 8340,
      "1f0e": 8341,
      "4732": 8342,
      "4736": 8343,
      "47af": 8344,
      "4726": 8345,
      "4727": 8346,
      "47b3": 8347,
      "470e": 8348,
      "0662": 8349,
      "065d": 8350,
      "068b": 8351,
      "06e2": 8352,
      "063a": 8353,
      "0615": 8354,
      "f56f": 8355,
      "f541": 8356,
      "f59f": 8357,
      "4d5b": 8358,
      "4d6d": 8359,
      "4d8f": 8360,
      "4dfa": 8361,
      "3f4a": 8362,
      "3f55": 8363,
      "3f6a": 8364,
      "3fc4": 8365,
      "0b47": 8366,
      "0b9a": 8367,
      "0b0e": 8368,
      "540b": 8369,
      "666e": 8370,
      "666d": 8371,
      "6623": 8372,
      "7f5f": 8373,
      "1262": 8374,
      "1266": 8375,
      "1284": 8376,
      "1bae": 8377,
      "e649": 8378,
      "1626": 8379,
      "161a": 8380,
      "f100": 8381,
      "f1ed": 8382,
      "f1e6": 8383,
      "f1a9": 8384,
      "8853": 8385,
      "8897": 8386,
      "3b64": 8387,
      "0d52": 8388,
      "0d0b": 8389,
      "44ae": 8390,
      "44bd": 8391,
      "f3dc": 8392,
      "e920": 8393,
      "e99b": 8394,
      "fcff": 8395,
      "fc4a": 8396,
      "fc48": 8397,
      "fc99": 8398,
      "fc3f": 8399,
      "fcd9": 8400,
      "fcc6": 8401,
      "fc2b": 8402,
      "3eef": 8403,
      "3ec3": 8404,
      "2c34": 8405,
      "2c1f": 8406,
      "2c2e": 8407,
      "d899": 8408,
      "d809": 8409,
      "85d7": 8410,
      "85ad": 8411,
      "428f": 8412,
      "423f": 8413,
      "42a5": 8414,
      "42dc": 8415,
      "4256": 8416,
      "42d9": 8417,
      "42f8": 8418,
      "42be": 8419,
      "4975": 8420,
      "49e0": 8421,
      "adf3": 8422,
      "ad65": 8423,
      "adb9": 8424,
      "adc7": 8425,
      "ad0e": 8426,
      "8fe0": 8427,
      "746f": 8428,
      "74bb": 8429,
      "74d6": 8430,
      "7493": 8431,
      "748d": 8432,
      "922a": 8433,
      "89aa": 8434,
      "891f": 8435,
      "899e": 8436,
      "891e": 8437,
      "89d4": 8438,
      "5749": 8439,
      "7ecc": 8440,
      "7ee6": 8441,
      "d168": 8442,
      "59e9": 8443,
      "59e0": 8444,
      "fb95": 8445,
      "fb4b": 8446,
      "fbdf": 8447,
      "afdf": 8448,
      "daa4": 8449,
      "451a": 8450,
      "4861": 8451,
      "4833": 8452,
      "4868": 8453,
      "48f9": 8454,
      "4808": 8455,
      "3aa5": 8456,
      "8208": 8457,
      "5862": 8458,
      "584f": 8459,
      "5810": 8460,
      "5874": 8461,
      "5f38": 8462,
      "5f29": 8463,
      "f9db": 8464,
      "f91c": 8465,
      "8300": 8466,
      "83ff": 8467,
      "83b3": 8468,
      "bf44": 8469,
      "2eff": 8470,
      "b3d8": 8471,
      "c14a": 8472,
      "c177": 8473,
      "c153": 8474,
      "c1c6": 8475,
      "c119": 8476,
      "6753": 8477,
      "3db2": 8478,
      "3de9": 8479,
      "3d9e": 8480,
      "3d56": 8481,
      "5c79": 8482,
      "5c49": 8483,
      "0e04": 8484,
      "8767": 8485,
      "8758": 8486,
      "ea5d": 8487,
      "fafb": 8488,
      "fa9b": 8489,
      "fa96": 8490,
      "fa2b": 8491,
      "fa0b": 8492,
      "7a4c": 8493,
      "2f14": 8494,
      "2fd3": 8495,
      "2072": 8496,
      "202e": 8497,
      "1517": 8498,
      "1588": 8499,
      "1999": 8500,
      "198d": 8501,
      "f6d6": 8502,
      "8626": 8503,
      "c9da": 8504,
      "c99d": 8505,
      "c997": 8506,
      "c9c1": 8507,
      "e3b6": 8508,
      "e3a5": 8509,
      "e3d9": 8510,
      "2563": 8511,
      "2557": 8512,
      "2b61": 8513,
      "2be9": 8514,
      "2ba1": 8515,
      "2b9e": 8516,
      "2b09": 8517,
      "a3d7": 8518,
      "a3c1": 8519,
      "3c4e": 8520,
      "3c5e": 8521,
      "6ba1": 8522,
      "6b85": 8523,
      "f244": 8524,
      "d6f5": 8525,
      "a247": 8526,
      "a259": 8527,
      "a23d": 8528,
      "931e": 8529,
      "b411": 8530,
      "e7eb": 8531,
      "b663": 8532,
      "7876": 8533,
      "ab49": 8534,
      "7da0": 8535,
      "7d1b": 8536,
      "d3af": 8537,
      "d3dc": 8538,
      "d38b": 8539,
      "1c3c": 8540,
      "1ca9": 8541,
      "d451": 8542,
      "8e53": 8543,
      "8e0d": 8544,
      "db22": 8545,
      "db3c": 8546,
      "ec87": 8547,
      "ec3a": 8548,
      "d796": 8549,
      "e287": 8550,
      "ce12": 8551,
      "e4bb": 8552,
      "e46c": 8553,
      "e43a": 8554,
      "b162": 8555,
      "b1db": 8556,
      "b1e0": 8557,
      "b113": 8558,
      "8400": 8559,
      "84e1": 8560,
      "dff8": 8561,
      "9e00": 8562,
      "9ee0": 8563,
      "baa6": 8564,
      "bad2": 8565,
      "ba1b": 8566,
      "bdd9": 8567,
      "eefc": 8568,
      "ee7e": 8569,
      "c6c6": 8570,
      "9aba": 8571,
      "9a71": 8572,
      "70ce": 8573,
      "cb71": 8574,
      "cb1d": 8575,
      "a900": 8576,
      "a98e": 8577,
      "d53c": 8578,
      "aefe": 8579,
      "ef5a": 8580,
      "bced": 8581,
      "d28f": 8582,
      "b8df": 8583,
      "9470": 8584,
      "9438": 8585,
      "9427": 8586,
      "9412": 8587,
      "8a50": 8588,
      "8ced": 8589,
      "8cfd": 8590,
      "e5ff": 8591,
      "cdff": 8592,
      "cd9e": 8593,
      "cd8b": 8594,
      "cd84": 8595,
      "b731": 8596,
      "9c00": 8597,
      "9c02": 8598,
      "9c19": 8599,
      "caa6": 8600,
      "cad3": 8601,
      "c219": 8602,
      "606f": 8603,
      "60fd": 8604,
      "60bf": 8605,
      "60f0": 8606,
      "6025": 8607,
      "f07a": 8608,
      "f0ec": 8609,
      "f07d": 8610,
      "40f3": 8611,
      "e090": 8612,
      "d053": 8613,
      "d0f9": 8614,
      "d08b": 8615,
      "0027": 8616,
      "0a0b": 8617,
      "021a": 8618,
      "0216": 8619,
      "0a7c": 8620,
      "032e": 8621,
      "c00b": 8622,
      "7004": 8623,
      "5504": 8624,
      "5502": 8625,
      "c50d": 8626,
      "5032": 8627,
      "20a6": 8628,
      "60ad": 8629,
      "00f9": 8630,
      "0093": 8631,
      "00b8": 8632,
      "00a3": 8633,
      "00ca": 8634,
      "015b": 8635,
      "0145": 8636,
      "0137": 8637,
      "01e1": 8638,
      "01ba": 8639,
      "01f7": 8640,
      "08ed": 8641,
      "0845": 8642,
      "0858": 8643,
      "089e": 8644,
      "0809": 8645,
      "0a2a": 8646,
      "0a9d": 8647,
      "0aba": 8648,
      "03ff": 8649,
      "03cc": 8650,
      "0367": 8651,
      "0382": 8652,
      "03cd": 8653,
      "03d2": 8654,
      "0316": 8655,
      "0311": 8656,
      "10ed": 8657,
      "10bb": 8658,
      "1032": 8659,
      "1034": 8660,
      "1039": 8661,
      "1079": 8662,
      "0255": 8663,
      "02a6": 8664,
      "0295": 8665,
      "02e5": 8666,
      "022f": 8667,
      "0223": 8668,
      "02eb": 8669,
      "171c": 8670,
      "325b": 8671,
      "32e5": 8672,
      "3294": 8673,
      "1831": 8674,
      "189a": 8675,
      "7374": 8676,
      "733b": 8677,
      "2395": 8678,
      "de55": 8679,
      "2170": 8680,
      "211a": 8681,
      "506f": 8682,
      "5044": 8683,
      "50dc": 8684,
      "beff": 8685,
      "befc": 8686,
      "6146": 8687,
      "61bc": 8688,
      "051e": 8689,
      "05ca": 8690,
      "aa2f": 8691,
      "ff3b": 8692,
      "ff2d": 8693,
      "ff12": 8694,
      "ff0c": 8695,
      "7ced": 8696,
      "6943": 8697,
      "cc93": 8698,
      "ed68": 8699,
      "edfc": 8700,
      "6261": 8701,
      "625c": 8702,
      "623f": 8703,
      "4fff": 8704,
      "4ffe": 8705,
      "4f87": 8706,
      "4fb3": 8707,
      "4f46": 8708,
      "5500": 8709,
      "550a": 8710,
      "5562": 8711,
      "55ff": 8712,
      "557b": 8713,
      "5529": 8714,
      "5526": 8715,
      "552d": 8716,
      "55e7": 8717,
      "044c": 8718,
      "0460": 8719,
      "044f": 8720,
      "0443": 8721,
      "0413": 8722,
      "0415": 8723,
      "4a50": 8724,
      "4a40": 8725,
      "4a13": 8726,
      "4ac2": 8727,
      "a7a5": 8728,
      "a793": 8729,
      "a789": 8730,
      "a7a9": 8731,
      "33c6": 8732,
      "3746": 8733,
      "79d5": 8734,
      "76e7": 8735,
      "11cc": 8736,
      "114d": 8737,
      "11c5": 8738,
      "3851": 8739,
      "38ea": 8740,
      "31f3": 8741,
      "313f": 8742,
      "4eff": 8743,
      "4ef9": 8744,
      "4edb": 8745,
      "4e5a": 8746,
      "4ec4": 8747,
      "4ee7": 8748,
      "4eac": 8749,
      "2a2a": 8750,
      "2ab2": 8751,
      "2a5c": 8752,
      "2ae1": 8753,
      "2a1d": 8754,
      "22c9": 8755,
      "22f8": 8756,
      "228a": 8757,
      "a59f": 8758,
      "5b16": 8759,
      "5b0b": 8760,
      "5b11": 8761,
      "5b19": 8762,
      "8101": 8763,
      "81b6": 8764,
      "810c": 8765,
      "6e00": 8766,
      "6ef5": 8767,
      "6e78": 8768,
      "6ee9": 8769,
      "6eef": 8770,
      "9064": 8771,
      "90d8": 8772,
      "906d": 8773,
      "908f": 8774,
      "9083": 8775,
      "bb55": 8776,
      "bb60": 8777,
      "7bcc": 8778,
      "7bdd": 8779,
      "7b9e": 8780,
      "3901": 8781,
      "3935": 8782,
      "6464": 8783,
      "64d7": 8784,
      "51ff": 8785,
      "51dc": 8786,
      "6303": 8787,
      "6353": 8788,
      "6368": 8789,
      "6354": 8790,
      "635f": 8791,
      "63c6": 8792,
      "6313": 8793,
      "5261": 8794,
      "52a4": 8795,
      "52da": 8796,
      "52b6": 8797,
      "52cf": 8798,
      "34fe": 8799,
      "34c2": 8800,
      "3632": 8801,
      "2841": 8802,
      "2848": 8803,
      "2843": 8804,
      "283d": 8805,
      "a449": 8806,
      "a4c8": 8807,
      "a6a4": 8808,
      "a6e1": 8809,
      "a6e9": 8810,
      "a6d4": 8811,
      "a6c1": 8812,
      "0960": 8813,
      "80b8": 8814,
      "5e4c": 8815,
      "5e54": 8816,
      "5e46": 8817,
      "5ec4": 8818,
      "fef3": 8819,
      "fe51": 8820,
      "fe6d": 8821,
      "fe40": 8822,
      "fe6b": 8823,
      "febd": 8824,
      "feac": 8825,
      "2dc9": 8826,
      "2d63": 8827,
      "2d39": 8828,
      "2d87": 8829,
      "2d1e": 8830,
      "2dce": 8831,
      "2ddf": 8832,
      "2dc7": 8833,
      "97b5": 8834,
      "97b0": 8835,
      "5d81": 8836,
      "5d52": 8837,
      "5daf": 8838,
      "5d97": 8839,
      "5dce": 8840,
      "5dbe": 8841,
      "5dd4": 8842,
      "5d09": 8843,
      "6534": 8844,
      "6594": 8845,
      "e845": 8846,
      "e871": 8847,
      "e8ac": 8848,
      "fdb6": 8849,
      "fda5": 8850,
      "fd05": 8851,
      "fd06": 8852,
      "4c06": 8853,
      "2461": 8854,
      "2445": 8855,
      "249b": 8856,
      "24ec": 8857,
      "24f2": 8858,
      "249e": 8859,
      "248a": 8860,
      "249c": 8861,
      "242d": 8862,
      "24cb": 8863,
      "243a": 8864,
      "24a7": 8865,
      "9168": 8866,
      "912c": 8867,
      "91ee": 8868,
      "1ef9": 8869,
      "1d34": 8870,
      "1d48": 8871,
      "1d10": 8872,
      "1d56": 8873,
      "1d90": 8874,
      "1dae": 8875,
      "0c4f": 8876,
      "0c4d": 8877,
      "0c2e": 8878,
      "0c40": 8879,
      "0c49": 8880,
      "0ca2": 8881,
      "41de": 8882,
      "4131": 8883,
      "4190": 8884,
      "4114": 8885,
      "410b": 8886,
      "539d": 8887,
      "53d7": 8888,
      "53e7": 8889,
      "1374": 8890,
      "1326": 8891,
      "13c4": 8892,
      "143f": 8893,
      "1430": 8894,
      "140b": 8895,
      "d9cc": 8896,
      "d9e5": 8897,
      "d988": 8898,
      "8d00": 8899,
      "43ac": 8900,
      "6845": 8901,
      "6d01": 8902,
      "6d38": 8903,
      "6d46": 8904,
      "6de2": 8905,
      "6dcb": 8906,
      "6d07": 8907,
      "a1a4": 8908,
      "75ff": 8909,
      "756d": 8910,
      "7572": 8911,
      "7558": 8912,
      "752b": 8913,
      "6aec": 8914,
      "6a7e": 8915,
      "ac03": 8916,
      "acff": 8917,
      "ac7f": 8918,
      "ac9e": 8919,
      "77e2": 8920,
      "7714": 8921,
      "5a01": 8922,
      "5a81": 8923,
      "5aec": 8924,
      "5a59": 8925,
      "5a49": 8926,
      "5ac6": 8927,
      "5a05": 8928,
      "26f3": 8929,
      "262c": 8930,
      "2623": 8931,
      "3535": 8932,
      "352f": 8933,
      "35d9": 8934,
      "07b0": 8935,
      "0706": 8936,
      "b2bc": 8937,
      "b2d4": 8938,
      "b204": 8939,
      "1f03": 8940,
      "1f65": 8941,
      "1fa0": 8942,
      "1f27": 8943,
      "1fc0": 8944,
      "1fc6": 8945,
      "4798": 8946,
      "4728": 8947,
      "476d": 8948,
      "47dd": 8949,
      "478a": 8950,
      "47d0": 8951,
      "47d3": 8952,
      "061f": 8953,
      "f568": 8954,
      "f5af": 8955,
      "4d02": 8956,
      "4dc6": 8957,
      "f422": 8958,
      "f43f": 8959,
      "f471": 8960,
      "f43a": 8961,
      "3f91": 8962,
      "3ffb": 8963,
      "3ffa": 8964,
      "3fd4": 8965,
      "0b76": 8966,
      "0be4": 8967,
      "54fd": 8968,
      "544d": 8969,
      "5414": 8970,
      "6632": 8971,
      "66ec": 8972,
      "7f4a": 8973,
      "7fe6": 8974,
      "9d9f": 8975,
      "1200": 8976,
      "122a": 8977,
      "124d": 8978,
      "12d0": 8979,
      "9693": 8980,
      "1b2a": 8981,
      "1bc8": 8982,
      "e601": 8983,
      "e6e5": 8984,
      "1691": 8985,
      "162c": 8986,
      "f103": 8987,
      "f1f5": 8988,
      "f1b6": 8989,
      "f1be": 8990,
      "3b4c": 8991,
      "0f18": 8992,
      "0d91": 8993,
      "0d59": 8994,
      "0d87": 8995,
      "4462": 8996,
      "44c0": 8997,
      "f3d1": 8998,
      "f3c0": 8999,
      "f317": 9000,
      "e992": 9001,
      "e943": 9002,
      "e9ea": 9003,
      "e90d": 9004,
      "fc1a": 9005,
      "3e6f": 9006,
      "3e74": 9007,
      "2c37": 9008,
      "2cad": 9009,
      "d8de": 9010,
      "7273": 9011,
      "72b9": 9012,
      "72ea": 9013,
      "7296": 9014,
      "7284": 9015,
      "85e3": 9016,
      "420a": 9017,
      "425b": 9018,
      "4270": 9019,
      "4286": 9020,
      "4978": 9021,
      "ad00": 9022,
      "adff": 9023,
      "ad98": 9024,
      "add8": 9025,
      "ad06": 9026,
      "8f00": 9027,
      "8fcb": 9028,
      "7417": 9029,
      "9276": 9030,
      "92d8": 9031,
      "9219": 9032,
      "896c": 9033,
      "89e9": 9034,
      "899c": 9035,
      "89d3": 9036,
      "570a": 9037,
      "577f": 9038,
      "57ad": 9039,
      "57ae": 9040,
      "7ef9": 9041,
      "7edb": 9042,
      "7e1b": 9043,
      "d1fe": 9044,
      "59ed": 9045,
      "5973": 9046,
      "59dc": 9047,
      "59e4": 9048,
      "a8ac": 9049,
      "fb61": 9050,
      "fb85": 9051,
      "affb": 9052,
      "dafe": 9053,
      "da1b": 9054,
      "4569": 9055,
      "45d0": 9056,
      "484a": 9057,
      "4878": 9058,
      "3a73": 9059,
      "3a3f": 9060,
      "8247": 9061,
      "8284": 9062,
      "82f7": 9063,
      "5873": 9064,
      "5843": 9065,
      "58e1": 9066,
      "bf76": 9067,
      "bfb9": 9068,
      "bff4": 9069,
      "2e67": 9070,
      "2ece": 9071,
      "b369": 9072,
      "b360": 9073,
      "b3a4": 9074,
      "b395": 9075,
      "b3f0": 9076,
      "b39c": 9077,
      "e125": 9078,
      "e13c": 9079,
      "c132": 9080,
      "c190": 9081,
      "c12d": 9082,
      "c115": 9083,
      "c42e": 9084,
      "6752": 9085,
      "6758": 9086,
      "670c": 9087,
      "3d6e": 9088,
      "3d65": 9089,
      "3d68": 9090,
      "3d6d": 9091,
      "3dd6": 9092,
      "3d75": 9093,
      "3dec": 9094,
      "3d4b": 9095,
      "5c38": 9096,
      "5cda": 9097,
      "b93d": 9098,
      "b97d": 9099,
      "b9d2": 9100,
      "875b": 9101,
      "87c9": 9102,
      "8763": 9103,
      "875c": 9104,
      "fa5b": 9105,
      "7aff": 9106,
      "7aae": 9107,
      "7a42": 9108,
      "2f93": 9109,
      "2028": 9110,
      "20e7": 9111,
      "1591": 9112,
      "157c": 9113,
      "1528": 9114,
      "1583": 9115,
      "15e2": 9116,
      "15c1": 9117,
      "1905": 9118,
      "f672": 9119,
      "f6c4": 9120,
      "8650": 9121,
      "86a5": 9122,
      "8685": 9123,
      "4664": 9124,
      "465d": 9125,
      "e312": 9126,
      "2547": 9127,
      "25e5": 9128,
      "258b": 9129,
      "2b76": 9130,
      "2b91": 9131,
      "2b48": 9132,
      "2be7": 9133,
      "a3e6": 9134,
      "a3f7": 9135,
      "6ca6": 9136,
      "6c65": 9137,
      "3cfd": 9138,
      "3c78": 9139,
      "3ca8": 9140,
      "3c40": 9141,
      "3cb1": 9142,
      "6b00": 9143,
      "6b75": 9144,
      "5665": 9145,
      "5625": 9146,
      "560e": 9147,
      "5604": 9148,
      "f801": 9149,
      "f84a": 9150,
      "f8f7": 9151,
      "f81b": 9152,
      "d6b2": 9153,
      "a2d4": 9154,
      "9381": 9155,
      "9359": 9156,
      "b46a": 9157,
      "b4c9": 9158,
      "b439": 9159,
      "b454": 9160,
      "b444": 9161,
      "e7db": 9162,
      "b6ef": 9163,
      "7800": 9164,
      "7878": 9165,
      "78bc": 9166,
      "abf9": 9167,
      "7dd1": 9168,
      "7ddf": 9169,
      "7dc7": 9170,
      "7d0b": 9171,
      "7d19": 9172,
      "d329": 9173,
      "d34d": 9174,
      "d3ae": 9175,
      "d309": 9176,
      "1c24": 9177,
      "a0e6": 9178,
      "a07a": 9179,
      "a0e2": 9180,
      "a0c1": 9181,
      "a0c3": 9182,
      "d400": 9183,
      "d4fd": 9184,
      "d431": 9185,
      "d486": 9186,
      "8e78": 9187,
      "8eb4": 9188,
      "dbe8": 9189,
      "db44": 9190,
      "db49": 9191,
      "eced": 9192,
      "ec32": 9193,
      "ecf3": 9194,
      "eca6": 9195,
      "eccf": 9196,
      "ec3b": 9197,
      "7196": 9198,
      "719e": 9199,
      "9f00": 9200,
      "99fe": 9201,
      "9999": 9202,
      "999e": 9203,
      "e202": 9204,
      "ce10": 9205,
      "ce0e": 9206,
      "e434": 9207,
      "e4e4": 9208,
      "cf30": 9209,
      "b1bb": 9210,
      "9e4e": 9211,
      "9e38": 9212,
      "c8da": 9213,
      "bd97": 9214,
      "eec7": 9215,
      "c600": 9216,
      "c69f": 9217,
      "9af5": 9218,
      "9a4f": 9219,
      "708f": 9220,
      "70d1": 9221,
      "cbff": 9222,
      "cb5d": 9223,
      "cb1e": 9224,
      "cb17": 9225,
      "cb13": 9226,
      "cb15": 9227,
      "cb18": 9228,
      "eb81": 9229,
      "eb06": 9230,
      "a96b": 9231,
      "ddd8": 9232,
      "d5fe": 9233,
      "aeff": 9234,
      "ae04": 9235,
      "ef7f": 9236,
      "efef": 9237,
      "d264": 9238,
      "c386": 9239,
      "b8c7": 9240,
      "b812": 9241,
      "94f0": 9242,
      "9446": 9243,
      "8a16": 9244,
      "8cf4": 9245,
      "95f5": 9246,
      "95c9": 9247,
      "c786": 9248,
      "e5a6": 9249,
      "e56d": 9250,
      "e522": 9251,
      "cdd8": 9252,
      "b7f3": 9253,
      "b728": 9254,
      "b73f": 9255,
      "b72e": 9256,
      "caf8": 9257,
      "c263": 9258,
      "60d5": 9259,
      "6072": 9260,
      "6026": 9261,
      "c545": 9262,
      "30b4": 9263,
      "302b": 9264,
      "f0df": 9265,
      "4065": 9266,
      "406c": 9267,
      "4079": 9268,
      "409f": 9269,
      "40d2": 9270,
      "b065": 9271,
      "b05a": 9272,
      "e0bd": 9273,
      "d07b": 9274,
      "d0eb": 9275,
      "c0db": 9276,
      "e000": 9277,
      "8015": 9278,
      "300d": 9279,
      "c001": 9280,
      "600b": 9281,
      "7007": 9282,
      "6508": 9283,
      "a50f": 9284,
      "4012": 9285,
      "f034": 9286,
      "20a9": 9287,
      "90ab": 9288,
      "00ea": 9289,
      "00c5": 9290,
      "0198": 9291,
      "01d8": 9292,
      "01bf": 9293,
      "0157": 9294,
      "014b": 9295,
      "01d7": 9296,
      "01c6": 9297,
      "01a3": 9298,
      "0a43": 9299,
      "0a44": 9300,
      "0334": 9301,
      "037f": 9302,
      "0378": 9303,
      "033d": 9304,
      "03c1": 9305,
      "0313": 9306,
      "03c3": 9307,
      "033e": 9308,
      "1062": 9309,
      "1045": 9310,
      "1020": 9311,
      "10d5": 9312,
      "103b": 9313,
      "0265": 9314,
      "02bf": 9315,
      "02af": 9316,
      "027e": 9317,
      "0258": 9318,
      "02b3": 9319,
      "02cd": 9320,
      "02d0": 9321,
      "17ff": 9322,
      "17fb": 9323,
      "17b2": 9324,
      "17f0": 9325,
      "178e": 9326,
      "1759": 9327,
      "1788": 9328,
      "170e": 9329,
      "320f": 9330,
      "1860": 9331,
      "18f9": 9332,
      "18a8": 9333,
      "1856": 9334,
      "1811": 9335,
      "73e5": 9336,
      "7309": 9337,
      "23f9": 9338,
      "23c7": 9339,
      "de9e": 9340,
      "505b": 9341,
      "50f0": 9342,
      "50e0": 9343,
      "beed": 9344,
      "6162": 9345,
      "61aa": 9346,
      "6152": 9347,
      "611a": 9348,
      "6f2c": 9349,
      "0570": 9350,
      "0551": 9351,
      "059a": 9352,
      "0571": 9353,
      "0542": 9354,
      "aa46": 9355,
      "1af4": 9356,
      "1a4b": 9357,
      "ff45": 9358,
      "ff1f": 9359,
      "ff36": 9360,
      "ff29": 9361,
      "ff7f": 9362,
      "ff2e": 9363,
      "ffa8": 9364,
      "ff3c": 9365,
      "ffb7": 9366,
      "7c7a": 9367,
      "7c22": 9368,
      "7c78": 9369,
      "69ff": 9370,
      "69d7": 9371,
      "6919": 9372,
      "cc03": 9373,
      "cc0d": 9374,
      "ed6d": 9375,
      "edf4": 9376,
      "ed5e": 9377,
      "ed05": 9378,
      "6250": 9379,
      "62ed": 9380,
      "62ff": 9381,
      "4f01": 9382,
      "4f4c": 9383,
      "4fe5": 9384,
      "4f26": 9385,
      "4f17": 9386,
      "4f07": 9387,
      "5544": 9388,
      "552b": 9389,
      "042c": 9390,
      "0458": 9391,
      "0440": 9392,
      "0449": 9393,
      "4aaf": 9394,
      "4a49": 9395,
      "4aa5": 9396,
      "4a14": 9397,
      "4a2d": 9398,
      "4a3e": 9399,
      "a7d8": 9400,
      "a799": 9401,
      "a7d5": 9402,
      "a75e": 9403,
      "a79f": 9404,
      "a790": 9405,
      "a70d": 9406,
      "3347": 9407,
      "33e1": 9408,
      "3387": 9409,
      "33ce": 9410,
      "33c4": 9411,
      "33c7": 9412,
      "37fe": 9413,
      "37e5": 9414,
      "7673": 9415,
      "7632": 9416,
      "76bf": 9417,
      "7630": 9418,
      "11f2": 9419,
      "11db": 9420,
      "113c": 9421,
      "11e2": 9422,
      "3854": 9423,
      "3824": 9424,
      "38ce": 9425,
      "38a2": 9426,
      "317c": 9427,
      "315c": 9428,
      "3122": 9429,
      "31a8": 9430,
      "4e01": 9431,
      "4e81": 9432,
      "4e61": 9433,
      "4e51": 9434,
      "4e99": 9435,
      "4e3f": 9436,
      "4ea1": 9437,
      "4e3d": 9438,
      "2aed": 9439,
      "2a69": 9440,
      "2a95": 9441,
      "22f9": 9442,
      "22ec": 9443,
      "22e9": 9444,
      "2271": 9445,
      "2284": 9446,
      "2214": 9447,
      "22f1": 9448,
      "2212": 9449,
      "a5f3": 9450,
      "a529": 9451,
      "a5ce": 9452,
      "a5f6": 9453,
      "5bff": 9454,
      "5b57": 9455,
      "5b24": 9456,
      "8166": 9457,
      "8113": 9458,
      "6e2a": 9459,
      "9021": 9460,
      "9078": 9461,
      "909e": 9462,
      "90cf": 9463,
      "bb8d": 9464,
      "7b97": 9465,
      "7b17": 9466,
      "39d4": 9467,
      "64fd": 9468,
      "6428": 9469,
      "642f": 9470,
      "6414": 9471,
      "64df": 9472,
      "64f7": 9473,
      "5153": 9474,
      "5137": 9475,
      "51b6": 9476,
      "51e9": 9477,
      "512f": 9478,
      "51df": 9479,
      "5106": 9480,
      "6379": 9481,
      "5203": 9482,
      "52fe": 9483,
      "526d": 9484,
      "524f": 9485,
      "52d5": 9486,
      "52b4": 9487,
      "52d0": 9488,
      "34e9": 9489,
      "34be": 9490,
      "36aa": 9491,
      "3660": 9492,
      "3668": 9493,
      "3693": 9494,
      "36c3": 9495,
      "283c": 9496,
      "2856": 9497,
      "2871": 9498,
      "2819": 9499,
      "a4de": 9500,
      "a40f": 9501,
      "a677": 9502,
      "a659": 9503,
      "a61a": 9504,
      "a63b": 9505,
      "095c": 9506,
      "0906": 9507,
      "8066": 9508,
      "808f": 9509,
      "5ea4": 9510,
      "5e35": 9511,
      "fefe": 9512,
      "fefb": 9513,
      "fe31": 9514,
      "fe24": 9515,
      "fe0d": 9516,
      "fe08": 9517,
      "2d2f": 9518,
      "2dc6": 9519,
      "2df1": 9520,
      "2df7": 9521,
      "2dd0": 9522,
      "2dac": 9523,
      "2dab": 9524,
      "9737": 9525,
      "5d5b": 9526,
      "5dda": 9527,
      "5d48": 9528,
      "5d4b": 9529,
      "5d49": 9530,
      "5d89": 9531,
      "5df1": 9532,
      "5dc7": 9533,
      "5da7": 9534,
      "5d0e": 9535,
      "65bf": 9536,
      "6567": 9537,
      "658d": 9538,
      "65d2": 9539,
      "e801": 9540,
      "fd98": 9541,
      "fddb": 9542,
      "fdac": 9543,
      "4cfb": 9544,
      "4c44": 9545,
      "9120": 9546,
      "91bf": 9547,
      "91af": 9548,
      "1d00": 9549,
      "1db5": 9550,
      "1d2c": 9551,
      "1de3": 9552,
      "1df8": 9553,
      "1d94": 9554,
      "1dac": 9555,
      "0c55": 9556,
      "0ce0": 9557,
      "0cb7": 9558,
      "4101": 9559,
      "414b": 9560,
      "412d": 9561,
      "29fb": 9562,
      "29ce": 9563,
      "2919": 9564,
      "5355": 9565,
      "5313": 9566,
      "533e": 9567,
      "5311": 9568,
      "138b": 9569,
      "13f6": 9570,
      "133d": 9571,
      "1488": 9572,
      "d986": 9573,
      "d9b0": 9574,
      "8d95": 9575,
      "8d63": 9576,
      "8d31": 9577,
      "8db3": 9578,
      "430a": 9579,
      "4384": 9580,
      "438a": 9581,
      "43ae": 9582,
      "43ef": 9583,
      "4313": 9584,
      "6d63": 9585,
      "6dd6": 9586,
      "6d9b": 9587,
      "6d3f": 9588,
      "6d25": 9589,
      "6d9f": 9590,
      "6de0": 9591,
      "6d94": 9592,
      "6da9": 9593,
      "4b01": 9594,
      "4b48": 9595,
      "4be8": 9596,
      "4b87": 9597,
      "4b94": 9598,
      "4b09": 9599,
      "a1d6": 9600,
      "a1ca": 9601,
      "75b2": 9602,
      "7544": 9603,
      "75a8": 9604,
      "75fa": 9605,
      "75ad": 9606,
      "753d": 9607,
      "6a00": 9608,
      "ac9f": 9609,
      "7773": 9610,
      "7799": 9611,
      "7746": 9612,
      "5ac0": 9613,
      "5a8b": 9614,
      "5ab0": 9615,
      "2661": 9616,
      "26da": 9617,
      "2657": 9618,
      "2607": 9619,
      "35fe": 9620,
      "3534": 9621,
      "3522": 9622,
      "355e": 9623,
      "07fe": 9624,
      "07b2": 9625,
      "07e2": 9626,
      "07e0": 9627,
      "07e7": 9628,
      "070c": 9629,
      "b269": 9630,
      "b202": 9631,
      "b2dc": 9632,
      "b29c": 9633,
      "1f68": 9634,
      "1fb6": 9635,
      "1f90": 9636,
      "1fc4": 9637,
      "4795": 9638,
      "47db": 9639,
      "47dc": 9640,
      "470d": 9641,
      "4705": 9642,
      "0603": 9643,
      "06e6": 9644,
      "065c": 9645,
      "069b": 9646,
      "06ab": 9647,
      "f5ff": 9648,
      "f56b": 9649,
      "f58a": 9650,
      "f5f1": 9651,
      "4dc9": 9652,
      "4dbf": 9653,
      "4d26": 9654,
      "4df2": 9655,
      "4d79": 9656,
      "4d89": 9657,
      "4d12": 9658,
      "4d3e": 9659,
      "f4a6": 9660,
      "3f7c": 9661,
      "3f9a": 9662,
      "3f9c": 9663,
      "3f94": 9664,
      "3fc3": 9665,
      "0b2b": 9666,
      "5468": 9667,
      "546d": 9668,
      "54ec": 9669,
      "54ad": 9670,
      "6661": 9671,
      "6633": 9672,
      "66bf": 9673,
      "6635": 9674,
      "66fc": 9675,
      "7fff": 9676,
      "7fb2": 9677,
      "7f13": 9678,
      "9d96": 9679,
      "1243": 9680,
      "12b3": 9681,
      "123a": 9682,
      "120f": 9683,
      "96fd": 9684,
      "1b0a": 9685,
      "1b6e": 9686,
      "1b67": 9687,
      "1bc0": 9688,
      "1bab": 9689,
      "1655": 9690,
      "168d": 9691,
      "f167": 9692,
      "f1ba": 9693,
      "f1f2": 9694,
      "f113": 9695,
      "88ff": 9696,
      "8817": 9697,
      "88d2": 9698,
      "3b73": 9699,
      "3b7a": 9700,
      "3be0": 9701,
      "3b14": 9702,
      "0f92": 9703,
      "0fb9": 9704,
      "0f7f": 9705,
      "0d03": 9706,
      "0d6a": 9707,
      "0db9": 9708,
      "0d15": 9709,
      "444c": 9710,
      "444d": 9711,
      "44f7": 9712,
      "f3c6": 9713,
      "e950": 9714,
      "e978": 9715,
      "fc20": 9716,
      "fcfd": 9717,
      "fcba": 9718,
      "fc71": 9719,
      "fccd": 9720,
      "3ecc": 9721,
      "3e4f": 9722,
      "3e57": 9723,
      "3e44": 9724,
      "3eee": 9725,
      "2c20": 9726,
      "2c36": 9727,
      "d88e": 9728,
      "d802": 9729,
      "724f": 9730,
      "722d": 9731,
      "854a": 9732,
      "856b": 9733,
      "42c0": 9734,
      "4950": 9735,
      "49aa": 9736,
      "4979": 9737,
      "ade0": 9738,
      "ad7d": 9739,
      "8f20": 9740,
      "8fda": 9741,
      "7473": 9742,
      "7470": 9743,
      "745c": 9744,
      "7422": 9745,
      "74ba": 9746,
      "749a": 9747,
      "9869": 9748,
      "9802": 9749,
      "9224": 9750,
      "899b": 9751,
      "89c8": 9752,
      "5777": 9753,
      "576c": 9754,
      "7eba": 9755,
      "d177": 9756,
      "d143": 9757,
      "d1d3": 9758,
      "d11d": 9759,
      "d11b": 9760,
      "5969": 9761,
      "596b": 9762,
      "592d": 9763,
      "a86f": 9764,
      "a89c": 9765,
      "fb97": 9766,
      "fbb3": 9767,
      "fb1b": 9768,
      "fb19": 9769,
      "af8e": 9770,
      "afa1": 9771,
      "af8a": 9772,
      "dab8": 9773,
      "45cc": 9774,
      "48a6": 9775,
      "484b": 9776,
      "48f8": 9777,
      "48d3": 9778,
      "3aff": 9779,
      "3ae0": 9780,
      "3af6": 9781,
      "8228": 9782,
      "8231": 9783,
      "8278": 9784,
      "8258": 9785,
      "82dc": 9786,
      "58fb": 9787,
      "581a": 9788,
      "58ae": 9789,
      "f9e6": 9790,
      "f9fc": 9791,
      "f90e": 9792,
      "8328": 9793,
      "833b": 9794,
      "bf63": 9795,
      "bf5a": 9796,
      "bff8": 9797,
      "bfc5": 9798,
      "bf12": 9799,
      "2e70": 9800,
      "2e1f": 9801,
      "2ed1": 9802,
      "b384": 9803,
      "b3d3": 9804,
      "e191": 9805,
      "e1d3": 9806,
      "c161": 9807,
      "c1bf": 9808,
      "c4b9": 9809,
      "c482": 9810,
      "6703": 9811,
      "67ed": 9812,
      "6755": 9813,
      "6760": 9814,
      "6728": 9815,
      "675e": 9816,
      "6725": 9817,
      "6759": 9818,
      "673b": 9819,
      "672d": 9820,
      "3d48": 9821,
      "3d08": 9822,
      "5cfe": 9823,
      "5c5e": 9824,
      "5ce3": 9825,
      "5ccf": 9826,
      "0ee1": 9827,
      "0e08": 9828,
      "9b98": 9829,
      "8766": 9830,
      "8786": 9831,
      "878e": 9832,
      "87d7": 9833,
      "878a": 9834,
      "872b": 9835,
      "871d": 9836,
      "eaf5": 9837,
      "ea7f": 9838,
      "ea8e": 9839,
      "ea7e": 9840,
      "fa4e": 9841,
      "fae1": 9842,
      "faf0": 9843,
      "fa2d": 9844,
      "7a53": 9845,
      "7a3f": 9846,
      "7a87": 9847,
      "7ab3": 9848,
      "7a17": 9849,
      "7a23": 9850,
      "2faf": 9851,
      "2fd5": 9852,
      "2fe9": 9853,
      "204e": 9854,
      "2095": 9855,
      "20d6": 9856,
      "2075": 9857,
      "20f4": 9858,
      "20ec": 9859,
      "209e": 9860,
      "202f": 9861,
      "20f1": 9862,
      "157b": 9863,
      "1524": 9864,
      "153c": 9865,
      "19e8": 9866,
      "19ec": 9867,
      "19e4": 9868,
      "f608": 9869,
      "8601": 9870,
      "867c": 9871,
      "86c9": 9872,
      "46f5": 9873,
      "46fd": 9874,
      "46f9": 9875,
      "46e5": 9876,
      "4611": 9877,
      "276e": 9878,
      "27e4": 9879,
      "2706": 9880,
      "c99c": 9881,
      "c985": 9882,
      "c9d0": 9883,
      "e39d": 9884,
      "e343": 9885,
      "e3ec": 9886,
      "e314": 9887,
      "e3b1": 9888,
      "e308": 9889,
      "254e": 9890,
      "2565": 9891,
      "2535": 9892,
      "25d7": 9893,
      "25c1": 9894,
      "2b9a": 9895,
      "2b90": 9896,
      "a300": 9897,
      "a37f": 9898,
      "a3c4": 9899,
      "a3ae": 9900,
      "6c79": 9901,
      "3c6a": 9902,
      "3c98": 9903,
      "3c66": 9904,
      "6b81": 9905,
      "6b2d": 9906,
      "6ba7": 9907,
      "5603": 9908,
      "5636": 9909,
      "56dc": 9910,
      "56a7": 9911,
      "f88f": 9912,
      "f8ec": 9913,
      "f879": 9914,
      "d6ff": 9915,
      "d634": 9916,
      "d629": 9917,
      "a2de": 9918,
      "a261": 9919,
      "a2e1": 9920,
      "a223": 9921,
      "a2f1": 9922,
      "b448": 9923,
      "b4ec": 9924,
      "b4e5": 9925,
      "b47d": 9926,
      "b4e7": 9927,
      "e7b5": 9928,
      "b6e4": 9929,
      "78c2": 9930,
      "ab2f": 9931,
      "7dff": 9932,
      "7d51": 9933,
      "7d6b": 9934,
      "d377": 9935,
      "d3e6": 9936,
      "1c35": 9937,
      "1c8f": 9938,
      "1c09": 9939,
      "a02f": 9940,
      "a084": 9941,
      "d45d": 9942,
      "8eb9": 9943,
      "db50": 9944,
      "db74": 9945,
      "db88": 9946,
      "ecd6": 9947,
      "ecba": 9948,
      "ec84": 9949,
      "ec19": 9950,
      "d765": 9951,
      "d717": 9952,
      "7101": 9953,
      "7158": 9954,
      "71b8": 9955,
      "9fa8": 9956,
      "9f1a": 9957,
      "9998": 9958,
      "998f": 9959,
      "992e": 9960,
      "9927": 9961,
      "e28e": 9962,
      "e2a8": 9963,
      "e432": 9964,
      "e4cf": 9965,
      "f700": 9966,
      "f732": 9967,
      "f739": 9968,
      "f7ce": 9969,
      "cfff": 9970,
      "cfdf": 9971,
      "b1ff": 9972,
      "b1fb": 9973,
      "b189": 9974,
      "8462": 9975,
      "84c8": 9976,
      "8407": 9977,
      "b57c": 9978,
      "b5c9": 9979,
      "b57f": 9980,
      "b5b3": 9981,
      "b5c8": 9982,
      "9ed8": 9983,
      "baf5": 9984,
      "c828": 9985,
      "8b28": 9986,
      "8bf0": 9987,
      "8b5e": 9988,
      "bded": 9989,
      "bd7c": 9990,
      "ee7c": 9991,
      "ee9f": 9992,
      "ee16": 9993,
      "eea2": 9994,
      "9a02": 9995,
      "70bc": 9996,
      "7085": 9997,
      "70c1": 9998,
      "cb00": 9999,
      "cb7b": 10000,
      "cb77": 10001,
      "cbf1": 10002,
      "cb3e": 10003,
      "cb11": 10004,
      "cb1b": 10005,
      "eb03": 10006,
      "eb42": 10007,
      "a9fc": 10008,
      "dda6": 10009,
      "dd75": 10010,
      "ae4a": 10011,
      "aeb2": 10012,
      "efaa": 10013,
      "bc6a": 10014,
      "bcb9": 10015,
      "bce6": 10016,
      "bcf2": 10017,
      "d25a": 10018,
      "d246": 10019,
      "c34f": 10020,
      "c31a": 10021,
      "c313": 10022,
      "b86c": 10023,
      "b8d0": 10024,
      "94c9": 10025,
      "947a": 10026,
      "94ef": 10027,
      "8a9d": 10028,
      "8cff": 10029,
      "8c20": 10030,
      "8cd9": 10031,
      "8cbc": 10032,
      "95fc": 10033,
      "959e": 10034,
      "c700": 10035,
      "c7be": 10036,
      "e533": 10037,
      "e560": 10038,
      "e5d5": 10039,
      "b700": 10040,
      "b753": 10041,
      "b72f": 10042,
      "9c45": 10043,
      "9c68": 10044,
      "9ce8": 10045,
      "cade": 10046,
      "cadd": 10047,
      "c24d": 10048,
      "c2f0": 10049,
      "6077": 10050,
      "606d": 10051,
      "6054": 10052,
      "60dd": 10053,
      "60bc": 10054,
      "60bd": 10055,
      "c595": 10056,
      "3052": 10057,
      "3098": 10058,
      "308e": 10059,
      "305a": 10060,
      "3080": 10061,
      "3082": 10062,
      "f07b": 10063,
      "f0f5": 10064,
      "40b9": 10065,
      "405a": 10066,
      "40f8": 10067,
      "d0d7": 10068,
      "c071": 10069,
      "c0d2": 10070,
      "3039": 10071,
      "2006": 10072,
      "2002": 10073,
      "800d": 10074,
      "400f": 10075,
      "4003": 10076,
      "6002": 10077,
      "3012": 10078,
      "4504": 10079,
      "2035": 10080,
      "b50b": 10081,
      "b502": 10082,
      "f01f": 10083,
      "e014": 10084,
      "6038": 10085,
      "f03c": 10086,
      "20a4": 10087,
      "20aa": 10088,
      "70a5": 10089,
      "e032": 10090,
      "b0ac": 10091,
      "00aa": 10092,
      "00f3": 10093,
      "00d1": 10094,
      "00f4": 10095,
      "00e9": 10096,
      "00c6": 10097,
      "00bc": 10098,
      "00c7": 10099,
      "008c": 10100,
      "00a2": 10101,
      "0161": 10102,
      "01cc": 10103,
      "01f3": 10104,
      "01a4": 10105,
      "0166": 10106,
      "0199": 10107,
      "0196": 10108,
      "0140": 10109,
      "0190": 10110,
      "01cf": 10111,
      "01a7": 10112,
      "0850": 10113,
      "082c": 10114,
      "085e": 10115,
      "0a6e": 10116,
      "0a54": 10117,
      "0af0": 10118,
      "0a82": 10119,
      "0a13": 10120,
      "0a3a": 10121,
      "03bb": 10122,
      "0345": 10123,
      "03c9": 10124,
      "03b2": 10125,
      "0344": 10126,
      "03d5": 10127,
      "033c": 10128,
      "0389": 10129,
      "03f1": 10130,
      "104d": 10131,
      "103a": 10132,
      "025b": 10133,
      "022a": 10134,
      "02ec": 10135,
      "022d": 10136,
      "02b0": 10137,
      "020c": 10138,
      "17dd": 10139,
      "17b3": 10140,
      "17e4": 10141,
      "3272": 10142,
      "1893": 10143,
      "188b": 10144,
      "1814": 10145,
      "18d0": 10146,
      "183a": 10147,
      "73ff": 10148,
      "73e4": 10149,
      "23c6": 10150,
      "23cb": 10151,
      "def8": 10152,
      "2145": 10153,
      "212c": 10154,
      "21d7": 10155,
      "21c5": 10156,
      "21c7": 10157,
      "2142": 10158,
      "5091": 10159,
      "5068": 10160,
      "5041": 10161,
      "505a": 10162,
      "5056": 10163,
      "befe": 10164,
      "be21": 10165,
      "be5d": 10166,
      "bee5": 10167,
      "617b": 10168,
      "6191": 10169,
      "61a3": 10170,
      "613e": 10171,
      "61b7": 10172,
      "6f00": 10173,
      "6f53": 10174,
      "6f99": 10175,
      "0503": 10176,
      "0565": 10177,
      "05b5": 10178,
      "055c": 10179,
      "056b": 10180,
      "0582": 10181,
      "aa01": 10182,
      "aa55": 10183,
      "1a86": 10184,
      "1a25": 10185,
      "1a12": 10186,
      "ff4c": 10187,
      "ff95": 10188,
      "ff51": 10189,
      "ff2c": 10190,
      "ff5e": 10191,
      "ff7e": 10192,
      "fff2": 10193,
      "ff56": 10194,
      "ffbc": 10195,
      "ffc7": 10196,
      "ff7d": 10197,
      "ff30": 10198,
      "ff05": 10199,
      "7c81": 10200,
      "7c7c": 10201,
      "7cf5": 10202,
      "7cfa": 10203,
      "7cad": 10204,
      "cc7a": 10205,
      "cc89": 10206,
      "cc0c": 10207,
      "ed00": 10208,
      "ed6e": 10209,
      "edb9": 10210,
      "ed57": 10211,
      "ed56": 10212,
      "ede0": 10213,
      "6265": 10214,
      "62fb": 10215,
      "6222": 10216,
      "4f32": 10217,
      "4ff4": 10218,
      "4f2f": 10219,
      "5503": 10220,
      "556d": 10221,
      "5554": 10222,
      "55c0": 10223,
      "5590": 10224,
      "0470": 10225,
      "04da": 10226,
      "04e8": 10227,
      "0435": 10228,
      "049a": 10229,
      "0402": 10230,
      "0446": 10231,
      "04c5": 10232,
      "4a01": 10233,
      "4a32": 10234,
      "4a82": 10235,
      "4a11": 10236,
      "4a1b": 10237,
      "4a05": 10238,
      "a7a6": 10239,
      "a72f": 10240,
      "010b": 10241,
      "33de": 10242,
      "3324": 10243,
      "331a": 10244,
      "33cb": 10245,
      "3753": 10246,
      "3734": 10247,
      "379d": 10248,
[...]
