[PAD]
[SEP]
[CLS]
[UNK]
[MASK]
0
1
2
3
4
5
6
7
8
9
a
b
c
d
e
f
##1
##d
##4
##a
##8
##b
##7
##6
##5
##0
##f
##9
##2
##3
##c
##e
00
##00
01
000
08
0a
03
10
##01
02
0000
17
##0a
001
32
##03
18
##50
73
23
de
21
50
be
61
6f
05
aa
1a
ff
7c
69
cc
ed
62
4f
55
04
4a
a7
010
33
37
79
76
11
38
31
4e
2a
22
a5
5b
81
6e
90
bb
7b
39
64
51
63
52
34
36
28
a4
a6
09
80
5e
fe
2d
97
5d
65
e8
fd
108
4c
24
91
1e
1d
0c
41
29
53
13
14
d9
8d
43
68
6d
4b
a1
75
6a
ac
77
5a
26
35
07
b2
1f
47
06
f5
4d
f4
3f
0b
54
66
7f
0101
9d
12
96
1b
e6
16
f1
88
3b
0f
0d
44
f3
e9
fc
3e
2c
d8
72
85
42
49
ad
8f
74
98
92
89
57
7e
d1
59
a8
fb
af
da
45
48
3a
82
58
5f
f9
83
bf
2e
080a
b3
e1
c1
c4
67
3d
5c
0e
b9
9b
87
ea
fa
7a
2f
20
15
19
f6
86
46
27
c9
e3
25
2b
a3
6c
3c
6b
56
f2
f8
d6
a2
93
b4
e7
b6
78
ab
7d
d3
1c
a0
d4
8e
db
ec
d7
71
9f
99
e2
ce
e4
f7
cf
b1
84
df
b5
9e
ba
c8
8b
bd
ee
c6
9a
70
cb
eb
a9
dd
d5
ae
ef
bc
d2
c3
b8
94
8a
8c
95
c7
e5
dc
cd
b7
9c
ca
c2
60
c5
30
f0
40
b0
e0
d0
c0
002
100
a00
030
501
303
0002
e00
##de
003
1703
##6f
0a0
##ed
##73
##69
##62
900
021
0a7
##ff
200
##7b
##bb
##aa
##81
##61
##4a
800
##76
##55
801
##32
0300
##4e
##91
##5b
##52
##7c
##cc
##70
##6e
##2a
##f5
032
##6a
210
##45
##77
500
##fe
de0
##33
##53
##f3
##4c
##60
##98
##21
##a6
##65
##a4
400
##38
##20
##fd
##92
##68
##64
##da
##b9
##c9
##34
##1f
f00
##9d
##d8
##28
5018
##41
##47
##fb
##95
##63
##b5
##51
##b2
##6c
##39
##48
##5d
##bf
##6d
##a0
##4f
##36
##31
##d6
##e6
##5c
##43
##9b
##54
##e8
##37
##7a
##57
##35
300
##10
##67
##ea
##44
##e1
##29
##f9
##4d
##af
##66
##7f
##2c
##99
##8f
##f0
b00
##d1
##75
##f4
##ec
##fc
##86
##8e
##74
##22
##3f
##b6
##d5
##97
c00
bede
##72
##5e
##2e
##78
##7e
##e5
##e9
##26
##dd
##ba
##96
##58
##f2
##83
##a8
##4b
##b4
##79
##fa
##40
##9a
##a1
##02
##25
##59
##24
##d7
##49
##a5
##9e
##2f
##27
##db
##3c
##c0
##e3
##dc
##5a
##6b
##56
##93
##71
##1a
##8d
##9f
##8b
##87
##1e
600
700
##80
##b3
##c8
##84
##5f
##46
##e2
##90
##d9
##e4
##17
##f8
##8a
##e0
##c6
##14
##ce
##cf
##f6
##c4
##89
##ad
##9c
##bc
##82
##c5
##3d
##b1
##3b
##be
##94
##df
180
##23
##85
##ae
##f1
##2d
##c7
##bd
##7d
##2b
##d4
##c1
##e7
d00
##88
##b8
##cd
##cb
##ef
##eb
##13
##d2
##30
##f7
##c3
##16
##d0
017
##12
##a3
##ee
##8c
##ac
##0b
##3e
##3a
##b0
##b7
##d3
5010
##1d
##09
##ca
##42
##11
##15
##a7
##c2
##a2
##a9
##1b
##19
##1c
##18
0a5
##ab
##0f
##0d
##05
##0e
##08
##0c
##06
##04
##07
8010
ccc
906f
aaa
008
0023
00ed
690
555
a79
a05
4a0
817
004
0a1
a73
050
3be
0001
a7c
01bb
020
175
a1a
f4f
950
550
0a4
73b
1be
301
005
91b
a5e
88d
0562
4b69
007
0017
bb0
450
aa0
203
18f
650
d50
02a
ac4a
023
022
f50
6a0
520
028
750
350
1f0
006
250
e80
b50
850
a4f
c50
a01
a50
320
363
0a6
e50
a51
ab0
920
380
040
150
090
7573
4f81
333
503
009
0800
323
8dcc
cc91
00b
027
029
e90
024
b03
0a2
00c
383
0ad
00a
101
aaaa
5e76
23e
f39
3e8
397
c4a
b01
8ff
005b
680
628
007b
00d
00e
f01
026
c90
ad9
840
201
280
401
0050
025
4c4
238
f80
d80
a88
c01
230
601
105
285
00f
140
6e8
abe
b9b
9b3
d90
980
502
701
901
f90
703
530
696
a08
1a0
0a3
dab
0ab
d01
170
e01
5555
0ac
990
00f5
880
2aa
646
17f
261
080
a37
838
f0a
ff0
504
a68
343
7b2
165
217
733
616
ff4
a0a
3d0
ac1
603
f03
0a8
1aa4
060
af0
02b
510
313
a80
805
a5a
9f0
190
636
fe9
202
373
36f
623
290
393
018
109
40a
656
0d0
b90
a20
376
043
890
a90
0100
480
17e
3b0
490
610
626
9e0
390
b80
770
c30
9be
1e0
47b
580
737b
bf1
337
702
231
336
c80
6f0
a60
0aa
820
d0a
1aa6
142
c9b
fff
917
7c5
430
a10
011
016
070
7f4
220
073
b60
632
96e
981
465
860
ed0
561
184
2c0
0e0
872
288
f52
8f0
a02
803
802
37c
20a
a61
164
d3aa
2ed
7a0
1e6
ac0
617
01c
235
e0a
773
01b
0004
102
582
780
e76a
620
590
c57
f40
903
7c0
1fc
bf0
ad0
ea0
e6b
9c0
bf4
01a
766
970
6e2
302
7bf
9d0
187
6f6
790
9d1
e2d
d87
d18
4d0
a59
236
7c4
62e
7b8
730
0022
763
160
237
044
910
0c0
46f
70a
a03
4e0
232
117
4c0
041
c02
c03
3f4
60a
e03
9a0
326
517
af5
402
50a
01e
b58
fd4
7f0
b17
403
a70
f20
777
d02
410
535
0b0
717
216
339
353
183
e10
940
a40
f02
039
f17
4e3
688
d17
6fa
0018
221
e17
120
103
a23
8f8
d49
b05
961
80a
361
2f0
b10
b02
960
6f7
a30
d03
a5d
653
239
317
8c0
9b0
8e6
a4d
3e0
7b6
e88
83f
a17
8a0
0f9
737
613
6ff
d10
76a
8d0
417
434
d70
602
7b5
240
2b0
8e0
21a
da0
dc0
b70
7c4e
130
260
a4c
eda
370
35b
e02
03f
0ff
0301
524
c40
222
b20
0f0
454
5b0
851f
455
cb0
037
9b4
015
c17
f95
930
604
630
01f
340
d60
ba0
440
b0a
23a
21d
537
a18
6b0
013
fd0
902
2e0
a4e
fe0
1d0
830
d20
5e0
0bb
837
95b
270
a62
776
b40
04d
f70
02c
ed4
420
d40
0121
2a6
1b0
740
810
4b0
870
8b0
cd0
470
354
085
042
e60
660
e3b
001e
c0a
531
014
01d
360
ae0
6f9
ce0
215
e67
f60
f632
734
6f5
fb0
e40
707
735
437
02f
035
dbe
6fe
edb
661
dd9
1aa0
ef0
d58
934
90a
10f
012
5be
396
266
e30
bc0
02d
aaf
a6e
f30
6f4
3f0
6cc
7d0
316
445
001d
310
8fd
614
224
638
414
eb0
b89
a63
fd5
676
051
ed9
6d0
e20
034
6f2
7b7
133
545
570
ed1
643
135
3a8
d68
2d0
074
587
1c0
7373
760
f5d
3f5
fa0
2a0
f10
3a0
ea5
019
30a
c60
640
141
6c0
7b0
15f3
6fc
460
02e
be0
634
987
110
386
5d0
982
116
f5f
4e7
a69
e61
c61
635
710
bbf
392
5a0
4e5
e8c
5f0
b30
560
cbe
ee0
346
a64
bd0
7c61
ed3
541
df0
6fd
330
225
3c0
234
0bc
223
720
6f1
04c
4f0
13a
540
ca0
05a
0e1
879
935
6fb
ff3
265
c20
b45
104
34b
565
cc0
685
031
4fd
a552
ffe
670
c70
262
6cd
a7f
3cb
5bb
061
db0
0a9
107
736
666
5c0
174
049
ede
fc0
c4c
ec0
2c3
0e3
412
f31
b5f
ff1
ff6
fc4
825
15f
ed5
768
11a
6f8
765
e70
695
243
544
728
7e0
4e6
131
485
0e9
cf0
7a5
61a
244
8d5
aff
c10
45d
d30
dd0
611
81a
6e0
813
749
612
233
ed2
625
1d4
edd
1d8
0c1
a24
b1a
a55
0fe
4f5
a54
f4d
ef7
7c3
ed8
62a
4e8
86f
863
176
764
169
bee
1d7
5ba
41a
124
0fd
332
5b2
5d8
0b5
e1a
e31
ffff
1e4
a13
52d
ed7
b36e
fe6
5b7
26e
ff5
a21
138
675
17c
7c6
147
edf
e15
2a7
2a2
7f1
808
205
3c5
de5
9db9
854
705
59d
2e3
312
fe5
fd3
064
1d9
769
179
61e
6f3
806
0f1
d53
b12
2d5
03d
374
bfd
209
292
76e
60c
697
371
d1a
c05
985
b6d
21e
2f6
f04
aac
0cf
594
df5
edc
264
875
177
189
05f
1e1
f26
b44
d4c
0af
036
325
767
bb6
578
e1d
fa3
86d
045
76b
fdf
352
6b1
5b9
09d
14d
438
f58
da1
2e6
de2a
055
34a
2ff
a0f
4e2
e870
413
6d5
3d1
365
242
275
4c1
745
fb5
931
046
815
241
497
965
0bf
e69
e62
44c
f75
181
21c
f4c
ce9
31a
4e4
3f7
9db
b61
04e
bb1
ce1
5b1
51a
d9e
2ce
c1a
76d
f1a
74f
862
255
e45
c31
136
065
12e
e68
152
dd4
272
366
081
ff7
096
2f3
d5d
03a
5b6
a66
182
ffa
ed6
642
1df
474
a58
291
29e
077
1a5
6e6
f5b
9d9
ffb
335
076
b35
3d8
04b
047
226
36e
2d92
472
27e
d64
db3
513
3a5
7af
3c4
bb4
069
063
f5e
0d3
e5a
621
13e
4d1
3ad
155
713
e25
bd5
aa6
37e
a1b
07f
2f5
36d
588
706
054
a42
a06
06d
964
8f9
4d9
e65
b63
c6d
21b
2a9
804
07e
f53
163
196
ef5
ffc
35d
1ff
d8b
87a
eaf
f61
b59
5b8
a49
127
0eb
d7a
693
11e
097
7ff
61c
057
4db
125
74d
fb1
459
482
5c5
066
f5c
0f2
106
4ada
2a5
206
738
814
d4a
71a
b15
60f
21f
067
038
807
f5a
273
569
70d
615
5b5
726
5ca
311
349
1d5
f59
f47
0f5
44e
45f
218
76c
4be
855
5ff
9b5
ff9
4fe
d33
a97
aef
8000
03c
342
369
09f
915
f51
f55
e66
279
03b
ff8
a47
148
431
68c
d12
0ea
b7a
053
4ff
2a4
bb2
24e
06e
724
27f
e74
05d
52c
fee
13f
f56
af1
058
ffd
973
436
35c
f35
fc8
a85
bf8
05c
314
5b4
247
597
5fd
151
9ef
d57
033
22a
fd9
75b
c41
20e
ce4c
622
048
25f
d65
22d
07d
3f1
662
7d2
d31
e05
23f
508
1a1
62b
331
398
5d1
079
44d
d1f
f6f
b1f
732
6e7
0bd
a2f
b8e
61d
5bd
0be
5f8
251
505
228
5bc
fef
0b6
34e
368
0d5
f32
48f
0e2
a07
17d
bb5
348
43d
d14
204
b65
a92
507
059
55a
a75
a5f
fce
6cb
212
289
2c4
8fa
606
f0c
81d
347
fd6
24d
0f4
8fb
5f7
a04
d08
28f
13d
443
45a
d0c
62d
4f8
4ab
518
12b
452
5f2
b41
a12
3ff
665
e64
451
e13
f64
276
c64
178
052
627
62f
791
28e
a48
13b
139
351
121
f15
15b
e5b
40c
03e
186
1e3
686
f57
821
5c4
274
f21
ef1
c75
554
26d
f54
7fe
fcf
2cb
57d
7e8
7e5
fb2
2e4
563
78d
1c8
db9
b04
188
28a
1ed
d91
d9d
358
95a
761
315
245
14e
b2c
7f9
05b
bb3
091
1fe
12d
0fa
3d2
d61
d0d
089
23d
ff2
284
657
293
856
fbe
b42
8e3
1a2
4ee
905
647
689
5a5
35f
3a6
197
f7f
056
375
a46
134
8d1
b25
0b4
7f5
f3c
2c1
7e6
9a5
082
1a9
22f
8d8
07c
062
45b
f7a
941
086
10c
23b
211
629
5e1
f19
a89
5c2
fa9
f69
a3c
b5a
c65
708
eff
1ad
227
364
5d9
fd7
1e5
13c
0f3
92c
573
20f
1e2
41f
f4b
e96
741
898
574
7e9
7ee
af6
25e
2b1
b6c
eca
709
8a6
608
088
17a
172
a45
65a
41d
b23
3f3
0df
85b2
2e5
b94
865
e38
9f1
b5d
ee9
955
4f45
33e
6e5
91a
0c3
6d3
746
572
58e
0e4
564
d6d
a0e
b51
bc4
084
115
4e9
093
fed
161
0fc
0d2
57c
2ee
50d
62c
521
286
6da
b24
0db
3e6
583
f67
cfc
841
607
382
4e1
bbb
34c
09b
0c5
143
1f7
06f
f1d
f3d
422
ea98
db1
e4f
de4
aa5
659
0c6
87f
27d
098
bff
46d
d67
bbe
341
362
1ef
533
0f8
82c
f9d
c4e
d75
94e
083
334
523
911
751
4d4
0d9
d1e
c42
ecb
9af
509
624
04a
411
6a4
6a8
bf5
d42
dfc
ba5
d5b
8c5
c51
309
52e
539
774
77f
881
858
7a8
ce5
d21
dc9
be9
55b
64e
631
345
5a9
1bd
ad1
ad5
db5
e47
9a1
10e
219
506
552
22c
395
fde
355
442
d85
5fb
fab
20c
93a
996
cf1
1a4
bb7
295
29c
42d
ad8
4f1
812
759
359
1b5
b3a
67f
d7e
7c8
37f
14a
12f
57a
7ea
7ef
fbf
c48
461
23c
641
5e5
fec
1ec
149
0fb
496
747
671
f6a
84e
70c
d55
c37
33d
0ce
6d1
f4a
fcc
82d
b95
e21
8b5
cd1
f09
213
50c
618
61b
fe8
296
3ed
576
fb6
83e
c11
c95
ec7
a56
5bf
63b
e89
fd8
d96
d9f
b21
f42
b31
f6d
861
d2d
e56
beb
344
5d4
1d1
298
7fa
0d8
458
f99
835
6cf
6b9
d3b
7ce
04f
79f
90c
36b
4c3
6d9
075
3b8
441
448
e93
da9
672
7a9
f74
cff
dff
bae
f07
73f
557
111
22e
519
095
2d3
971
1d6
4d5
2c6
989
d16
256
6c7
6b5
f2f
8ef
cb2
d0b
18d
694
7bc
1db
b29
66d
8f1
9b6
d23
e57
52f
fe3
294
132
6af
35a
35e
06b
3f8
664
12c
0e7
0ee
191
2b4
f89
e52
cd2
b7f
d05
de9
50b
a4b
97e
652
137
d95
6de
727
925
571
3a2
824
159
19e
2bc
d79
73e
1a8
2ad
09e
feb
4cf
068
f1c
8fe
48e
254
e24
c89
bce
b81
4aa
529
a6d
5dd
419
75f
1b2
f11
3b2
2ef
19d
25d
b4e
e49
306
5b3
282
415
772
b27
92d
575
a82
afd
45c
486
c12
0ef
87d
876
2be
dbd
e51
50e
33f
11d
114
22b
fe7
5da
0b1
0b3
fcb
d11
2f4
19f
b6f
842
d22
951
609
39d
34f
80c
97d
755
06c
742
5cd
b62
1c4
d47
d46
795
511
24f
297
5af
129
0d6
596
2ec
e37
d69
788
ba6
372
796
bbd
094
809
fe1
6ab
6a6
06a
1ba
e63
444
e95
d83
d8c
57e
7ec
5f3
83d
e1f
c97
562
b64
ec6
e4a
e42
b57
9e1
ba7
e5d
cd3
05e
aa3
551
bb9
5ed
2d7
5d5
24b
75d
071
473
128
1b6
893
b9d
b96
877
d7c
e2f
61f
aa1
698
81f
6e1
4c5
14b
d99
4b1
fc5
f8d
d41
db2
947
4f4
38f
81b
5a7
0ba
0f6
722
b3e
7a4
e3d
b6e
991
e44
f71
94f
8c1
959
329
1ab
76f
36c
4c9
0c9
29d
53d
775
072
547
969
fc9
729
85d
498
499
fb4
fb9
453
f96
7a3
a31
93d
8ee
ee5
ef9
e5f
08d
731
11b
385
318
2a3
2ac
281
287
435
6d4
b26
f41
0b7
0b9
54e
7fc
44f
487
589
208
f88
936
df2
dc1
f05
08a
4fb
2a1
34d
14f
75a
66f
1b8
f3a
927
7ed
67e
2f1
469
e39
f81
e7d
b67
e23
efd
c5a
171
1ae
55d
a78
797
79c
2a8
229
818
6e4
2d9
534
8d9
6a1
778
267
356
3fc
543
96b
1bc
e6a
42f
922
a86
af4
5f5
5fc
bfb
b97
7a1
7ac
b4d
ec2
995
a9e
38b
2ae
a6c
fe4
1bb
166
3e9
d84
723
7e7
581
2e2
15d
19a
f66
b4a
aba
711
998
dfd
bd7
ae4
b82
e53
dea
798
a5c
24c
8d7
5ab
263
478
1bf
889
428
0e5
ea3
195
8e2
ece
718
bd1
954
cad
60b
b0c
be6
113
515
2db
1dc
758
5a2
b2e
44b
2c9
579
afb
b39
0e6
0ec
2f2
b43
e71
e78
781
ecc
994
e4e
9e6
30c
c09
793
633
5d7
65b
0c4
0c8
6df
3bd
d82
57b
fbd
3a4
3ae
822
585
2e9
277
d3e
8e1
df9
8bd
bde
704
305
a7d
33a
648
649
512
246
1e8
0c7
532
6d7
7fd
96d
3e1
748
27a
27b
6c6
f29
a0b
cec
95d
c71
605
08c
811
819
644
5ea
fe2
e84
a14
476
1b4
f38
fc1
d89
d1c
58f
5c9
ea4
2b9
d7d
b52
cb9
e55
10b
322
de8
81e
7b1
a4a
268
7f2
e6d
d86
d8e
495
599
b32
e7c
7d9
d74
9ff
c82
8b1
d56
d5f
e09
18a
cca
a5b
283
2d6
a1c
5ac
26b
4de
168
3ee
2cd
57f
fbc
2bb
6bb
1c9
9e9
c69
d06
10a
173
7ca
771
d81
421
74a
5cb
9bd
e35
f84
7da
d5a
bc5
185
214
aa9
69c
11f
31d
4ed
7b4
28b
09a
b2a
47d
3fe
7f6
0de
e97
7e4
463
2b5
e7e
845
8c7
328
7cb
a7b
119
391
80e
fd1
d97
f4e
3f2
721
45e
bf3
3d9
5c3
2fb
157
869
464
f25
1c7
ba4
cb5
8c6
50f
69d
4f7
792
28c
099
65f
249
53a
536
26a
72e
921
896
bfc
15a
f65
86a
a38
3c2
a2d
b47
e76
789
db4
dbc
d73
848
bab
e5c
e0b
32a
68d
a11
123
882
e91
d8f
da3
e3a
2ba
d66
b4f
e79
712
9f8
ba3
8b7
bd9
8a4
b71
9c6
f0e
32f
aa4
559
762
118
4eb
e8a
918
1ee
1fd
f49
895
d13
da2
192
253
25c
2b2
568
ab2
c85
eb3
c3a
8a1
405
4a5
a44
4c8
1e9
16d
72b
85a
494
f9b
e33
56f
d48
e4b
cfd
ba8
c86
bca
e58
dc5
b72
d09
18e
1af
ccb
cc2
4f2
90d
51d
51e
528
5e9
65e
248
146
542
af3
f9c
e1c
5c1
193
b6a
dba
9fe
f77
cf7
df4
b5c
bda
bc2
d24
94b
c59
0305
08e
0ae
be1
ccf
4ea
51b
432
77c
0b2
126
1b9
e6e
fc3
2c5
72a
593
af2
5fa
b91
20d
c96
f85
d45
ec5
ec9
e26
ee8
406
c0c
18c
aa2
5de
65c
e8d
078
4d6
549
66c
3ef
851
928
577
da5
584
c1d
c45
86c
f2d
f28
b66
78a
ec1
99f
cfb
dda
0003
08e6
10d
18b
7bb
522
092
5e8
978
fdd
0cc
5a1
967
d15
af9
5f1
f97
3cf
f23
93c
783
ab1
d39
cfe
849
bd8
eea
c6c
ebb
c0b
73a
bec
4ba
6a9
07a
963
f3f
89a
da7
67a
199
f27
938
b48
b68
abf
d4e
df1
dde
ae1
bc1
95f
c2f
60e
c55
be5
1ac
a72
38d
4ef
bbc
7b3
1de
acb
77d
66e
725
674
b9e
6c5
e7f
782
7d8
e48
844
eb1
958
d04
619
7ba
416
6a3
07b
4d8
f45
12a
122
f14
8f4
f92
fae
a0c
997
9ed
9e8
8c4
e59
30b
0021
73c
7c1
cc6
377
63d
63a
658
e85
4cc
4ce
77e
e99
8f7
744
fb7
826
831
e16
f62
25a
e22
ceb
f7d
b11
c6f
a9f
d26
8a7
32d
bef
aa7
a52
6e3
5db
4cd
29f
144
6d6
4b9
6ad
546
9d8
1b1
885
0da
3e5
489
c19
5c7
5c6
ea1
7ae
2fc
f68
f6b
2b3
b6b
ec8
999
b18
84a
d5e
c79
28d
4ca
91d
439
f13
8fc
7e2
d1b
2e8
2b6
6bf
d7f
9fd
b16
b55
cb1
aed
946
304
c08
1a7
39e
64f
525
41c
299
53e
752
6a2
47e
491
ad3
fbb
3a7
827
5f4
5f6
5fe
67d
673
5ce
7ab
c98
cfa
cbb
cdd
b75
c5d
e04
7c7
cc5
4f3
55e
4a1
909
fda
29a
68b
5ad
e6c
3b5
fcd
429
2e1
679
5c8
ea6
6b6
ecd
f79
cf5
8b3
ae7
c7d
b06
4f6
556
5e2
2d8
976
654
8df
6aa
96f
833
2fa
ab5
e2a
cea
cf8
d2b
c74
c29
fea
5d6
5d2
0cb
0c2
d92
684
682
1f5
4df
2cf
897
a8d
dae
481
67b
fa7
15e
2b7
6c2
56c
785
715
d59
942
8a5
408
08f
ccd
4f9
389
367
4c7
14c
75e
b2d
e12
c44
0ed
156
15c
6c9
784
d43
84f
baf
dd8
d28
c32
de7
699
6ec
a65
5d3
d93
6d2
4da
4d3
3b6
447
3ea
2c2
7eb
f9f
f93
b33
e14
c4d
2f9
19c
e72
f72
a91
9c1
c22
321
1a6
a7a
a77
8d4
6dd
75c
0b8
1b3
167
0d1
743
591
595
a8f
488
839
e11
2fe
a35
f83
932
b53
eec
a96
d51
efc
95c
b0b
be3
cc1
4fa
379
6eb
39a
64a
637
97c
65d
655
e86
1da
7f7
162
f3e
3eb
d88
59e
afa
456
3a1
f6e
56d
56e
f86
787
a0d
71e
cf6
ba2
70f
eb9
dd7
bcd
1aa1
514
a41
5e3
4c6
53f
a1e
269
54f
669
0dc
f36
988
f91
e19
e3e
f22
ec3
bc8
b83
c78
dca
ca8
6ee
39f
3938
1e7
ac6
ada
3a3
83c
bf9
b34
0e8
e2b
f78
cf9
8bb
9a6
c34
ca7
de1
cce
516
639
538
d98
683
b2f
475
667
f1e
e9e
425
bfa
b9f
fa4
468
a36
56a
f82
933
1cb
71c
e2e
a94
ae5
944
8c2
cd5
b7d
40b
08b
087
69b
6e9
80f
a15
ac9
f16
fc2
d1d
f94
198
257
f8f
1c1
d4f
dbf
847
ba9
c66
9ae
eb4
eb6
dd2
c3e
60d
f0d
32c
739
deb
558
4a9
80d
975
26f
f18
adb
da6
83a
9b9
867
462
271
278
6b3
e75
a09
99d
ce8
ba1
bad
eed
c72
cd9
9c3
c25
f06
11c
a53
36a
97a
43e
4b3
a16
54a
668
e94
d8a
72d
859
926
fb3
dad
48b
b9a
153
46a
259
2bf
a3e
6b4
7d1
1ce
9fb
846
bd6
ee4
c67
d25
dc8
9cd
7cd
338
112
972
756
966
3ac
c1f
b92
fa1
864
2bd
a32
d3a
d78
c63
8c8
956
c5b
407
919
6a5
77a
357
7fb
96a
e9d
85b
bf6
27c
258
d6b
1c5
8b4
a93
949
be4
bea
1aa
79b
5ec
681
4b8
6a7
5aa
4d2
54d
886
852
f98
2ea
2eb
5cf
7aa
c9d
f8a
d6e
b49
b69
d4d
719
cf4
ae8
e54
dc4
c2b
f08
09c
97f
5df
1eb
a1f
ac4
471
89d
a84
b36
871
46e
e36
a25
93f
1cf
70e
eb2
b88
8cb
dc7
dc3
ca4
73d
be8
69a
69f
4ac
a74
a76
381
2af
bb8
e81
e83
914
ac3
fc7
7e1
592
48c
82f
f9a
c14
c1b
87b
6b8
566
e4d
c8e
c38
cd4
b7c
c56
b09
4a7
7bd
7b9
52b
5e4
433
5a6
887
f34
59f
bfe
c43
3da
eaa
d6a
7df
d38
9fa
9f2
e2c
e4c
94d
952
7cc
691
37b
906
24a
145
4b4
757
5a8
663
0d4
ad6
ad2
ade
67c
fad
6ca
8ec
71d
f7c
df6
eee
cbd
d2a
8ad
9c8
b0d
55c
37d
6ea
fdb
4dd
54c
9d6
72f
49e
faf
e32
3c1
3c8
a26
d72
b5e
9e4
c8d
9a2
70b
c39
8ac
b74
f0b
be2
a67
2d2
753
b2b
42a
49b
8f2
2e7
c49
46b
b54
ebf
aee
8af
c7b
ca3
c53
e0c
32e
7cf
a71
31b
51c
5ef
6dc
4bf
1b7
857
a81
a87
fa6
207
158
c99
e34
937
78f
b56
dd5
ae9
8a3
e0d
6ed
63e
651
687
6ac
b28
b22
0dd
f33
72c
423
74e
598
fb8
457
87e
f63
f6c
c92
25b
2b8
6c8
a22
b46
d4b
9f9
cee
b13
efa
e5e
c28
cc8
5e7
979
912
29b
43a
3fd
8f5
983
3af
ea7
6bd
d34
1c6
8ed
714
ef4
dcc
324
55f
79d
64d
2d1
8d2
6db
0d7
3ec
42e
c46
6ba
f8c
d6c
7de
71f
b1d
eb8
ddf
8ca
c7e
404
e07
5eb
d9b
5a4
f44
9da
a8a
586
a3a
a3b
1c3
ecf
d7b
ce7
dfa
c84
8b8
ee1
ee6
9a7
aeb
8ae
caa
3f9
16e
677
faa
194
78b
7dc
9e5
8b9
eb5
ae2
c76
cd7
ca5
f0f
dec
4fc
378
38e
907
526
2de
0cd
16a
3bf
0f7
85f
afe
873
7d5
e29
ce3
c81
9ac
ef8
bcc
d2f
553
91e
41e
4b6
4dc
f46
9d5
16b
446
92f
892
a8c
678
3db
874
20b
e7a
7db
d32
df3
ee3
cb8
bc6
e0e
ded
def
4af
908
7f3
e98
5f9
b3d
e18
a2e
bc7
b8f
dc6
b77
c23
30d
30f
388
319
2ca
492
3df
d3c
d44
c6a
cde
409
b08
de6
8d6
e6f
923
484
b98
786
df8
dfe
9ee
ebc
cd8
9c7
c5f
17b
be7
cc9
bba
962
e9a
e9f
467
c9a
3cd
3ca
f87
ec4
a9d
d5c
efb
8a9
9cf
904
a1d
548
f1f
3b7
986
929
59c
a8b
af8
eac
56b
e41
ee7
cb3
dd6
ae6
c3f
943
dc2
cdb
69e
4a4
4a2
4a3
33b
2ab
a57
8db
66b
d8d
85e
49d
adf
f9e
c15
3d3
86b
3c9
567
d63
7d4
1ca
d77
bd4
9a4
dd1
c7c
c07
c06
4a8
52a
974
4b5
aca
ac5
47c
9dc
85c
ad7
92b
832
3c7
78c
78e
d76
9eb
9e2
c8a
c83
9a8
bcf
c33
8a8
cd6
c58
bed
4cb
9dd
888
e92
fca
c16
c4f
eab
8e8
f73
84d
84b
c87
8bf
ebd
a9c
b84
957
dcb
cdc
e06
51f
fc6
891
c91
e3f
ab9
ce2
a9a
b85
9c9
4ad
384
63f
a6b
2d4
d9a
4b2
754
9df
42b
42c
493
98b
899
b9c
878
fa2
7a6
b4c
d71
f7b
f76
cf2
b76
9c5
ca6
79a
41b
a19
9d7
3e3
daa
48a
3a9
b38
b3f
c47
3c6
3c3
d3d
9e7
9ad
dcd
c24
c5e
b0e
c0e
645
779
1fa
1f9
884
3b1
bf7
bf2
2f7
252
a3d
f2b
ddb
aec
ef6
8aa
ca1
40d
794
38a
4ec
1d3
5a3
16f
92e
c13
9b1
d35
cef
b1b
cb4
bc3
b0f
90e
1d2
0ca
d94
8da
6d8
477
3b9
3bc
49f
da8
b99
a34
6ce
f2e
e7b
ee2
d29
8c9
ca2
30e
327
aa8
527
80b
e87
916
4d7
9d2
88a
2cc
49c
afc
82b
fa8
1c2
db8
bd2
94c
dce
b79
b7e
c2c
c5c
32b
cc3
31e
6ef
977
913
66a
968
74b
a39
e77
bdd
efe
c3d
b86
95e
c73
d0e
0127
fdc
d9c
4bd
ac7
1f8
3fa
f1b
adc
98d
7e3
829
9b7
154
6c1
dfb
cbf
d54
b8d
b78
b73
0019
de2
816
64c
2dd
e8f
8d3
d19
59a
823
c9f
d62
a29
a2c
ab8
716
9fc
948
c77
1a3
33c
7be
8de
43b
1f1
479
f43
3b3
924
daf
58a
9ba
9b8
ea2
7a2
466
8e5
e27
baa
9a3
ddd
ae3
b8b
c2d
38c
2df
53b
3b4
e9c
3e2
58b
9bf
9bc
6c3
8e7
c8f
c6e
945
9c2
cab
90f
a6f
fd2
8dc
5ae
f3b
3d6
d6f
e28
f7e
bdb
d52
b8c
cac
40e
68e
6ae
f48
424
894
89b
b93
939
8e4
ce6
ebe
c27
cc4
e82
3f6
2c7
5cc
19b
b4b
ab4
9e3
eba
eb7
a9b
c21
1dd
47f
9de
48d
c1c
3d5
1cd
8e9
b1e
8be
aea
8ab
307
c04
97b
acc
828
58d
9b2
e73
e43
c7a
387
ac2
47a
2c8
59b
e1e
87c
2fd
46c
f24
9f3
99a
b5b
eeb
a99
d2e
dcf
43f
96c
98f
af7
b3c
fa5
868
e3c
f8b
d36
9ea
bd3
9aa
9ab
cb6
a43
e8b
ad4
c18
c93
ab3
db6
b19
dee
4a6
5ee
2dc
5dc
4b7
82a
c1e
b14
b07
7c9
3ba
44a
449
e9b
89c
836
ead
7d6
8ba
c7f
cc7
a7e
37a
4c2
1f6
9d4
f37
fac
7a7
866
abd
bc9
9cc
de3
799
31c
394
43c
1f3
49a
3aa
b37
f2c
c35
aad
1f4
54b
3d7
d37
dbb
ced
cba
ca9
308
31f
68f
26c
7f8
88c
7ad
a3f
6c4
992
99c
99e
df7
bac
8bc
cdf
c26
63c
2da
2900
9d3
92a
89f
fba
93e
1cc
71b
bdc
c62
b87
9ca
68a
3e7
98a
a28
d3f
e46
c8b
a95
a6a
5e6
cf3
843
dd3
b8a
d0f
e8e
91f
3fb
3bb
984
dac
58c
abb
db7
9f4
ce4
c6b
c0f
aab
acf
da4
c94
f2a
a98
8cf
8c3
e08
4ae
79e
4bc
ace
89e
3ab
ef3
cda
16c
a2b
ab7
8eb
99b
bdf
3e4
e1b
c9e
7d3
ef2
8a2
399
acd
9ec
e0f
7c2
f12
c4b
abc
9f5
eef
c54
025c
c9c
6b2
7d7
c52
d07
1ea
418
98e
483
cb7
692
53c
ad47
6bc
c8c
d2c
40f
64b
8dd
98c
9f6
b3b
3dc
2f8
6b7
c88
c36
8cc
aae
81c
1fb
834
3dd
9cb
caf
ac8
b2c9
88b
853
b1c
94a
953
88f
c0d
a83
83b
6be
91c
426
8f6
eae
8b2
bcb
cae
4bb
82e
ddc
39c
ab6
b7b
9ce
90b
8ea
88e
3ce
a2a
9f7
9bb
93b
8b6
39b
a33
054e
7dd
9c4
86e
427
3de
f8e
993
84c
883
8ce
a8e
3cc
74c
c68
1f2
9a9
cbc
ea8
c2e
2a02
add
c3b
77b
3d4
ea9
d27
8f3
0005
001a
c3c
c2a
2300
8cd
a27
03e1
0357
010f
2200
6132
370b
0110
1603
6f6e
011e
0014
327c
437c
0936
8018
6163
f1fe
6e64
6f77
2d76
6134
01d1
7350
4265
5769
2909
0c8e
82d8
729d
cf53
6533
6bb5
0036
025d
b041
df6c
2400
eb55
025e
0260
49d6
0302
00fe
61fd
00ff
0052
965b
fd20
0261
0128
002e
2100
d934
002d
0214
0006
0229
0013
025f
0304
0160
002c
0020
859b
0012
038f
80c9
8581
bd3b
3030
2600
965a
e3af
0102
00fb
0011
7633
7ce3
002b
000c
9fb4
f595
a82a
051a
683c
c1d8
050a
1aa5
8073
edaf
0355
9d51
000e
514d
0007
2a70
0262
24f4
010e
89dd
003f
2000
3133
026e
afae
797e
3eea
0061
0125
d935
3839
3433
d977
3532
3434
d47a
5472
370f
3262
0051
3838
109e
3261
921f
15d5
007a
3836
9060
3831
003e
3832
3537
0a03
001b
3733
706a
1a00
3731
4254
0303
6137
5f7c
3062
1800
6364
3364
9796
10a6
1e00
3033
00fc
026d
6639
4553
7970
6335
4c41
3362
3165
6662
6138
6238
3766
6537
007c
005d
547c
9795
6461
6539
5ae5
1c77
10aa
109b
10ac
d500
0037
2a00
0008
000b
000f
312e
64b6
2800
0124
026f
3144
7ed7
b010
004f
173d
6432
9797
1e22
00fd
0310
10ec
0126
07fb
49f2
10a9
10ab
4a43
4b7c
2048
0079
0010
4f44
6ebf
9799
4152
011d
000d
2700
4000
026c
0c17
821a
310d
0158
979b
5454
0129
4200
9add
10ad
502f
010d
5345
0153
1097
202a
007d
4c9d
4d2d
88e7
4348
b2bf
2500
0076
0078
ff14
9798
0077
7c01
3700
329b
6a13
0031
0009
cf1a
ee45
0af2
deea
5b21
9067
8377
007e
0c4b
797f
7990
4d00
2c00
78a2
002f
020f
1221
4099
10a0
d82a
000a
10a4
0015
aa26
0c3e
ee40
006a
1139
0030
a581
2586
10a8
1090
1403
acb3
4854
edf5
0675
f6a8
8cd5
0035
1095
1195
1137
2a45
0267
7c16
4cfd
77fd
0032
119d
b2c0
82f5
2056
1099
115d
22f4
108e
7efb
1193
0024
109f
117a
11a8
118d
4100
29da
75bd
9367
007f
0120
514c
1dba
0033
e968
1096
0528
a8e8
834d
25ec
7022
0114
10a3
7c60
7997
11af
118b
41b1
7ed8
dd02
f029
012a
10a1
69f0
553f
7983
113f
1eba
c12f
f7f3
c83f
0080
1092
1093
1135
112e
5d3a
0b37
3a69
e058
1191
10a5
73ea
1145
1143
4e53
523c
5a16
d798
c20b
0354
1098
10a7
174c
33a5
7988
4ea3
ae6b
bc81
37e2
1147
13b5
6a78
1503
562c
d759
f787
109d
109c
11a4
282e
979a
e370
0350
1091
4f2c
4aa8
761f
108f
29db
1f69
b468
1094
7994
11a6
7be0
5244
133f
6774
113d
2b00
303a
7992
1177
1198
119a
113b
574f
c4d7
0029
011c
4fd6
1175
0352
0351
034b
defa
76df
117c
11b6
09c0
fd4a
7f40
2f31
7986
5b4e
1089
4c00
3fb8
2c31
f0f4
7c36
a143
bf80
f839
a989
4f52
7982
1166
5241
0034
0081
0072
08fa
08e4
76f9
1130
fa35
c065
034d
10ae
11b2
108d
dae1
956d
10a2
7995
4d03
1c86
0a3c
0270
7985
798c
1133
d523
d50c
034e
7980
3b50
f010
21b1
514f
0038
0356
537c
ad3d
0075
5b95
2807
5d44
498d
0026
108a
29f7
8826
3e0a
034c
23a0
fff3
ff7a
798f
1141
7ed6
109a
24b3
6b68
d43e
004c
0074
108b
9d73
016f
0353
514e
0073
1a43
4a37
798d
b9f9
4686
f04e
5efc
1088
1d14
0115
fc03
7248
7e9e
0268
5102
1214
00cb
3300
7989
3131
64b7
3acd
0122
97a3
5a0a
744f
7e9c
afad
5f7d
11c3
289f
2d85
ac7d
a3aa
3c2f
798a
108c
0320
2373
5b00
5151
0113
6f6f
4a31
798e
7993
798b
112c
c44e
7069
0082
0271
11c8
1660
3acc
3c57
0340
de92
1086
003c
2378
696e
7981
0d4f
9fdc
d232
c52f
026a
7984
115b
09c4
0af1
7996
0277
6996
68ea
4b00
5a0b
1b00
60b5
2032
0266
5a0d
1209
1b9a
f382
0273
3230
1087
6873
5a0c
0112
18cd
a511
97a2
6acf
2020
6c5e
d3a7
0200
0272
5a11
ba00
8b1e
0149
0123
0379
211b
0501
056a
2d86
4c0f
e459
006f
0083
0084
235f
05dc
7c55
979d
10af
0269
024a
05f9
6924
7987
0c0c
1375
77f2
5420
85d6
c350
636f
4b99
4745
4d4c
e6cf
ab8f
cfc5
034f
4f43
fccf
3200
32c8
6ef0
97a0
6535
6667
8566
2e31
fa92
1500
0028
00ac
6160
69b9
f1fc
88ec
3a00
e750
c61a
01e6
10b0
2d30
6874
c400
2063
0274
32d7
733d
6473
5121
4c8e
2401
5450
92c0
7e8f
7d9a
b03e
0070
2371
0512
4f2a
1149
348b
80c8
979f
0cf6
07d0
1f50
fcda
fb2b
20c0
5000
024f
18ce
18c5
18cb
6f72
5e77
6afe
5a0f
f1fd
7264
82e5
0133
012b
03e3
10bc
0276
0252
18af
2d68
59f0
6172
979e
7540
443e
7465
99b5
f70b
efe9
1003
0071
034a
0275
001c
0400
4cfc
8dde
5a0e
3e3c
3d22
fa63
1c3d
0309
0249
32d6
fffa
a7f0
5100
5150
5a09
5a08
1259
8565
89dc
5700
e130
3d45
9fdb
40ab
18c7
1188
3600
1edb
82c4
7d20
1c17
d549
7c03
2a86
d938
fcdb
7210
a8c8
e4ef
d010
004e
00ad
0af4
211d
0105
68f5
7f84
965c
5c82
e4c1
3038
0194
0278
236c
97a1
5de0
4cfe
1e21
5a00
07d1
e915
3000
0279
18cc
69f2
979c
5a10
25da
f06d
10c3
690e
bb00
6431
7745
e914
c112
b03a
0053
0257
2374
211c
69f1
11cd
6e6f
6574
fd93
0c52
7fc4
e661
f16a
f200
e4e8
2370
3100
6572
1085
4cff
fcdc
d155
5c83
70ac
0af3
3234
3231
4a07
7991
3132
9069
908d
64a9
513f
a6b1
3500
fcbf
5f86
c450
8c05
0085
00f1
0016
21c0
0583
88ea
4400
89db
5f7f
bf75
2f00
2f57
00f0
a73d
3400
5de9
d933
6875
e622
0d0a
7469
3a61
c4af
9383
7879
c300
9413
b06b
00b0
2372
1ae4
2231
2d00
5de7
4300
acfe
0b6a
666f
85d5
59f1
b1a6
df71
8b1d
302c
01d9
18c6
1de9
6dc7
353a
4420
67be
b945
8b1c
f071
b040
10b3
10b1
3233
32a1
615e
7c00
285c
149e
88e8
c183
1c00
ce98
3036
b03b
0358
3236
236f
05fe
1182
6e24
e831
6876
6832
44ec
48b5
3a20
58f8
002a
7036
32f0
32a2
18c4
0500
4a09
3800
6465
5152
d93e
f1ff
89de
89d9
3ae4
f936
998e
c6a2
bc00
e52b
cdd4
006d
0087
027a
0585
2a15
511c
3630
5dde
6d55
6d57
26eb
44e6
42af
fba5
c111
ee51
b800
c716
cd7a
0040
0138
10b2
0251
3235
05ac
3335
6e74
6448
633f
28ad
1352
d939
d93c
ac59
7f7e
44ed
89d8
d14a
59f8
da36
20d4
7dd6
236e
6173
38ad
2a07
5de3
0c97
d93f
6d52
1f1c
4895
58bf
c453
f074
00af
01b5
08e5
10b5
001f
236d
2146
6f2b
62a3
223e
3900
363a
d936
5459
88e9
59ef
c100
c455
ea00
a2d8
ba86
f06c
f0fc
a000
c000
10c5
024e
3232
32f3
3239
32af
32ba
3224
3249
322f
3280
3289
3208
73ec
236b
615d
69bc
319f
4eb8
3633
97e6
5ddf
1300
6663
7fbd
120e
f1a1
88eb
4425
e90e
49c5
8fce
fabf
ecf9
c717
f072
f03a
00a0
0086
0169
0a33
32aa
32e2
329c
3282
73eb
616c
694d
2a9f
29f5
07a7
6636
3b00
44eb
49e9
c454
c457
b900
204f
3c00
6b99
6b72
8e99
b03f
0045
0103
10c4
0204
3276
3247
3244
323f
32b6
327e
3271
323b
322d
18c3
be5c
4a00
64b8
2d62
9792
5dcf
0cd5
d937
d940
43af
4b0d
07af
3f00
54d2
44e8
44e9
89e0
fb3b
4800
faeb
c9e9
d690
ee4b
00ae
01b3
08e3
026b
324a
3228
322c
3299
328f
32fa
325a
32c6
32c4
32cd
0584
3139
64b9
fe39
5de4
352c
b2f0
0b2a
7fbf
9db2
89da
89df
59f9
59ec
5ff0
f039
0095
01b6
3203
327b
3263
32e3
32ce
32c7
2375
aad6
33d7
332d
374d
6e22
6e1c
393a
feff
e8f4
260e
e638
f346
89e2
da12
5f68
8757
1525
f201
b47c
f06e
003a
b03d
006c
0155
012c
013a
10b9
10ba
10b7
3286
32a5
32db
321d
616d
05a4
6974
5567
044b
04a9
0106
3135
6e67
6e1b
90b8
6362
342c
0961
e858
2965
6865
6d53
f1f6
88ed
d800
89e3
d1e8
af69
f6e5
cb19
9436
b03c
008d
00c8
016c
0182
08d4
0201
3201
32da
32e8
32ea
3266
3283
329e
3227
328b
32c3
320d
18c8
7332
2323
0586
5525
551d
044e
4e45
81c9
342d
682d
4bbc
ac00
666c
f1fb
f1f0
e916
85ba
594b
af66
3a72
c110
c11e
fa6b
93bc
c800
e57d
b743
40e8
0025
0060
0090
0130
32cc
32fd
32c9
32bf
327a
32e1
32e9
3296
321e
3285
3216
32ee
3209
321c
211e
5515
4a08
3136
5bec
6e1e
d944
6d56
2609
4700
96c9
44ea
59f3
f956
f99f
6765
7a4b
7a49
25ea
a23e
9f2e
9e4d
f06b
4027
f038
0139
0189
10b6
320a
3229
3297
325e
3258
3225
32dc
3214
323e
3211
32a7
be58
057a
053c
6911
332c
114c
6400
2d50
4147
29f9
d941
d93b
4b49
4d61
5443
6672
7fc5
f1d1
f359
8980
59f6
c117
6769
3d41
7a48
8e24
ba85
9a70
dc00
ca19
f03b
00e5
0088
081f
0823
0348
10dc
0254
32ff
325d
3222
3278
329f
32bc
32ae
32d2
320b
3215
73e8
2376
2379
055d
0588
3333
372c
3834
316b
2a71
5148
09e8
0917
fe9c
2d61
4144
5368
4328
6d58
5a12
b209
1f00
7fbc
e6b5
e98f
4241
42ba
59fd
4558
8200
c12a
c137
6700
3d00
3d16
8759
2fe4
2050
2043
8664
3c69
f2f9
d667
e7e1
782f
ce18
e4c8
eb87
408e
1000
006e
004d
013f
0a80
0250
326f
3277
3238
321f
32d8
3237
3210
32d1
3284
32e0
32c5
322b
32c1
32cb
3242
320e
320c
2361
2377
616b
0587
4f4a
5514
7665
116d
312c
4e1f
2a2e
6e20
6e1f
2828
2df3
0c00
53af
d93a
d942
4302
6610
7fed
7fbe
e926
e924
4250
af67
bf77
c121
fa03
20e4
5600
a2a3
d4c8
9e92
9e13
7059
9469
0039
0068
00b6
0058
0056
01a6
039d
10b4
024b
3250
3221
32a4
324d
329a
3212
18ca
2360
be5b
044a
0410
3730
7998
797d
117f
4e34
bb57
bbe0
3939
5200
52eb
3635
3607
5de6
5de8
5ddb
6573
656d
e81f
1084
2966
5365
77bd
54d1
7f5d
1600
0dd2
d8c5
89d5
b30e
5c44
5c84
875d
25ba
7875
f7fe
4083
3034
00c0
00eb
016e
0135
0144
0171
0a00
0a4b
0385
3269
32bb
322a
3260
3298
32a6
32b5
3243
322e
32a8
3202
3217
32cf
32f6
32df
32d4
3288
323a
32b7
321b
3207
616e
6174
615f
6f73
691c
4f49
4abf
4a12
79fd
1184
3137
392c
3922
6300
280a
a4d1
096d
1db4
5370
d943
8d7f
6d82
4b50
ac5c
26fa
b205
06fc
0bba
1208
f10c
42b4
42b8
59ff
59f7
af6b
dad8
484c
5868
c133
fa66
7a47
20e6
1900
2b70
2b97
6c61
3c11
f8b6
ba84
ef2a
9437
9c4b
c203
3020
f070
00d6
0066
00ba
0046
00d9
01f4
030a
03e0
0312
32de
3245
329d
325c
32d5
32b4
32f8
323d
32e7
328c
216f
be57
be59
ff28
766e
3134
2aef
a5c6
5b01
5bad
3970
3930
3436
9791
5dd9
e878
1d89
6d54
6d2e
5af9
5a07
7fbb
7fc1
7fc2
1213
d843
7276
42b9
add1
adce
92b1
fb87
4500
5f7e
f9e5
c452
c451
8761
8789
2f46
c900
2b96
7874
ab00
d4c1
994c
eb00
a9fb
dc66
f06f
4077
408d
3035
d000
b039
f0aa
0064
0048
00e6
00ef
014c
011f
084b
08e7
1033
10dd
10b8
02f6
3291
3264
326c
32a0
32f9
3279
3223
32f1
32b8
32ef
32d0
32b0
32ab
18c9
732f
23e9
059c
6905
ed9e
5527
3138
5b5b
6e21
6ef2
64c6
5133
5131
5201
5265
3438
3639
5dea
6500
fdd4
24ff
4129
43a6
07d7
7f03
7fc9
7f46
1206
f16c
f1fa
883e
44e7
e900
e913
2c32
7265
7220
42b1
42b7
7461
89d6
89e6
fb17
584a
f929
c126
5cff
1501
19a3
4632
27bc
25fe
f8c5
7877
1c39
db48
ec07
e4dc
b5d2
bdc8
eba5
3032
003d
003b
0065
0041
0063
0043
00ec
005a
005f
008a
00ee
0824
1038
10c2
0208
3252
32b9
3254
327f
3275
3246
32be
32a3
32ac
3218
6f74
0557
0516
1a1a
69ba
5564
552f
04e6
4a73
a7c5
010c
79fe
114f
4e48
4e2d
4e3e
5bab
6e26
6e23
64ff
647d
5130
636c
3439
28f3
a4d8
fea7
5ddc
652f
414c
5300
5312
6d00
6d68
6a3f
5af1
3565
3530
0610
f5ad
f4e7
0b23
0bc1
666a
7f77
9dd9
120b
f1f9
f1f7
8813
4432
2cd2
723a
89e1
89e4
59ee
af6a
5f00
2e63
c120
c11b
7a32
2f32
159f
4600
25d6
3cc6
56e5
d68f
e700
7dd7
8e90
b54d
c8db
ee65
7065
9581
f0e5
408f
404b
c083
030c
0069
00a4
009b
00a8
004b
00dc
00e7
00d0
0042
0192
01b4
0a20
326e
3253
32fb
3257
324b
3256
321a
32b3
32eb
3219
3205
3204
73e9
21ca
be04
057b
4f47
0420
0448
a7a7
37a4
6e4c
6e25
90ca
6478
3430
fd0e
4c49
249d
1362
d93d
6dc6
4bf9
ac7b
35de
b2d9
1f1b
0600
4db2
4dc8
54f0
7fc6
7fc3
3b87
0d00
0d35
f32a
f380
e929
fcaf
fc2e
2c35
2c25
7267
42b5
adc9
89d7
59fe
fb20
af00
af68
48e9
58e8
5815
5f3b
c11a
c10f
3dc6
0e00
8768
7a43
2f4c
8693
863b
6c69
3c12
f298
d691
9300
d3f7
8e00
e267
f738
cf00
8b1f
8b51
bd6c
ee00
9a00
cb56
ef63
ef8c
8c71
30b6
f073
40e9
b064
c055
0210
203e
00c9
0067
008f
0097
0059
00a5
00d4
00cd
0134
0136
0193
0180
017d
0a53
03f7
02fa
3273
3255
32f5
326a
3268
3241
32b2
3267
328e
32f2
323c
32d9
32e4
32b1
327d
73ed
73dc
73e0
23d7
505c
be5a
61bd
0537
0559
055a
ff00
fffe
ff60
4f4b
4a0a
4a06
a7a3
79c6
3130
2a01
22ee
5bae
81cc
6ef1
6ee7
bb69
3932
3947
392f
5155
51e1
513c
51ad
5111
6377
a600
09cf
5de2
24a2
53be
d9e9
d9f8
43bf
6820
6d2f
7511
5a8d
3546
072b
4d51
1bff
f1f8
f1cf
f1f1
e927
494e
49f9
8f99
7468
9800
89e8
5998
48e8
582f
b391
676f
67bf
5c00
7a51
4610
c969
25f3
6cff
6b54
f235
f8ef
a220
93ac
1cac
8e98
db12
ec47
c869
c8c1
d2f1
6097
30f0
e06e
d061
0306
3031
f000
7002
4015
7030
7032
e010
009d
0044
008e
00e3
006b
00c3
017a
01dd
01ad
0116
01c2
0a41
0335
0349
02ed
32ed
324e
324c
3220
32f4
3226
32dd
326b
3290
18d5
73db
217f
6161
6129
6179
6f43
6f66
05a6
0522
ff19
7cb2
6900
62fe
626d
0477
0412
040f
0406
0404
4a02
a700
0109
3338
3339
3330
37d6
76ff
3835
38a5
a5ed
5b49
814d
3934
3937
6471
518a
638b
a622
80c5
fe00
2d38
9790
5d00
5d51
5d3c
6569
fdbf
24a1
0c02
412f
2968
5305
d900
6805
6df5
6d67
ac28
5a90
26bf
3539
b206
1fc7
f56d
4dea
4d58
f425
7fba
12ff
1210
1224
1282
1b0e
e928
fca5
fc06
3e00
2c38
2c39
2c57
57ee
d129
59f2
fbff
fb9d
fb83
daa8
4584
3a83
5fdf
b333
b3e9
e115
c135
3df3
5c64
0e56
fa00
7a4f
7a09
2f61
2f22
f60f
25ff
25e6
6b61
f2ab
f8d4
a2e9
b402
e7fa
7dcf
a08c
ecc9
d7ff
7100
71ac
ba70
ddf4
ae36
8c00
cdc1
caf0
40e7
d0db
0308
0307
303e
0a07
7006
f030
00e8
00fa
0049
008b
00f6
00c4
00b1
0147
016d
0154
018b
01b1
0118
08c0
03a5
0388
104c
103d
02a8
0256
3270
32fe
32ec
3240
328d
3287
32ad
32bd
3213
32f7
32d3
73e3
73e2
73e7
23c9
6f2a
6fa4
0525
1aa2
ff49
ffdf
69f3
69e8
ed39
62fa
4f48
5531
04d9
3732
37dc
11dd
11b8
3188
4e00
2a7a
2ace
5b91
5b10
8197
6e1d
7b87
5168
52d8
52d4
34d8
3437
3631
362c
36d1
36c1
a400
a4d7
a6d5
098e
5e8a
febf
2d07
9751
9749
9785
5de5
65b0
e85b
1d43
0c28
414a
4102
295b
2902
1400
14d2
d9e8
4312
6d77
6d6c
6d74
4bf4
7510
ac57
77ce
5ade
0734
0726
b2b6
477b
06ac
f5eb
0b33
7f67
9d30
1203
1267
e636
160a
0d01
0dff
0dcb
4489
42b3
4900
74c6
7e46
d100
d14b
59f4
593e
45ff
453e
4886
5800
58f9
f9d8
e18b
c12e
6757
67bc
8782
fafd
7a00
7a4a
152c
8665
4603
279d
2b7a
2b71
a376
a32b
3c67
f2ea
f862
f8f0
f8eb
9349
b486
b65d
abf0
7dbe
d4d1
8eca
e216
e21c
cf87
dfff
dfa8
b549
9efe
c629
c6a7
70e8
cb10
eb86
dd0e
8aeb
c78d
e5bf
e5e2
9c53
ca00
c200
f0fd
d08a
c02b
030b
7000
0505
f0a6
0047
0057
010a
018f
011a
0828
0822
0af9
036c
038e
03c5
03d4
03ac
10c0
02b7
0205
3295
3251
3259
18b9
73de
73e6
73e1
2116
5048
6101
6f88
ff0a
ff48
ff89
7cfb
edb6
6200
624d
62a2
04b6
048b
4add
3332
3331
33d6
3737
7900
7669
760b
1183
382c
31ed
4e74
4e49
2222
22e0
81ff
6eee
bb61
bb32
7b36
6421
64cf
5169
51e8
51d5
6365
6372
63f8
52db
36fe
28da
281a
2846
28b8
a448
a4d9
a6d6
0903
5e00
5e53
fea8
2d4f
97ff
5df3
5dc2
6561
6566
1e08
0cff
0c35
0cb4
4143
41f9
41d3
2967
1328
d95a
43fe
4398
4336
6da6
6d40
6de4
4b5c
4b02
4b1b
7700
776d
5a1f
5a37
265e
3536
352d
070a
07d5
b261
b2db
1f99
47f9
471e
478c
06ea
06e0
06cb
f500
3f26
3ff7
3f04
0b5e
544b
54c4
7fc8
7f14
7fc7
12fe
12cf
120c
e600
0f5c
0d40
449b
e9ad
fca6
d85a
425a
4970
adb5
add4
7475
926e
89e5
5928
59fb
59fa
5916
da8d
3a6a
8209
5feb
bf78
2e00
2e37
b366
e18c
c116
67c9
6756
5c72
b919
ea45
ea64
7a50
7a44
206f
19de
19cb
86be
46a7
e3b0
2b69
6c9b
3c47
f8ba
d6f6
a2ff
a2a2
e7f4
ab01
7d00
7d46
7d13
ecd7
e431
f7a5
dffc
c853
c8e8
8ba3
ee01
c64f
c6d4
9a2a
9ae3
eb70
efe7
d2ff
b851
944b
8cf0
951a
e55e
dc73
ca3a
60fc
60ba
c500
40f9
c0c4
8014
400a
4009
0507
050c
9502
b034
20a8
0062
00b2
0054
0096
00f2
00a1
009e
00e4
0089
00b7
014e
0170
0168
01ea
01d2
08ea
0875
0abb
03fe
03e9
038a
106f
1063
1036
1035
103c
10c6
10c1
0203
0296
0280
0282
023b
022b
1790
3292
3248
3274
328a
32ca
18fd
7301
73da
23ac
5055
50e8
0578
aa81
aa84
aaeb
1a0f
fffb
ff6d
ff26
6966
69e5
4f39
55a1
0434
04bc
a7a4
0104
3337
3371
37a9
79ff
79a9
3875
4ee3
2a49
2ac7
2260
a500
5bb2
5b48
5b7e
6e28
6e27
bbd9
6373
6363
6380
5259
52d2
3431
3454
3499
28ef
a48a
a62c
a68d
a6a2
091e
09df
2dfa
2d56
9789
5d5f
6570
6531
6526
6524
653c
e868
e84b
247c
2453
24a0
1e99
0c3f
0c3c
4141
2903
29fa
53bf
1322
147c
6800
6d72
4bf8
4b8a
6a2b
ac77
ac78
772d
5a68
5abf
5a25
5a3e
5a18
3533
3538
3549
b2e9
1fda
1fc8
47a0
47a8
47ad
47b0
0620
f559
4d7b
4dd2
f402
3fa1
3feb
0b6e
667e
66ba
666b
9dfd
1211
120d
1205
1bb3
1b11
1662
f1f4
f1ec
8828
3b86
0fed
0dfc
0d06
fc62
7274
8525
85bc
4253
42b2
4258
4911
8fea
7420
7425
9200
d1db
59f5
597a
59fc
59db
59b7
a800
fbfd
fb8e
da83
da8a
5851
8372
2e24
e1ac
c129
c124
c11d
c11c
c118
c4ff
c456
3d5e
3d3b
0eee
b9fd
b924
8764
8756
87b3
8790
eaea
fabb
fa76
fa52
fa34
facf
7a16
2f4d
2f96
2061
206a
2074
f6f9
867f
e3bb
e3ba
2539
2be1
a352
f204
f8f3
d65c
a23b
935a
93f6
b400
e7fb
b67b
b652
abda
ab95
ab02
abb7
7d53
d314
d312
1c58
8eac
8e09
ec69
ec46
9fcb
9f13
9900
cf23
9e98
9ee3
c85a
8b4b
8b1a
8bef
bd79
eb3f
eb16
dd6b
dd08
d5bd
d248
d23f
94f1
9527
e55c
cd97
ca91
cac0
c2d2
c5fc
f02d
4069
40ff
404d
e0fc
d0e5
c05b
5014
3037
7005
7003
950d
c010
80a7
00cc
005c
00d5
009f
014d
01dc
01c3
089d
0a16
0314
107c
024c
0221
02f9
02ce
02f7
023a
02c2
3281
3265
326d
324f
32e6
32c0
3293
73b6
73dd
738a
2320
2347
23d6
de63
50dd
6fc9
6ffb
6f7e
0561
0555
aaff
aafe
ff73
ff62
ff47
ff39
ff3f
ffc3
ff0b
7cff
7ce8
7c1d
6964
69a5
cc45
ed63
edbf
eddf
628f
6206
4f00
4f7f
55b7
04ff
04e3
0418
040e
4a62
3301
33c9
3322
3346
3739
37e8
3706
79a5
767e
76ef
118f
1189
11ee
3126
4e6c
4e4f
4e2c
4e46
2aad
2234
2266
a548
a5e9
5b31
5b2c
5b90
5b09
5ba9
5b07
81fb
81c5
6e97
90e3
7bab
6469
647c
64b4
512a
513b
632d
52c8
3457
2838
5ea0
5e8d
5e17
fee1
fe7f
2dff
2d43
2daf
2de4
2d3b
9786
5d31
5db6
5ddd
5da1
5dc8
5dd2
65b2
65ae
e848
fdff
fd32
fdf2
fd2f
fd71
fdce
2460
24a6
248b
9100
1ebc
1e05
1d01
1de8
0c96
0cd3
41a2
137a
1319
14b5
d997
d946
4303
4344
6dcc
6d6d
6d5c
6d66
6d78
6d0e
7500
7585
6a19
ace8
acdd
acc2
5a6e
5ada
5a1c
2669
264f
26b0
3531
07f3
b210
b2f1
1fff
1fc5
4762
47ff
4733
4794
0676
063f
f52a
f56c
4d28
f492
3f6f
3f98
3f8f
3f24
3f8d
0b00
0b77
0bf8
6603
66d6
7f6e
7f65
7f44
7f7f
126e
1294
1204
9645
9624
96a7
e6dd
0f1f
0dac
443b
f3bb
e965
e9f4
e9ec
e925
fc32
fc2a
fcec
fc26
fc9c
fcab
3e62
3e34
2c15
d84a
d808
7200
724a
85ca
42ff
4240
49ff
491e
ad7c
add3
8f17
8fa3
7400
7432
7498
7472
9267
92d7
922f
7e00
7e33
7eee
d1cc
5968
594f
59cb
a8f5
4586
4525
3ade
5869
5853
5848
58fa
58a1
58f1
5f7b
5f4c
f9a6
f992
f96d
8399
bfff
2e36
b3b9
e1fd
e15a
e189
e1ad
e111
c128
c125
c114
c123
675b
676c
3d10
3df2
3dce
5ce7
b95d
9bac
87b6
8783
eafd
ea39
ea05
fad7
fae7
7a45
7a46
7ae4
2fb6
2f72
206e
20be
19e1
46ed
c942
25ed
256e
2be3
a3d6
6c8b
3c68
f202
f841
f8d6
d66f
a269
a228
936e
9357
b46d
b4b0
787a
78e5
7d66
7dc5
7d94
d31b
d318
1c34
1c63
a050
a0ff
8e80
8e08
db46
713d
9fff
e24d
e205
e485
e418
b181
b1f3
9e99
bae0
c8be
8b1b
bd84
eede
ee61
9ab3
9a8a
7072
70db
70e3
cb9f
a99e
a9c0
d5d5
d51a
d51d
ef50
ef7e
d2bf
c3e8
c75d
e5b5
dc28
c209
60ed
c55a
3022
4050
40ed
40be
b04e
b07e
e05c
d042
0217
4002
e507
4011
401b
901c
9030
00bb
004a
0091
00a6
0092
00da
0099
00db
00be
00f7
00d3
00a7
0191
0165
0148
01d5
019e
01ca
08ff
0821
0863
0a28
0af8
0373
0377
0363
1037
02cc
0233
029a
02ad
02a2
1700
325f
1863
7357
234e
2310
232c
23db
de35
de66
2133
5050
50e9
6121
6147
6131
61e2
61c5
6f6d
6fe7
05cc
054c
0535
0556
05f6
05bc
aa6d
aa10
1a4d
1a9f
1a08
ff01
ff69
ff6c
ffbf
ff71
ff0f
6909
cc75
620a
6267
6240
4fdf
55ea
5517
4ae6
4a83
4acf
a752
0108
3370
3336
33dd
37ff
3776
370e
79bd
7677
1180
387f
3195
31bf
31b8
4e32
4e35
4e72
4e04
2a79
2a8d
2a17
2273
2220
2236
2289
a592
5b83
5b02
8103
81dd
819e
81d9
6e29
9045
9068
9071
7b00
7bf1
39a4
646f
6452
641f
6472
645a
640c
5156
51ac
63a5
63cb
5210
52e4
52cd
52d3
3448
347e
3634
2801
2844
a464
a668
a605
09cc
099d
097f
09c5
090d
5ee9
fee8
fec2
2d6a
2d46
2def
2d16
2d0e
9743
978b
9787
9794
5d21
5d95
5da8
5dee
656f
656e
65f2
655a
e8ff
e81b
e80c
fd61
fde8
fdaf
fd82
fdb8
fd1b
1dff
1dc9
1d04
0cfe
0cb3
41fa
4112
292e
29e2
13a8
13f8
1314
14ea
14b4
d945
436a
4319
6d6f
6d91
6d6e
6d7f
6df2
6da8
6dd7
6d6b
4b1f
4b83
4b6b
4bc6
a1f3
a167
a1e4
a10e
7529
75dd
75a7
6aa1
ac8e
ac56
ac93
ac88
778c
5a6f
5aa6
0741
0742
1fcd
1f0e
4732
4736
47af
4726
4727
47b3
470e
0662
065d
068b
06e2
063a
0615
f56f
f541
f59f
4d5b
4d6d
4d8f
4dfa
3f4a
3f55
3f6a
3fc4
0b47
0b9a
0b0e
540b
666e
666d
6623
7f5f
1262
1266
1284
1bae
e649
1626
161a
f100
f1ed
f1e6
f1a9
8853
8897
3b64
0d52
0d0b
44ae
44bd
f3dc
e920
e99b
fcff
fc4a
fc48
fc99
fc3f
fcd9
fcc6
fc2b
3eef
3ec3
2c34
2c1f
2c2e
d899
d809
85d7
85ad
428f
423f
42a5
42dc
4256
42d9
42f8
42be
4975
49e0
adf3
ad65
adb9
adc7
ad0e
8fe0
746f
74bb
74d6
7493
748d
922a
89aa
891f
899e
891e
89d4
5749
7ecc
7ee6
d168
59e9
59e0
fb95
fb4b
fbdf
afdf
daa4
451a
4861
4833
4868
48f9
4808
3aa5
8208
5862
584f
5810
5874
5f38
5f29
f9db
f91c
8300
83ff
83b3
bf44
2eff
b3d8
c14a
c177
c153
c1c6
c119
6753
3db2
3de9
3d9e
3d56
5c79
5c49
0e04
8767
8758
ea5d
fafb
fa9b
fa96
fa2b
fa0b
7a4c
2f14
2fd3
2072
202e
1517
1588
1999
198d
f6d6
8626
c9da
c99d
c997
c9c1
e3b6
e3a5
e3d9
2563
2557
2b61
2be9
2ba1
2b9e
2b09
a3d7
a3c1
3c4e
3c5e
6ba1
6b85
f244
d6f5
a247
a259
a23d
931e
b411
e7eb
b663
7876
ab49
7da0
7d1b
d3af
d3dc
d38b
1c3c
1ca9
d451
8e53
8e0d
db22
db3c
ec87
ec3a
d796
e287
ce12
e4bb
e46c
e43a
b162
b1db
b1e0
b113
8400
84e1
dff8
9e00
9ee0
baa6
bad2
ba1b
bdd9
eefc
ee7e
c6c6
9aba
9a71
70ce
cb71
cb1d
a900
a98e
d53c
aefe
ef5a
bced
d28f
b8df
9470
9438
9427
9412
8a50
8ced
8cfd
e5ff
cdff
cd9e
cd8b
cd84
b731
9c00
9c02
9c19
caa6
cad3
c219
606f
60fd
60bf
60f0
6025
f07a
f0ec
f07d
40f3
e090
d053
d0f9
d08b
0027
0a0b
021a
0216
0a7c
032e
c00b
7004
5504
5502
c50d
5032
20a6
60ad
00f9
0093
00b8
00a3
00ca
015b
0145
0137
01e1
01ba
01f7
08ed
0845
0858
089e
0809
0a2a
0a9d
0aba
03ff
03cc
0367
0382
03cd
03d2
0316
0311
10ed
10bb
1032
1034
1039
1079
0255
02a6
0295
02e5
022f
0223
02eb
171c
325b
32e5
3294
1831
189a
7374
733b
2395
de55
2170
211a
506f
5044
50dc
beff
befc
6146
61bc
051e
05ca
aa2f
ff3b
ff2d
ff12
ff0c
7ced
6943
cc93
ed68
edfc
6261
625c
623f
4fff
4ffe
4f87
4fb3
4f46
5500
550a
5562
55ff
557b
5529
5526
552d
55e7
044c
0460
044f
0443
0413
0415
4a50
4a40
4a13
4ac2
a7a5
a793
a789
a7a9
33c6
3746
79d5
76e7
11cc
114d
11c5
3851
38ea
31f3
313f
4eff
4ef9
4edb
4e5a
4ec4
4ee7
4eac
2a2a
2ab2
2a5c
2ae1
2a1d
22c9
22f8
228a
a59f
5b16
5b0b
5b11
5b19
8101
81b6
810c
6e00
6ef5
6e78
6ee9
6eef
9064
90d8
906d
908f
9083
bb55
bb60
7bcc
7bdd
7b9e
3901
3935
6464
64d7
51ff
51dc
6303
6353
6368
6354
635f
63c6
6313
5261
52a4
52da
52b6
52cf
34fe
34c2
3632
2841
2848
2843
283d
a449
a4c8
a6a4
a6e1
a6e9
a6d4
a6c1
0960
80b8
5e4c
5e54
5e46
5ec4
fef3
fe51
fe6d
fe40
fe6b
febd
feac
2dc9
2d63
2d39
2d87
2d1e
2dce
2ddf
2dc7
97b5
97b0
5d81
5d52
5daf
5d97
5dce
5dbe
5dd4
5d09
6534
6594
e845
e871
e8ac
fdb6
fda5
fd05
fd06
4c06
2461
2445
249b
24ec
24f2
249e
248a
249c
242d
24cb
243a
24a7
9168
912c
91ee
1ef9
1d34
1d48
1d10
1d56
1d90
1dae
0c4f
0c4d
0c2e
0c40
0c49
0ca2
41de
4131
4190
4114
410b
539d
53d7
53e7
1374
1326
13c4
143f
1430
140b
d9cc
d9e5
d988
8d00
43ac
6845
6d01
6d38
6d46
6de2
6dcb
6d07
a1a4
75ff
756d
7572
7558
752b
6aec
6a7e
ac03
acff
ac7f
ac9e
77e2
7714
5a01
5a81
5aec
5a59
5a49
5ac6
5a05
26f3
262c
2623
3535
352f
35d9
07b0
0706
b2bc
b2d4
b204
1f03
1f65
1fa0
1f27
1fc0
1fc6
4798
4728
476d
47dd
478a
47d0
47d3
061f
f568
f5af
4d02
4dc6
f422
f43f
f471
f43a
3f91
3ffb
3ffa
3fd4
0b76
0be4
54fd
544d
5414
6632
66ec
7f4a
7fe6
9d9f
1200
122a
124d
12d0
9693
1b2a
1bc8
e601
e6e5
1691
162c
f103
f1f5
f1b6
f1be
3b4c
0f18
0d91
0d59
0d87
4462
44c0
f3d1
f3c0
f317
e992
e943
e9ea
e90d
fc1a
3e6f
3e74
2c37
2cad
d8de
7273
72b9
72ea
7296
7284
85e3
420a
425b
4270
4286
4978
ad00
adff
ad98
add8
ad06
8f00
8fcb
7417
9276
92d8
9219
896c
89e9
899c
89d3
570a
577f
57ad
57ae
7ef9
7edb
7e1b
d1fe
59ed
5973
59dc
59e4
a8ac
fb61
fb85
affb
dafe
da1b
4569
45d0
484a
4878
3a73
3a3f
8247
8284
82f7
5873
5843
58e1
bf76
bfb9
bff4
2e67
2ece
b369
b360
b3a4
b395
b3f0
b39c
e125
e13c
c132
c190
c12d
c115
c42e
6752
6758
670c
3d6e
3d65
3d68
3d6d
3dd6
3d75
3dec
3d4b
5c38
5cda
b93d
b97d
b9d2
875b
87c9
8763
875c
fa5b
7aff
7aae
7a42
2f93
2028
20e7
1591
157c
1528
1583
15e2
15c1
1905
f672
f6c4
8650
86a5
8685
4664
465d
e312
2547
25e5
258b
2b76
2b91
2b48
2be7
a3e6
a3f7
6ca6
6c65
3cfd
3c78
3ca8
3c40
3cb1
6b00
6b75
5665
5625
560e
5604
f801
f84a
f8f7
f81b
d6b2
a2d4
9381
9359
b46a
b4c9
b439
b454
b444
e7db
b6ef
7800
7878
78bc
abf9
7dd1
7ddf
7dc7
7d0b
7d19
d329
d34d
d3ae
d309
1c24
a0e6
a07a
a0e2
a0c1
a0c3
d400
d4fd
d431
d486
8e78
8eb4
dbe8
db44
db49
eced
ec32
ecf3
eca6
eccf
ec3b
7196
719e
9f00
99fe
9999
999e
e202
ce10
ce0e
e434
e4e4
cf30
b1bb
9e4e
9e38
c8da
bd97
eec7
c600
c69f
9af5
9a4f
708f
70d1
cbff
cb5d
cb1e
cb17
cb13
cb15
cb18
eb81
eb06
a96b
ddd8
d5fe
aeff
ae04
ef7f
efef
d264
c386
b8c7
b812
94f0
9446
8a16
8cf4
95f5
95c9
c786
e5a6
e56d
e522
cdd8
b7f3
b728
b73f
b72e
caf8
c263
60d5
6072
6026
c545
30b4
302b
f0df
4065
406c
4079
409f
40d2
b065
b05a
e0bd
d07b
d0eb
c0db
e000
8015
300d
c001
600b
7007
6508
a50f
4012
f034
20a9
90ab
00ea
00c5
0198
01d8
01bf
0157
014b
01d7
01c6
01a3
0a43
0a44
0334
037f
0378
033d
03c1
0313
03c3
033e
1062
1045
1020
10d5
103b
0265
02bf
02af
027e
0258
02b3
02cd
02d0
17ff
17fb
17b2
17f0
178e
1759
1788
170e
320f
1860
18f9
18a8
1856
1811
73e5
7309
23f9
23c7
de9e
505b
50f0
50e0
beed
6162
61aa
6152
611a
6f2c
0570
0551
059a
0571
0542
aa46
1af4
1a4b
ff45
ff1f
ff36
ff29
ff7f
ff2e
ffa8
ff3c
ffb7
7c7a
7c22
7c78
69ff
69d7
6919
cc03
cc0d
ed6d
edf4
ed5e
ed05
6250
62ed
62ff
4f01
4f4c
4fe5
4f26
4f17
4f07
5544
552b
042c
0458
0440
0449
4aaf
4a49
4aa5
4a14
4a2d
4a3e
a7d8
a799
a7d5
a75e
a79f
a790
a70d
3347
33e1
3387
33ce
33c4
33c7
37fe
37e5
7673
7632
76bf
7630
11f2
11db
113c
11e2
3854
3824
38ce
38a2
317c
315c
3122
31a8
4e01
4e81
4e61
4e51
4e99
4e3f
4ea1
4e3d
2aed
2a69
2a95
22f9
22ec
22e9
2271
2284
2214
22f1
2212
a5f3
a529
a5ce
a5f6
5bff
5b57
5b24
8166
8113
6e2a
9021
9078
909e
90cf
bb8d
7b97
7b17
39d4
64fd
6428
642f
6414
64df
64f7
5153
5137
51b6
51e9
512f
51df
5106
6379
5203
52fe
526d
524f
52d5
52b4
52d0
34e9
34be
36aa
3660
3668
3693
36c3
283c
2856
2871
2819
a4de
a40f
a677
a659
a61a
a63b
095c
0906
8066
808f
5ea4
5e35
fefe
fefb
fe31
fe24
fe0d
fe08
2d2f
2dc6
2df1
2df7
2dd0
2dac
2dab
9737
5d5b
5dda
5d48
5d4b
5d49
5d89
5df1
5dc7
5da7
5d0e
65bf
6567
658d
65d2
e801
fd98
fddb
fdac
4cfb
4c44
9120
91bf
91af
1d00
1db5
1d2c
1de3
1df8
1d94
1dac
0c55
0ce0
0cb7
4101
414b
412d
29fb
29ce
2919
5355
5313
533e
5311
138b
13f6
133d
1488
d986
d9b0
8d95
8d63
8d31
8db3
430a
4384
438a
43ae
43ef
4313
6d63
6dd6
6d9b
6d3f
6d25
6d9f
6de0
6d94
6da9
4b01
4b48
4be8
4b87
4b94
4b09
a1d6
a1ca
75b2
7544
75a8
75fa
75ad
753d
6a00
ac9f
7773
7799
7746
5ac0
5a8b
5ab0
2661
26da
2657
2607
35fe
3534
3522
355e
07fe
07b2
07e2
07e0
07e7
070c
b269
b202
b2dc
b29c
1f68
1fb6
1f90
1fc4
4795
47db
47dc
470d
4705
0603
06e6
065c
069b
06ab
f5ff
f56b
f58a
f5f1
4dc9
4dbf
4d26
4df2
4d79
4d89
4d12
4d3e
f4a6
3f7c
3f9a
3f9c
3f94
3fc3
0b2b
5468
546d
54ec
54ad
6661
6633
66bf
6635
66fc
7fff
7fb2
7f13
9d96
1243
12b3
123a
120f
96fd
1b0a
1b6e
1b67
1bc0
1bab
1655
168d
f167
f1ba
f1f2
f113
88ff
8817
88d2
3b73
3b7a
3be0
3b14
0f92
0fb9
0f7f
0d03
0d6a
0db9
0d15
444c
444d
44f7
f3c6
e950
e978
fc20
fcfd
fcba
fc71
fccd
3ecc
3e4f
3e57
3e44
3eee
2c20
2c36
d88e
d802
724f
722d
854a
856b
42c0
4950
49aa
4979
ade0
ad7d
8f20
8fda
7473
7470
745c
7422
74ba
749a
9869
9802
9224
899b
89c8
5777
576c
7eba
d177
d143
d1d3
d11d
d11b
5969
596b
592d
a86f
a89c
fb97
fbb3
fb1b
fb19
af8e
afa1
af8a
dab8
45cc
48a6
484b
48f8
48d3
3aff
3ae0
3af6
8228
8231
8278
8258
82dc
58fb
581a
58ae
f9e6
f9fc
f90e
8328
833b
bf63
bf5a
bff8
bfc5
bf12
2e70
2e1f
2ed1
b384
b3d3
e191
e1d3
c161
c1bf
c4b9
c482
6703
67ed
6755
6760
6728
675e
6725
6759
673b
672d
3d48
3d08
5cfe
5c5e
5ce3
5ccf
0ee1
0e08
9b98
8766
8786
878e
87d7
878a
872b
871d
eaf5
ea7f
ea8e
ea7e
fa4e
fae1
faf0
fa2d
7a53
7a3f
7a87
7ab3
7a17
7a23
2faf
2fd5
2fe9
204e
2095
20d6
2075
20f4
20ec
209e
202f
20f1
157b
1524
153c
19e8
19ec
19e4
f608
8601
867c
86c9
46f5
46fd
46f9
46e5
4611
276e
27e4
2706
c99c
c985
c9d0
e39d
e343
e3ec
e314
e3b1
e308
254e
2565
2535
25d7
25c1
2b9a
2b90
a300
a37f
a3c4
a3ae
6c79
3c6a
3c98
3c66
6b81
6b2d
6ba7
5603
5636
56dc
56a7
f88f
f8ec
f879
d6ff
d634
d629
a2de
a261
a2e1
a223
a2f1
b448
b4ec
b4e5
b47d
b4e7
e7b5
b6e4
78c2
ab2f
7dff
7d51
7d6b
d377
d3e6
1c35
1c8f
1c09
a02f
a084
d45d
8eb9
db50
db74
db88
ecd6
ecba
ec84
ec19
d765
d717
7101
7158
71b8
9fa8
9f1a
9998
998f
992e
9927
e28e
e2a8
e432
e4cf
f700
f732
f739
f7ce
cfff
cfdf
b1ff
b1fb
b189
8462
84c8
8407
b57c
b5c9
b57f
b5b3
b5c8
9ed8
baf5
c828
8b28
8bf0
8b5e
bded
bd7c
ee7c
ee9f
ee16
eea2
9a02
70bc
7085
70c1
cb00
cb7b
cb77
cbf1
cb3e
cb11
cb1b
eb03
eb42
a9fc
dda6
dd75
ae4a
aeb2
efaa
bc6a
bcb9
bce6
bcf2
d25a
d246
c34f
c31a
c313
b86c
b8d0
94c9
947a
94ef
8a9d
8cff
8c20
8cd9
8cbc
95fc
959e
c700
c7be
e533
e560
e5d5
b700
b753
b72f
9c45
9c68
9ce8
cade
cadd
c24d
c2f0
6077
606d
6054
60dd
60bc
60bd
c595
3052
3098
308e
305a
3080
3082
f07b
f0f5
40b9
405a
40f8
d0d7
c071
c0d2
3039
2006
2002
800d
400f
4003
6002
3012
4504
2035
b50b
b502
f01f
e014
6038
f03c
20a4
20aa
70a5
e032
b0ac
00aa
00f3
00d1
00f4
00e9
00c6
00bc
00c7
008c
00a2
0161
01cc
01f3
01a4
0166
0199
0196
0140
0190
01cf
01a7
0850
082c
085e
0a6e
0a54
0af0
0a82
0a13
0a3a
03bb
0345
03c9
03b2
0344
03d5
033c
0389
03f1
104d
103a
025b
022a
02ec
022d
02b0
020c
17dd
17b3
17e4
3272
1893
188b
1814
18d0
183a
73ff
73e4
23c6
23cb
def8
2145
212c
21d7
21c5
21c7
2142
5091
5068
5041
505a
5056
befe
be21
be5d
bee5
617b
6191
61a3
613e
61b7
6f00
6f53
6f99
0503
0565
05b5
055c
056b
0582
aa01
aa55
1a86
1a25
1a12
ff4c
ff95
ff51
ff2c
ff5e
ff7e
fff2
ff56
ffbc
ffc7
ff7d
ff30
ff05
7c81
7c7c
7cf5
7cfa
7cad
cc7a
cc89
cc0c
ed00
ed6e
edb9
ed57
ed56
ede0
6265
62fb
6222
4f32
4ff4
4f2f
5503
556d
5554
55c0
5590
0470
04da
04e8
0435
049a
0402
0446
04c5
4a01
4a32
4a82
4a11
4a1b
4a05
a7a6
a72f
010b
33de
3324
331a
33cb
3753
3734
379d
3736
3710
795b
794c
7960
79b5
79bf
76f3
76d1
1181
118a
386f
3873
3868
3837
3830
31e9
3183
31b3
313b
313a
4e98
4eb5
4e5c
4e8f
4e26
4e02
4ece
4e09
4e08
2aea
22de
224e
22fe
a535
a5d9
5bd8
5bdc
5b5a
5bb1
8145
814c
8136
8131
8199
81d5
6eec
6e93
6e09
908e
bb54
bbd7
7bde
7be9
7bfa
7b23
7bd4
7b88
390a
3936
3971
39b8
647b
6438
6441
64e8
647a
6410
6486
64a3
6408
51dd
5125
51f8
6369
6332
63b9
6343
6358
6302
63d7
6390
63f7
630b
6311
5250
526f
5219
520c
34cc
3421
3435
34f8
36ff
3664
36af
36a8
283f
a403
a4ed
a4dd
a4c5
a47d
a655
a6cc
0900
0969
0992
0968
09b9
095d
0958
0927
093b
806d
80dd
5ed6
5e8b
fe91
fee6
fe29
fe2c
fef4
fed5
fee5
fe02
fe9f
fe8a
feca
2d34
2d28
2d37
2de5
2dcb
2d15
97f5
97f2
9780
971d
9711
5d53
5dd8
5d9b
5d35
5d74
5d96
5d84
5d04
65c9
6563
6551
654f
65d5
6578
65a8
65b4
653d
e853
e84d
e8d1
e8a8
e87d
fdde
fd10
fd2c
fd75
fd49
4c0a
4c55
4c20
4ca1
248c
91de
9187
913a
1e76
1ea6
1e34
1e89
1dcc
1d8e
1dfa
1dc0
1dc7
0c34
0c8a
0c1c
4168
4110
41e9
41c0
4189
41c7
29fe
297f
29b6
5302
5306
13de
13f0
13ec
133c
1384
132b
1312
1307
1498
1429
14a1
d9f5
d98f
d994
8dfe
8d56
8d3d
4395
43b6
4326
6870
68ef
6d4a
6d20
6d95
6d2c
6d3c
6d93
6d8b
6dcf
6dc5
6ddf
4bd8
4b58
4b40
4b90
4bd9
4b17
4b12
4b18
a100
a1ff
a19a
7532
7514
753b
7513
7518
6aff
6a29
6abe
6aeb
ac0a
ac8b
77ff
5aff
5a36
5a99
5a83
5af8
5aae
5a15
5aa9
26e9
35b5
3566
3575
3587
35be
07de
076a
077d
b2ff
b275
1f6e
1fb5
1f78
1fa9
4752
47fd
47da
475d
4754
4737
4702
47c0
4784
47cf
47f7
47ac
471c
064a
0680
06be
06c1
f569
f54a
f5a6
f563
f5d9
f513
4d67
4dc0
4dbc
4d1d
4d09
4d11
4d1b
4d0c
f43c
f49f
f41e
3ffe
3fe6
3f2c
3f5f
3fe7
0b7e
5432
5421
54d6
548b
540e
66ff
6699
669f
66c2
66a2
7f8f
7f25
7fc0
7f2d
7fef
7f07
9d00
9ded
9d2a
9d56
9db0
120a
1233
1299
129a
960a
9692
9648
962f
96c8
1b39
1be1
1bc4
1b23
e6ff
e620
e6c9
e667
e666
e697
e62b
e6e7
e6ef
16d6
1640
f19d
f1bf
f1e9
f1eb
8841
88b6
8871
881a
88b1
3b1e
3bcb
0f94
0fc7
0d28
0dd6
0d66
0d99
0d2e
0d83
0dd4
0dc2
44be
f34c
e92a
e9b6
e91e
e9e0
e9c6
e9d2
fced
fc64
fc7f
fc83
fc89
3e70
3e39
3ebf
3e97
2c50
2c45
2c4c
2c60
2c99
d875
d804
726a
7241
72ac
85cc
8513
8518
4228
4237
4299
42e9
4209
49b2
49c3
ad03
ada8
8f4a
8f5f
8fc4
8f08
748f
74f6
74bc
74ca
987e
98e3
98cf
98f6
92e8
92df
8952
8945
8918
57fb
578f
57e9
5789
7ead
7eef
d1fd
d1da
d15c
d19b
d110
5900
599b
5978
59ce
a869
a8fb
a871
a812
fb34
fbe5
af7f
dafb
da4f
da35
dab6
da58
da8b
dac4
4550
4538
45d8
45ea
459a
45f8
487f
3a5b
3a53
3a47
3a0e
82bf
8299
8240
82e3
8293
5852
58b9
5883
5856
58df
58c7
5f48
5f99
5f49
5fae
5fcb
f9f0
f9d1
f983
f9bd
f9a3
f90f
8347
8349
83ca
bf4d
2e6f
2e87
2e5f
2eae
2ed3
b300
b301
b3fb
b32d
e103
e128
e1b5
e178
e180
e1d9
e1e0
e182
e1a3
e13e
e105
c122
c1f8
c185
c45b
c494
c4e7
6772
675a
67cf
6719
3d50
3d92
3dbf
3de8
3d26
3dc8
3d3e
3d1d
3d15
3dc2
5c86
5c3c
5c13
5cb7
0e86
0e5f
b9ee
b91b
9b76
9b52
9b68
9be5
9b14
9b23
8762
8765
8728
875e
8726
875a
87d9
87ce
870b
ea48
eaa5
ea1a
ea46
ea17
eadf
ea0c
faed
fa6e
faaf
fa58
fafa
fa8b
faf1
faab
7a4e
7a19
7a0c
2f69
2f70
2f63
2f8d
2f08
205b
2065
20b9
20bf
205f
20c4
1592
1535
1515
19cc
1945
1998
19af
19b6
f67b
8600
86fe
86e1
86db
8656
868a
86e7
86f7
4652
46a6
46c0
4617
4614
46ac
2732
2747
276d
27e1
27a5
c901
c94a
c94b
e3ff
e320
e347
e375
e3cf
e3f1
e38c
2591
253f
2517
25ae
2518
2b0a
2b6d
2b9b
2b6b
a373
a361
a338
a337
a33f
6c5d
6cf9
6caf
6c2f
6cdc
6c09
3c4f
3c43
6b52
6bcc
6b8f
6b97
6b40
6bc8
6ba9
5628
564b
569c
f203
f2ff
f263
f28f
f287
f2eb
f886
f8f6
d60a
d687
d62b
d616
a2fb
a24d
a29a
a271
a2c7
a2e7
a208
931f
939b
9354
9371
b44a
b46e
b477
b4dc
b4c8
b4f7
b412
b4ca
e7fe
e7ba
e7d7
e719
b6b9
b66d
78a0
78d4
abdd
ab9f
7d61
7dfe
7d4c
7de5
7d40
7df8
7dc6
7dcb
d379
d317
d3c7
d319
1c40
1c25
1ca5
a0e1
a0f8
d4f5
d49b
d414
8eff
8e28
8eb2
8e37
8e8b
8ef1
db4f
dbdc
db17
ec67
ec22
d7f5
d7fd
d7bc
d7a2
d70f
7179
71ad
71a3
710f
710e
9f35
9f9a
9f90
9f18
99ff
997f
99a8
9987
99f7
e2a0
e27a
e2f0
e2e9
e284
ce34
cebf
ce8e
e4da
e42e
e446
e42b
f7ff
f737
f7b4
f705
cf69
b1e8
b1d5
b188
b10d
8450
84b5
8418
df20
b563
b59b
b59c
9ede
9e91
9ee6
9e24
baaa
c84a
c845
c8b2
c89f
8b00
8bec
8b26
bd37
bdd1
bddd
bdc6
ee69
ee02
c6ed
c6c5
9ab9
9a2e
9a12
7068
702e
7082
70ca
cb87
a97e
a993
a906
ddf2
dd2f
d5e1
ae14
aeac
ae1b
ef32
ef77
ef44
ef5f
ef85
bcff
bc3f
d200
d2fb
d2b2
c380
9476
8a64
8a8f
8c54
8cd1
8c24
c7fd
c7a9
e528
e5f8
e53b
dcd7
dc71
dc80
dc3a
cd02
cd1a
cd14
cdd0
cd04
b72c
b7e9
b73b
9ced
9c99
9c26
9c83
9ce2
ca81
ca6e
ca9d
ca88
c210
c2ce
6076
609f
6087
c54d
304e
3040
3094
f07c
40da
407a
4029
408b
b0ca
e055
e0fb
e0f4
e088
e0ee
d04a
d05b
d0da
c074
c0b4
c02f
e00f
021c
2001
0321
300c
b00d
7001
7008
180b
3010
3019
2038
203c
f502
7502
a50d
4013
603c
40ac
d0a5
0098
00b3
0094
00bd
00d2
01b2
0175
018e
019a
0187
0185
01c1
01d0
0801
08de
08a6
08da
088d
0880
088c
0811
0818
0aaf
0a96
0ab4
0a25
0ac0
0ab3
0a23
03de
036e
0333
03a0
0374
0393
0384
0317
038c
03a2
102e
02fe
02fd
02d1
028e
0202
0246
02f8
02c5
02ef
02d2
02ee
020b
1789
32c2
3206
18bb
1839
1810
18fc
1874
1840
1885
73af
73df
7318
2333
23ba
23b3
2385
2307
defb
ded1
dea3
21ed
2173
214e
21d6
2196
21fa
21db
21c8
2119
50b9
50c8
5090
50e4
be62
bef2
6181
6165
6135
61fc
61a8
6125
613b
6106
6f67
6fbe
0553
0554
052e
aa6a
1af5
1ab3
1a18
ff50
ffbb
ff61
ff55
ffa4
ff20
ff43
ff37
ff66
ffe5
ff4b
ff25
ff5a
ffae
fff7
ff3a
7c69
7c34
7c47
7c4f
7c19
6962
69a4
6968
69d1
6975
6917
69c6
690d
cc33
cc44
cc9a
ccbe
ed47
edd6
ed72
edc6
edbc
ed13
ed16
622a
6233
62d8
6231
4f33
4f14
4f42
4f05
556f
5584
55ef
5530
0401
0428
0463
0451
04b2
0467
0497
04db
046b
041a
0484
0490
04c6
042b
04d2
0442
4aa4
4a20
4a9d
4a3f
4a26
4ac8
4a90
4ae4
4aa9
4a1c
a776
a770
a74d
a725
a7ad
0107
3360
33a8
3379
3390
3314
33ab
374b
37ad
797b
79dc
79ef
79c3
79a7
7600
7681
7638
764f
7667
76f0
7622
7646
7612
761c
116b
119f
118c
113e
3821
3871
3817
383b
3888
38b7
38a7
3103
3145
3146
318a
3111
3107
4eed
4ee8
4e7a
4efc
4e25
4e2b
4ea9
2a53
2a51
2ac6
2abd
2ad0
2a11
2203
22ed
2298
224d
22c3
a5d8
a5fb
a554
a5c8
a5be
a5c7
5b03
5b52
5bba
5b40
8192
8168
816b
81e0
8108
8106
6eed
6e65
6eb9
6e4f
6e44
6ecb
6eeb
6ed2
6e3a
6eab
9076
90d0
bb01
bb47
bb48
bb6d
bbf0
bb58
bb59
bb49
bb9e
bb5f
bbad
bb23
bb85
bb1d
7b03
7b4e
7b98
7b8e
7b79
7b06
39d6
3943
39bc
64cc
6492
6495
6443
64f9
6425
6417
64ac
6419
5161
5138
51fc
51ba
519e
5184
51be
5123
51cb
6361
63cc
636a
6320
6348
632c
63f2
63fa
638d
6387
6323
63ee
6309
63c2
52b2
5248
5240
52d9
52f6
523d
52df
52ca
5211
3464
342e
34a8
366c
3629
36dc
2803
28ff
2861
289d
289b
282c
28c8
28cf
28f1
a47c
a468
a4c9
a46d
a47f
a4fc
a4ad
a4c1
a4d0
a681
a64c
a647
a667
a65e
a60e
a60c
0901
0955
0991
0933
0965
099f
098b
0905
80b5
8048
808e
8093
808b
80ce
80f6
5e6b
feed
fe4e
fe70
fe6c
fe48
fe54
fe99
fec8
fe16
feb0
2d0a
2dcc
2d77
2dd8
2db5
2d75
2df2
2d49
2dbc
2dc2
970a
977c
97cc
9748
978d
978a
97d0
5d61
5d4d
5dfc
5d8d
5dca
6522
655e
65db
65d9
65c6
6542
65a2
e8e8
e857
e87f
e886
e872
e816
fd6e
fdf3
fd02
fdb0
fd15
fd07
4c81
4c4c
4cb2
4c7e
4c6b
2462
2455
24b4
24c4
24ad
9132
91cd
1e03
1e7c
1e65
1ee8
1ed7
1ee3
1e80
1ea7
1d65
1d1f
1da0
1d67
1dea
1dc8
1dee
1d3a
1dab
0caa
0ccd
41bf
412c
4174
411d
4142
29e1
29dc
293b
2916
2904
53ff
53ba
5325
53df
5330
53a7
136e
132a
1348
1324
13c7
130c
1457
1422
14d5
1425
143c
141a
1416
d92e
d91d
8df0
8d07
43ff
4392
43c9
434d
43c4
4382
43b1
430f
430d
6810
6899
68f0
68e3
6806
6d62
6d4e
6d47
6dfb
6db2
6d48
6d7a
6d0b
4ba4
4b39
4b59
4be2
4bc3
a17b
a168
a134
a146
75bb
75da
759b
7535
7589
751b
6a40
6a94
6ac1
6a09
6a0f
ac47
acb2
ac5e
ac84
acc5
770a
7761
7765
772e
77e4
7718
7705
5ab9
5a31
5aaf
5a02
26db
26e4
2688
2608
357c
3548
35ec
353f
35f2
3517
35c6
35cb
0703
0759
07f6
b2de
b291
b244
b256
1fcc
1f67
1f59
1f9f
1fcb
1f09
1f0d
4781
47d8
4731
47ea
4772
4724
47e4
47be
47ae
066c
0648
068f
0679
0625
0608
f501
f50a
f570
f596
f5a8
f517
f5c6
4d7c
4d53
4d35
4d75
4d9a
4df6
4d9c
4d3b
f4de
f44a
f45d
f44d
f47e
f4a1
f4f6
f4ef
3fde
3f73
3f5d
3f4d
3fe5
3fdc
3f93
3f84
3ff8
3fb1
3fd3
0bbb
0bfe
0b21
0b34
0b75
0b86
0b3f
0be5
0b9e
0b1e
0bc6
0b3a
5451
54b7
5404
6677
6653
6638
66fd
6641
664f
6697
665e
6685
661b
7f5c
7fcf
9d63
9d89
9dc3
9d3a
1225
1293
12b8
966f
9638
969e
966b
9619
1b61
1b33
1b28
1b7f
1ba5
1b93
1b3b
e66f
e645
e628
e63f
e67e
e6f2
e624
e693
e6b3
e6ad
1601
1681
167c
1602
f17f
f1cb
88bd
88b8
881c
3b70
3b2b
3bd4
3b0f
0f20
0f9d
0f9b
0f02
0fdb
0f16
0f3a
0df3
0d57
0d25
0d1e
0dc8
0dcf
0d94
0db8
0d19
0d04
4453
44d8
4495
4480
f300
f3ed
f3fe
f347
f310
f3f9
f3fc
e96e
e964
e966
e9d1
e946
e9f6
e930
fcbb
fc5b
fc7c
fc70
fcfe
fcb2
fc2f
fc27
fcbe
fc85
fcc7
fc3a
fc09
3e55
3e2a
3e60
3ef9
3e66
3e4b
3eb3
3e2d
3e08
2cd6
2c43
d8ed
d8e9
d81a
d8f8
d87d
d805
d80c
7240
729a
8550
85b5
8567
85b6
85ce
85cf
8530
851d
42ed
42fe
4233
42e1
42b6
4279
4282
42ae
42d4
42b0
492a
4974
4997
ad92
ad6c
ad7a
ad9a
add9
ad8a
adb1
8ff0
8fab
7401
74a6
74bf
7457
742b
7419
9898
9883
98b4
9887
98be
9806
92bb
92fe
9280
9294
92f7
896a
8917
890b
5767
5783
5727
7e77
7e95
7e86
7ee9
d152
d1d8
d131
d1a5
d188
59c9
595d
5979
592b
590d
a87c
fb4c
fb60
fb6c
fb57
fbd5
fbe9
fb93
af91
da01
da60
dafd
da2e
dac5
4539
457d
45ef
4875
4822
4826
4846
483e
3a32
3a70
3a63
3a5e
3a9a
3a90
3ace
3af1
820a
820c
8206
5898
58d5
584b
58c3
58c2
5f10
5ff1
f9cc
f9fe
f922
f916
f904
83da
8397
83ba
8324
83e3
83df
bf62
bf6d
bf9b
bfd5
bff6
2e33
2e98
2e99
b353
b3d6
b3e1
b33f
b30d
e10a
e141
e15d
e12c
e149
e18a
e113
c15b
c1fd
c134
c1e1
c15a
c189
c113
c433
c460
c492
c4e8
c474
c426
c4db
67b5
674f
6754
6767
6729
67f9
67bd
678c
67b0
3ded
3d98
3dc9
3d37
3d4d
3d3f
3de2
5caa
5c52
5c53
5c34
5c02
5c9c
5cef
5ceb
0ee5
0e24
0e14
b96e
b947
b96c
b9bf
b94d
9b62
9ba5
9bc0
9bd9
9b2b
8760
87a8
87eb
eac9
ea47
ea29
ea2c
ea26
eacd
faff
fa4c
fa51
fadc
fa8a
fad0
faa3
7a63
7a4d
7a26
7a1e
7ad9
7a0b
2f62
2f64
2fea
2f26
2f02
2fa7
2fc2
2069
2068
207e
20f7
20d0
15fe
1582
15df
197b
194a
19da
195e
19ba
19f2
1909
f699
f62e
f606
8670
864d
8672
86cb
86c2
4675
46ef
46b7
4606
27fd
2734
27e8
2710
27af
c91a
c9e2
c9d9
c9bd
c92b
e381
e341
e3fb
e3b5
e3ea
e3f9
e3d0
e3ac
25aa
2520
25fb
258f
25a8
25dc
2546
25c7
2b4a
2b5b
2bfe
2b79
2be2
2b8c
a36f
a347
a3ce
a3c5
a3ee
a309
a311
a318
a306
6c63
6c67
6c17
3c6b
3cae
3cab
6b01
6bf3
6b98
6b6d
6b83
6b7d
6b8c
5676
5698
5646
f273
f281
f248
f25c
f2f4
f22e
f27d
f2b8
f213
f21d
f8de
f8fd
f8e8
f8d1
f883
f8b4
f804
d664
d6c3
a22a
a227
a2f6
9355
9348
938b
930d
b465
b441
b4d1
b46b
b494
e77e
e73e
b6c6
b6c4
7891
782a
78f5
783f
7885
abff
ab61
ab5b
ab6a
ab9b
ab57
ab66
7d60
7d21
7d29
7dbc
7dcd
7d09
7da2
d3fb
d3bf
d37f
d31d
1cbf
1cb4
1c2b
a04a
a054
a04d
a0f0
a0b8
a0cb
d481
d4e2
d490
8e20
8e89
8ec5
8ef7
dbe0
dba9
db04
ec2a
ec28
eca8
ec6b
ece2
ec8a
d792
d7e9
d726
d7fa
d79a
d7dc
d75a
d7c5
d785
71d5
71fa
711c
7106
9f7a
9f8d
9f30
9fee
9f15
991f
9937
9910
9997
99c2
e281
e2fd
e286
e23f
e278
ce32
ce92
e420
e49e
e4c7
e415
e408
f703
f7e6
f79b
f7d4
cfde
cf6f
cf63
cf3f
cf7e
cf79
cf8a
b160
b1e1
b1d1
b1bd
842a
84a0
844f
8435
84f0
84f2
8402
843c
84ae
843a
df77
dfea
df22
df08
b5ed
b5fe
b5b4
b517
9e6d
9e9b
9ee8
9ef9
9e66
9ee5
9e88
9eb8
ba69
ba75
ba7e
bafa
ba87
bac8
c801
c8a6
c847
c8f9
c8f2
c8b4
c8f7
c809
8b68
8b96
8b84
8b16
bd00
bd70
bdd8
bdd6
bdc1
bda2
ee29
ee4d
ee83
eeb4
c6fb
c674
c6d7
9a36
9a31
9aec
9ad9
9acf
9a23
9aa2
706f
7024
70f1
70eb
cb76
cb32
cb75
cb27
cb12
cbb0
cb1c
eb4a
eb1f
eb5d
ebfa
eb9e
ebc6
eb05
a938
a923
a9f1
a919
ddbb
dd57
dd90
dd89
d5de
d5ff
d551
d515
ae50
ef01
ef55
ef53
ef60
ef48
ef1a
efb1
bc4c
bcc9
bc74
bcd5
bc24
bcdb
bc17
bcf6
d253
d2d8
d272
c3ea
c35f
c390
c309
b896
b880
94a4
94ad
8a01
8afc
8a2e
8a9f
8c21
8c5c
8cdd
8c02
8cb3
c7ff
c777
c760
c729
c7dc
c788
e5bb
e5f0
e575
e52f
dc9d
dc75
dc26
dca1
dc1a
cd7f
cd72
cd8a
cd19
b7ff
b72a
b763
9c76
9c47
9c63
9cf0
9c58
9c15
9c1b
9c0e
ca0a
ca87
cacd
c233
c284
60ff
6065
60e6
605c
607f
60dc
60ce
c524
c571
c546
c5d4
3057
304d
3078
304b
30c0
305f
f076
f048
f075
4028
4051
4086
40dd
405f
b0c0
b0cb
e091
e0b5
e0d1
e0dc
e0e0
d043
d0b4
c053
c07f
c0d4
1006
1005
030f
5017
e009
0a06
0a02
9003
8007
3005
9506
4509
2037
2036
650f
7507
8509
c50c
a013
401c
6017
d01b
e012
9038
903f
e036
e03c
80a5
d035
c0a8
30a7
0055
00dd
00b4
00a9
016a
01fe
01b9
0151
01d6
0143
019b
0197
015e
01fa
016b
015f
0146
01e2
01ac
08bb
0881
084a
08b2
08e8
087f
088f
088e
081a
081e
08e0
08ef
08ac
0a68
0a64
0a4f
0a67
0a86
0aa5
0361
0368
03da
0341
037a
037e
03cf
03b0
0319
10e8
107a
10f0
1075
104b
102f
1056
101e
10c8
10e0
10bd
10d0
027b
0263
0237
0235
024d
02d7
02e3
028d
028b
02c4
02c7
0230
023e
020e
17ed
1791
1721
171f
17f9
172c
173f
1725
176b
172b
1719
1705
32a9
18a4
185c
188f
18ec
1878
18e5
18b4
1879
18a7
7300
7368
734f
73f8
7394
73c1
230a
2365
23b5
23ec
23c8
23bc
2306
debb
de6c
de36
de67
de97
de9c
deae
2191
2139
2124
2149
506c
5054
507a
50fc
5058
50c0
be03
be81
be02
beeb
beac
61ed
619d
612c
613f
6156
613d
61c1
610b
611c
6f01
6fff
6f64
6f5c
6f7f
6f1e
6fe2
6f13
6fee
6f06
0534
0563
05a0
054d
05b4
05d7
058b
aafd
aab5
aa44
aa66
aa8f
aa4b
aa8b
aa9c
1a63
1a5d
1a02
1a8d
1a23
1a3a
ff4e
ff70
ff6e
ff2a
ff21
ffc9
ff5c
ff27
ff17
ffcf
ff04
7c4a
7cd6
7c43
7c9b
7c3f
7c9e
7cdb
7c8d
7c46
7c04
6965
6941
69b5
69af
69ae
69ee
cc20
cc35
cc3e
cca7
ed58
ed3c
ed8d
edbe
edae
6255
626a
6243
6210
62af
62c6
62cd
4fbf
4f06
5550
55de
557c
55cc
5510
55e5
55cb
5513
55ab
04aa
0432
0441
0495
0457
04e1
04d1
0478
04b4
0414
04f6
04bd
04e7
04a2
040d
0407
4ad8
4a4f
4a74
4ab6
4ab4
4ab8
4a0b
4ab0
4a18
a755
a76c
a77f
a72e
a7d4
3369
3361
33f5
3328
3325
33e4
3388
33a3
333a
3745
375c
378f
37d7
378b
37f6
3785
7920
7934
792c
7999
799e
79db
79ad
7620
7695
76a8
76ad
768c
761d
11f9
11e0
11ca
1115
1106
38ff
3892
3841
3872
38ba
389e
38cf
38f6
382d
3811
316a
3192
31e8
31fa
313c
31be
311c
4e70
4e33
4e4c
4e20
4e63
4ed5
4ee9
4e6b
4e56
4ec6
4e3b
4ed3
4e11
4e15
4e0f
4e07
2a81
2a7d
2a13
2aa3
2a0b
2269
2270
22f2
223c
228d
22f6
22c7
22f7
a577
a541
a5ec
a578
a517
a58a
a5ad
a52d
5b73
5baa
5b4b
5be3
5b88
5bac
8150
8155
81f9
817f
81fc
8122
81e9
81a8
81e4
8182
812d
81d0
6e73
6e7f
6e6b
6ef8
6ee0
6e9c
6ec3
9063
9051
90d4
bb62
bb53
bb4f
bbe6
bb56
bbb3
bbe2
7b4a
7ba4
3903
396f
3976
399d
394f
3967
39ce
39be
644c
64af
64a5
642d
64ef
64ca
64c2
5103
5128
516c
5149
516b
518b
51ae
5119
6398
636d
63e8
63f4
63a8
63c8
6384
63e4
63f6
63d0
63b7
6319
5262
52ae
52f1
3461
3432
3475
3402
3425
343a
364f
3671
36c4
282a
2878
28c6
287d
28d3
28a2
a40a
a4bb
a420
a475
a4e5
a4db
a4b1
a407
a665
a63c
a6b3
0945
09f3
0941
0995
092c
092e
09a1
0915
091c
8050
8070
807a
80fc
8058
8083
808a
80b1
80cd
5e0a
5e60
5e10
5ee1
5e8e
5e96
5e93
5e5f
5ec6
5ed2
5e1b
5e0d
fe52
fef5
fe47
fe63
fea0
fea1
fe93
fe1a
fed0
fe0e
2dfd
2d41
2d95
2dd6
2d10
2de1
2d4d
2d7e
2d26
2d79
2d8a
2dc5
2d2d
2d3a
2dca
2d04
9769
97fb
9729
978f
9716
978c
973e
9742
5df5
5d60
5d39
5d4f
5d57
5d67
5d83
5d2f
5d71
5dcb
5d30
5df7
5db0
5db7
5dd3
5da9
5d0c
5d06
65fe
6520
65fa
6549
658b
651e
6513
65b7
e832
e8f5
e835
e8ec
e88e
e8e5
e83b
e8be
e8a9
fd81
fd68
fd31
fd7a
fd56
fdbe
fdae
fdcd
fdd3
fd0d
4c69
4c10
4c75
4cba
4c59
242a
2448
24e8
2466
242c
24c0
24d9
2489
24c5
24c1
24ac
9101
9177
916c
9137
91a5
91c8
91ad
91bd
9188
9106
1e6f
1efd
1e51
1ef4
1e3f
1ec7
1d0a
1d55
1d5b
1d20
1d68
1d28
1db2
1d72
1d78
1d1e
1deb
1d06
0cf3
0c48
0cf4
0c25
0c24
0cdc
0c6b
0c12
0c08
4181
4161
4167
4178
41d7
4149
41bc
4188
413a
4105
4104
2953
298f
5328
53d6
5344
53e1
533b
530b
5315
1368
13c0
135a
1323
131d
1311
1461
1414
141d
d9d8
d9bf
d94f
d966
d9b3
d9d0
8dad
8dc5
8d94
8d23
8deb
437a
4390
439c
4311
6801
6850
6861
684a
68fe
685d
68b4
683d
6d64
6db5
6db6
6d7e
6d96
6dbe
6dd2
6d1c
6dab
4b91
4b5d
4b31
4bae
4b19
4b08
4b0c
a17c
a1fe
a1d8
a1d1
75fe
75a6
7547
75f2
7546
6ad5
6aa8
6ad0
ac55
aca6
acd8
ac31
ac29
ace5
acc3
7728
7766
7722
777e
77ad
5a69
5a4c
5ac9
5a63
5af4
5a97
5add
5aa8
5acf
5ac4
5a7d
5a13
2662
2634
268e
268a
2616
260b
356f
3560
3520
35d8
3557
358e
35a1
3559
35ce
357d
35a7
0700
0764
0747
077a
0735
07b8
0711
b27b
b24e
b22e
b2d2
b2f7
b20f
1f7b
1f64
1fb9
1f4f
1fa5
1f1a
1f07
4701
4750
47cc
4770
476e
478f
47f0
475f
47f8
4723
47cd
473e
471d
0601
0650
0661
0698
06fb
0654
06f2
0624
f5aa
f55b
f5bf
f54f
f566
f52c
f5d1
f5e9
f52b
4dff
4df3
4d20
4d92
4d39
4d71
4d8d
4d88
4dd0
4d08
f469
f432
f431
f42c
f474
f4fa
f449
f45a
f4e0
f423
f4c2
f40d
f407
3fa6
3f68
3fe8
3fb3
3fee
0bf3
0b9d
0b4d
0bfc
0b49
0b13
0ba3
54a0
546b
54ef
66b9
6658
66c0
7ffe
7f38
7f63
7ff0
7fb6
9da0
9df0
9d97
9dc8
9dae
9df7
9da7
1234
1228
12bf
1244
12a8
1246
12d9
12e0
1212
1242
1207
9600
9650
9695
966d
9646
96eb
96f7
1b21
1bf9
1bd1
1b8e
1be9
1b59
1b0f
e652
e6bf
e6ea
e6f4
e674
e683
e659
e680
e6cd
1695
1663
16e9
16a8
16a5
16bd
1611
1619
1605
f1f3
f1e8
f172
f12e
f149
f1ee
885c
88db
889f
8814
88ae
3b60
3ba4
3b5c
3b3d
3bee
3b11
0f00
0faf
0ff8
0f2d
0fb8
0f04
0dd8
0d5d
0d36
0df0
0d5a
0d8a
0d3b
0d23
0df1
0d3e
0da7
4403
4469
4461
4455
4491
44fe
4498
44fd
44f4
4458
4483
4402
443c
4446
4414
44c1
44ac
f34a
f3f5
f3b5
f305
e973
e94e
e991
e9bf
e9fc
e9e5
e9fa
e959
e9e3
e990
fc24
fc7d
fcac
fc0e
3e7c
3e27
3ee4
3eb1
3ea2
2cff
2c76
2c33
2c92
2c7e
2cd7
2c71
2c9c
2cc7
2c08
d855
d8a8
d825
d8c4
d8ac
d806
7201
727b
72fe
725d
72f0
723c
726b
7289
7218
8564
854f
8522
85d4
85a9
42bb
4255
42d8
4248
424f
42d6
42f9
4259
4223
4207
4969
49bb
4953
4941
49e6
49f0
498e
49a5
49f8
49d0
49ca
ad61
ad53
ad58
adcd
8f53
8f6c
8fbf
8f46
74fb
74b2
7410
74f9
74fc
74db
7446
7423
7416
7405
9881
98f5
986d
9872
984b
983c
92e6
9202
923d
9208
9204
89cc
89f5
895c
894d
892c
89d1
8956
8990
89c7
89c1
89ef
893e
89b7
8909
89a9
891b
5753
57fc
57b3
57b7
7e62
7e76
7e34
7eea
7e7f
7e22
7ed4
7e09
d15a
d1ad
d13d
d1c3
d1d0
d13e
d109
d10f
5970
59b9
5954
59e8
5927
59ca
5911
5919
5907
a839
a878
a8f2
a894
fb52
fbf3
fb21
fb47
fb72
fb49
fbe7
fb8c
fba2
af4c
af47
af8f
af40
af5a
af07
daff
da44
da1c
4543
45c8
4512
48fe
4820
4839
48e0
3a4a
3af5
3a21
3af8
3ac4
3ae7
3a3e
826d
8275
82f2
825a
82c6
8294
82ae
82d4
8204
58ff
586a
58f3
584c
586c
5826
5879
5849
581b
5ffe
5f33
5fea
5f2c
5ff4
5fbc
f9f5
f9f3
f960
f9c9
f9ec
f9dd
f9ba
f949
f9e3
f9ab
8320
8312
bf7c
bf21
bf92
bf95
bf51
bf7a
bf46
bf2d
bf08
2e6a
2e58
2eb4
2e40
2ee3
2e23
b3aa
b34e
b3e8
b3d1
b38e
b3f2
b387
b3f1
b3bd
e1ed
e139
e12e
e1f2
e179
e1cf
e1b8
c1f9
c12c
c199
c197
c12b
c130
c1d3
c481
c432
c429
c49e
c471
c49c
c408
6737
674b
6789
671d
3d7c
3db9
3d1f
3d27
3dc3
5c6a
5c1f
5cc8
5c11
0eed
0ed6
0e54
0e37
0ed5
0e84
0ecb
0ed2
0e16
b9f2
b917
b90b
9b50
9b2a
9b41
9b44
9b2c
9bb6
9b78
9bf8
8774
878b
87d0
8719
ea1f
ea5c
ead9
ead2
ea16
ea0b
eab7
fade
fa61
fad8
fa41
fa57
faea
fa78
fa87
fa1e
fa3d
fa3b
7a5c
7afa
7adb
7ac5
7a18
2f01
2f20
2ff9
2f79
2fb1
2f0e
2073
204a
2052
20e8
20ea
2097
20e5
2096
20e0
20cf
1562
15ff
15a4
1527
15c8
1590
1514
157d
153a
1963
195c
192c
19d4
193e
f637
f6ba
f6f8
f60c
866f
86ff
862a
86f2
86e3
8680
86f8
469d
460c
2750
2755
2752
2735
273b
2742
2707
c903
c961
c94e
c9b9
c996
c93a
e3e6
e396
e39e
e3c4
e385
2501
2581
25bf
2b77
2b65
2bea
2be0
2bf6
2b0d
a368
a3ec
a3e9
a3c0
a3e4
a3b8
a313
6c95
6c4f
6c2e
6ce5
6cd7
6c1e
6c84
6cc5
6c23
3ca4
3cc9
3c42
3c0f
6b2a
6b41
6b79
6b27
6b11
56bf
56e8
567e
56b3
56c8
56e2
56e4
56b0
f20a
f2b2
f23f
f297
f25e
f2e9
f296
f28b
f2d4
f209
f21c
f8ed
f881
f864
f836
f835
f8e5
f8fa
f802
f8c2
d661
d695
d64f
d6e8
d6fa
d6d7
d6e0
d6ce
a265
a2bf
a254
a244
a2f9
a27f
a274
a2d5
a2d7
a29f
a2f8
a2c6
a2ce
a205
934e
9352
93fe
93fc
935e
936b
9315
b4b9
b46c
b4e9
b424
b49f
b485
e781
e791
e796
e79a
e7df
e7e7
b64e
b6a4
b6d6
b67f
b697
b6e5
b6a8
b62f
7803
7855
7824
781d
ab69
abf5
aba6
ab47
ab37
ab71
7d03
7dbb
7dfd
7db2
7d6d
7d58
7d93
7db3
7d14
7def
7d1c
d303
d3a6
d374
d33f
d3d0
d3a9
1c92
1c48
1c2c
1c75
1c88
1ccb
1cb7
1c0c
a06f
a020
a0d6
a07f
a0d5
a0e5
d450
d4cc
d477
d44c
d464
d466
d47f
d4fc
d402
d485
d430
d416
8e59
8ef6
8eb0
db03
db73
db68
dbd9
db89
dbef
db0b
dbb0
ec5b
ecfe
ecfd
ece5
ec05
d766
d77e
d72d
d7d3
710a
717b
71fb
71bf
71ba
713c
7117
71bd
71ca
9fbb
9f20
9f1f
9ffb
9f63
9f5d
9f74
9f2f
9f93
9f82
9938
99fd
99f0
99b6
991e
e222
e2eb
e212
cede
cef4
ce02
ce3c
ce5f
ce11
e46a
e44f
e4fc
e426
e440
f750
f768
f7f0
f7f4
f797
f78a
f7e7
cf98
cfe6
cf72
cf02
cf16
b101
b1aa
b148
b126
b1e2
b194
b1df
b112
b111
84fe
8433
8498
84fb
8426
8458
849a
8487
df6a
dff3
dff0
dfe2
dfc6
df13
b501
b534
b548
b5a0
b53f
9e50
9e81
9e34
9e41
9e44
9ee1
9ef4
9e79
9ed9
ba73
bab2
ba44
baf9
ba2e
c881
c832
c843
c813
c83a
c842
8bff
8b39
8b8e
8b02
8b25
8b89
8b23
8bbd
8b2b
8ba2
8b18
bdbb
bdbf
bdec
bd86
bd15
ee6e
ee33
ee8e
ee1a
eeef
c662
c691
c6a0
c65e
c6a8
c617
9ac0
9ac1
9aee
70cc
70c9
70df
cb4e
cb33
cba4
cb74
cb9a
ebcc
ebf5
eb47
ebf6
eb3e
eb08
a968
a9a5
a9bc
a9ee
dd4a
dd91
ddd6
dd3c
dd3d
dda9
d5fd
d534
d5e8
d529
d5f8
ae5b
ae10
ae22
ae46
ae23
ae18
ef6f
efff
ef9d
ef67
ef29
ef75
ef8b
bc61
bc4a
bc33
bc36
bc66
bc87
bccf
bc89
bcd2
bc15
d281
d268
d2b6
d258
d2f2
d2c0
d2f7
d21b
d208
c392
c31f
c3fb
c399
c3ec
c358
c325
c36b
c3c1
c3ab
b8ff
b844
b897
b8e5
b859
b81c
9428
94d6
9435
8a00
8a75
8ab3
8acf
8ae7
8aa7
8ccc
8c6c
8c8b
8ce4
9501
9521
95b6
9517
9594
c745
c753
c728
c7c7
c7a3
c70d
e552
e5ec
e5ce
dc77
dc1e
dcdf
dccb
cd81
cd9d
cd86
cd78
cd80
b732
b77c
b734
b79b
b726
b74b
b72d
b7cb
9c33
9c5c
9c9e
ca4e
ca21
ca99
caa5
ca56
cac5
caca
c220
c290
c282
c2c3
6070
605a
60e4
60d3
c592
c5b9
c5ec
c5a1
c585
c5d0
304a
306d
305e
3023
f04a
f079
f040
f0b3
f0f8
f042
4073
404a
4063
40b2
4057
4066
4059
4090
40e0
4085
40c1
40ee
b0ff
b055
b049
e083
e08d
e02b
d0e3
d0e2
d0e0
c091
c0d6
100b
1002
2005
032f
300a
6004
6005
6003
450f
f507
2502
850e
a508
1504
150b
201b
601a
6018
6013
901e
703c
e016
6034
6035
f035
40a6
20a0
20a2
e0a7
c034
50a8
403b
4036
c0a2
90a9
005e
0150
0181
01fd
01c9
0141
01f9
01c0
01e3
084c
0898
0868
0848
0835
0867
0899
087e
08ba
0830
08ee
081d
0a38
0a47
0a39
0a1a
0a87
0a2b
0a1d
036f
03fd
03b9
0339
035c
03e8
03f9
0366
03f4
03fc
03dd
03fa
039a
03d7
03b3
0346
0394
1061
106e
1053
1060
1044
107e
1058
1046
1012
1042
02e1
022c
02dd
02c0
02b1
02df
02f1
02ca
020d
0206
1765
1738
17a0
1797
17c0
178d
171e
175f
1746
179c
177d
32fc
1869
1877
1865
1868
1835
18ea
18f4
18ba
1849
1890
18f8
1823
18ae
1813
18a3
7343
7378
7396
73a5
73d9
73f6
2369
231f
2341
2399
2356
2393
23f8
232b
23d2
23ca
2342
23a2
23a9
2305
de6a
de9d
ded8
de41
de5c
deaf
decf
deeb
21bb
2164
21bf
2157
2175
213f
21e9
215a
21d2
2130
50de
50e1
50f4
50fa
50c4
be7f
bea1
be3e
614a
6133
6186
61d7
6189
61ac
6109
6fd8
6f95
6f6c
6fb3
6f14
6f7d
6fd4
6fef
05d6
05f0
0575
058e
05c0
05d9
05ee
053a
aade
aa63
aa75
aaba
aa02
aa87
aabc
aad4
aa15
1a2a
1ab2
1a97
1acf
1acd
1a0b
ff03
ff33
fffd
ff68
ffb9
ff10
ff67
ff22
ff78
ff59
ffdb
ff6b
ffe4
fff8
ffe0
ffef
ff1b
ff0d
ff06
7c0a
7c52
7cb7
6970
6921
6934
696c
696d
698f
6940
69e2
69ad
693d
cc76
cc31
cce8
cc2c
cce5
ccdd
ccc4
ed62
edfd
ed36
ede1
ed2e
edf2
edc0
ed5f
ed42
62bf
6235
62ec
6274
62e3
62c8
62f8
6214
62ce
62f6
6230
62b0
6208
4f7c
4f31
4f29
4f02
4f9f
4ff7
4f1d
55fe
5565
5538
5522
55be
5516
55a9
0491
041f
04d8
0454
0444
04f9
04dd
04c0
04e0
04cf
04eb
0409
0405
4ab2
4a48
4a1a
4a9c
4abe
4a88
4acd
a762
a738
a795
a735
a73c
a7e0
a7c4
a71c
337c
3345
33d5
33db
3356
33ac
3760
3738
3735
3771
794e
799d
7941
7935
793c
79e3
79bc
79ac
7603
766f
7662
7634
76fc
763f
761e
76cf
76eb
76d0
7642
760c
110a
116a
1168
1148
1144
11dc
115a
1187
380a
3862
3833
38a6
388f
383c
38c1
3842
38c2
3101
316e
319d
3147
31ea
31f0
3102
31d9
3194
4ede
4e6a
4efe
4e60
4e68
4e44
4ed1
4e83
4e59
4ea5
4ec8
4ed9
4ee0
4eb1
4edf
4ec7
4e8c
2ade
2afe
2afd
2a64
2a48
2a5d
2a37
2add
2a40
2ac4
2ad2
2a30
2261
2232
22b5
2248
2224
22c6
22ae
2216
22d0
220d
2204
a598
a521
a5d1
a5fc
a5f2
a549
a5e3
a556
a55f
a594
a5c1
a5b7
5b6f
5b62
5b32
5b63
5be8
5be1
5bf9
5b99
5b79
5bf6
5b94
5b23
5be7
5bb8
5ba3
8163
8135
8102
81b3
81e2
8119
810e
6e6c
6eaf
6ea5
6ece
6eb7
9062
902a
90f3
90b5
9066
90d5
9079
90fa
9040
9025
9059
90c0
90ef
90d3
bb0a
bbf5
bbfd
bbb2
bb35
bbf9
bb75
bbf4
bb24
bb9f
bb80
bbcd
bbd0
bb11
bba2
7b0a
7bff
7b61
7b32
7b96
7b9a
7b9f
7b1e
7bc8
7bd9
7b11
39ed
39ff
39bb
396a
39a6
3965
3954
3975
39fc
3997
397e
3983
394b
392b
64c9
64b5
6451
644f
64d1
64c7
64bd
64c1
6430
641b
514a
5165
5147
51f0
515e
51cf
51c7
51eb
51c3
513a
510e
637c
6370
63f3
63a6
6351
6357
6367
6344
63d1
63ec
63b4
6393
631a
630c
52ff
52d1
523f
52e9
52f2
521a
5289
52bc
52c5
5285
52bd
52a3
344c
3426
344b
34dc
3493
3485
342b
340c
3603
3662
366a
3621
36fb
3637
364d
366b
360e
28ed
28f5
2860
2879
286b
285f
a46c
a4ec
a48e
a402
a4a5
a4e2
a418
a66f
a6f3
a67f
a675
a6b4
a69a
a693
a685
a6c7
a6ca
a608
096a
09a6
0934
0951
096c
094b
0987
09b3
0914
80bb
8020
8068
8067
80f9
8084
5e32
5e98
5ea6
5ed8
5eb5
5ee6
5e7f
5ef4
5e87
5ebc
5e82
5eae
5ed3
5e08
fe7b
fe21
fea4
fee9
fedd
fecf
feae
fe2d
fe8c
fe09
2d45
2da6
2d47
2d5d
2de6
2d54
2dd1
2d97
2d2e
2d9a
2d6b
2d17
2d89
2dc3
2d1c
9764
9727
97ce
9782
5d6f
5dff
5d7b
5d91
5d70
5d2a
5d92
5d68
5dbf
5d29
5df0
5d7e
5db3
5d14
5d3d
6501
65ea
6544
652e
6583
651a
658a
6514
65df
65ee
653a
65a7
e861
e84a
e85d
e887
e8f8
e88c
fda6
fdda
fd34
fdd6
fd09
fd11
1081
4c7c
4c68
4c39
4ce8
4c35
4c3f
4c2f
4cdb
4c3a
4cb0
4c11
24de
2421
24a4
2438
2495
2443
2410
24b6
2402
24d0
912a
91b9
91fb
91dd
9190
91b8
91f7
9111
1eff
1e4a
1e6d
1e44
1e7e
1ec5
1e3d
1d7b
1d7c
1d45
1d53
1d60
1d4f
1df9
1d24
1ddb
1d3c
1d8d
1dc6
1dcf
1dbe
1d0b
1d15
0ca4
0c51
0c29
0ce5
0ca8
0ce4
0cad
0cf1
0ccb
4103
4169
41ff
4176
415b
41fe
4120
41c9
4136
41e1
41d5
419a
41e3
4180
41c6
4185
41f1
4109
4111
296a
2921
299d
2963
295c
2986
29dd
291d
2908
5303
536e
532a
53f3
5338
5320
5354
5375
5346
5317
53f8
538a
5382
53c3
53b7
531b
13fe
1321
1364
135d
137f
139a
13ce
137d
13eb
13c3
13ee
13a2
13a9
1401
1453
14a6
146d
1435
14e1
142c
145e
1480
14e4
14e0
14c1
14b7
d90a
d94e
d953
d9ec
d9c1
d98c
d9ca
d907
8d76
8d98
8d34
8d7a
8d78
8d26
8dfa
8dd0
439b
4378
434b
4379
4380
43d9
433b
4308
6803
6869
6877
68a6
68cb
68d2
6dff
6d33
6dbf
6d4f
6d36
6d10
6d8f
6dd1
6d26
6d02
6ddb
6d9c
6d85
4b03
4bfb
4b36
4b4d
4baf
4bd5
4b8b
4bc4
4b0b
a103
a1a6
a19b
a1f0
a16b
a18b
a108
756f
755b
752a
7564
7563
7551
75f4
7522
7578
75f1
75a3
6a4e
6ab2
6a59
6a87
6a3d
6adf
ac73
acfd
ac92
aca8
ac1e
ac46
acc6
ac2d
ac1d
7760
7764
77bf
773f
7783
77d7
5a32
5a38
5a4f
5a3f
5a2e
5ab4
5a9a
5adf
5af7
265d
26ec
26b3
2694
26a3
2606
35aa
3561
354e
35c9
35b6
357e
35ba
359f
35c4
0762
07bb
07aa
076d
07fc
07a1
075f
b200
b2b5
b2e2
b2e0
b2cf
b22d
b288
b2cd
b20c
1ffd
1f48
1fe6
1fd1
1f80
1fe0
1f82
1ff7
1fca
1f19
1f08
474e
4791
4720
47fb
47e5
47ba
4783
4749
473b
47df
4788
47d2
470f
065b
06f5
0674
06ba
069e
069c
0612
060d
0604
f56e
f51f
f5b6
f52e
f5ae
f5cb
4d81
4dcc
4d77
4d68
4d34
4d43
4d57
4d44
4d7f
4da8
4de4
4d7d
4db8
4def
4d16
4d0d
f4ff
f466
3f70
3ffd
3f48
3fbf
3f54
3fd5
3f2e
3f40
3fa5
3fe3
3f87
3f80
3f17
3fce
3f85
3fc2
3f0d
0b45
0b42
0b11
0b15
5495
54b5
5413
662e
6602
6671
66ad
6688
6613
66ab
7f6c
7f9b
7fe8
7f99
7f3f
7f26
7f8d
7fce
7fad
7f3e
9d60
9d68
9d7f
9d3f
9d8d
9dac
1253
125e
121d
9628
9651
96dd
9658
9656
96b7
1b73
1b69
1b31
1be8
1ba1
1b02
1bdb
1b30
e67f
e646
166e
16f4
16c1
1612
163a
16c2
f128
f197
f193
f19c
f1bc
f1a7
8800
8881
8870
88f5
8895
8863
8837
8829
88f4
8858
88b3
88c6
88c2
3bde
3b68
3b28
3b41
3bfb
3b57
3b10
3be2
3bc4
3bb8
0f69
0fa0
0f44
0f8e
0f72
0f79
0f27
0fbc
0f88
0d7c
0d2a
0db6
0d9a
0d80
0d13
4447
444f
44b6
4416
f301
f332
f333
f3da
f31f
f328
f3a8
f3d7
f389
f39c
f3b8
f304
e934
e91f
e951
e95c
e97a
e935
e93f
e9a1
e92f
e909
fc98
fc5d
fc10
fcb6
fc72
fc78
fcfa
fc17
3e50
3e91
3e53
3e7f
3e7e
3e96
3edb
3e87
3ee2
3e9c
2c65
2cfb
2caf
2c8f
2cf4
2c59
2c2b
2cb7
d86f
d8d8
d863
d82c
d83f
d8dc
d80b
d8d3
d81b
7269
724e
727c
7233
7253
7268
726d
7254
72e8
722e
72e7
7288
72cb
7207
856f
8569
8591
85e8
8558
85b0
4261
424e
4252
42ec
4287
42f6
42c1
423e
497c
49f5
4965
49d8
4948
4943
49e1
49ec
49ba
496b
4982
49ac
4942
ad4e
ada4
adfd
ad48
ad6d
ad10
adfa
ad59
ada5
adc6
adf6
adc1
ad88
adac
8f0a
8ff3
8f21
8ff9
8f75
8fec
8fd9
8fcf
8f11
74ff
747b
747f
742c
742e
743b
7494
743a
984c
981f
9854
9825
981e
98f8
98df
9813
9262
9245
92ba
9217
92a3
92a9
89ed
8933
8921
8937
8967
89ea
898e
89b4
89fa
892f
895f
89b8
89a7
5747
57dc
7e7b
7e68
7e4f
7e75
7e8b
7e5f
7e8a
7e07
d15b
d1a4
d179
d125
d18b
d189
d1b8
594e
599d
5957
594d
593f
5946
59bd
59eb
59a3
591c
a891
a841
a83f
a8ad
a8d4
a8d2
a81c
a8ab
fb32
fbfb
fb9b
fbba
fb71
fbe4
fbf7
fb3e
fba9
afba
af84
af90
da00
da55
da52
daa6
dad6
da74
daf2
dac8
dae4
da16
456a
45c9
45c1
458c
4515
4841
4843
488e
4824
48d7
483c
48e3
48bc
48f7
481d
4819
4818
3af3
3a92
3aea
3af9
3af2
3ab4
3a1a
3a82
8220
8234
8248
824f
8243
82d1
8259
82cb
823a
8211
821b
580a
584e
5870
5839
5857
58f0
58c8
58f6
58e7
58ee
580b
58a9
5f70
5f6e
5f2a
5f65
5fda
5fe6
5fd5
5f2e
5fc0
5f46
5ff6
5fb1
5f2d
5f30
5fee
5fab
5f06
f900
f9ff
f968
f95a
f980
f9b3
f9c1
f9c3
8301
8321
8389
83d3
8307
bf32
bf39
bf67
bf5f
bff1
2e34
2e4d
2ee5
2eb3
2e06
b303
b3ff
b336
b3f9
b38d
b3f7
e14a
e155
e16e
e120
e19d
e135
e1af
e1fc
e18e
e1c0
e187
e188
e1ca
e11b
c16d
c143
c102
c1c0
c1dc
c1e7
c108
c434
c410
c47f
c458
c4df
6773
6761
67fe
67b9
6741
675c
6783
679c
67c1
3d62
3df5
3d7a
3d29
3d8f
3d78
3d9a
3d87
3d14
3db1
3d94
3da7
3d0f
5cbb
5cf5
5c68
5c51
5c39
5ce1
5c66
5cdd
5c9f
5cd4
5cd2
5c18
5cab
0e4a
0e70
0e47
0e2f
0ee4
0e23
0ed4
0e11
b981
b970
b94c
9bed
9b6e
9b5d
9ba8
9bdf
9bd0
8769
8779
8785
eaff
ea6d
eafc
ea84
ea5f
eac6
eaf6
ea2d
ea8c
fa21
fa29
fa75
fad5
faba
fa4b
fa3c
fa9f
fabd
fa7d
fa3e
7a91
7a36
7a7a
7a93
2f50
2f73
2ffe
2f68
2f6d
2f3c
2fdf
2f16
2fb0
2fb7
2045
2064
20da
20f0
20e3
2071
20e2
150a
15aa
15d8
15a0
1567
15a8
158a
158c
1961
19c9
1943
1929
193f
19d5
1949
191a
191d
1911
f6fe
f6e8
f610
f64d
f6a5
f6c0
f67d
f6a2
f6a9
864e
866a
8625
865f
863d
86cd
868c
861c
4650
4673
4692
466d
46d6
4674
46ba
46a8
465a
468b
4687
46c4
46df
46c1
2731
2799
272e
27a8
274b
2702
2725
27d7
2771
2717
27c6
27ef
c960
c968
c947
c951
c978
c959
c99f
c913
c916
c9b0
c90d
c908
e3a4
e3b9
e3ad
e3cd
e316
e3b7
e307
2576
2555
25a4
25a0
25e3
2556
2593
25f6
25c5
2588
258c
251d
2b03
2b73
2b32
2b7c
2b2a
2b92
2b47
2b39
2b5c
2b8f
2b7e
2be5
2b93
2b46
2bb1
2bf1
a37b
a341
a339
a329
a38e
a3d5
a35e
a324
a317
a3b1
a3f1
a38c
6c2a
6c41
6c35
6c74
6c3d
6c94
3c70
3cf5
3cda
3c3f
3cb3
3cce
3cb8
3cef
3c19
6b28
6bb2
6b5e
6b49
6bdb
6b1e
6b5f
6b13
56ff
56fe
567f
568f
5693
56ce
5613
568c
f232
f270
f29d
f2fb
f284
f2cd
f216
f2ee
f21b
f206
f832
f851
f8e9
f858
f8db
f887
f8e2
f8ee
d698
d6b5
d62f
d693
d6a7
d61b
d605
a250
a2ed
a252
a260
a221
a292
a29b
a2e8
a2f0
a246
a2d0
a21c
9391
935b
93cc
9365
932e
9358
93fa
93dc
9384
93c4
93bd
93f7
93b7
b4cc
b475
b496
b458
b4fa
b4bc
b4ae
b4f1
e739
e7e6
e7d5
e75a
e756
e7d9
e7b8
e70d
b662
b6cc
b621
b628
b6fc
b69a
b602
b6db
b694
b6b0
7801
78a4
7829
7897
78a5
78ce
782d
aba8
ab56
abe0
ab9c
7d47
7d39
7d43
7d86
7d59
7d84
7de4
7df6
7dbd
7dc1
7dca
7d11
7d0f
7d07
d300
d34e
d351
d343
d3f9
d3fc
d302
d313
d3d2
d30b
d30f
1c0a
1cff
1c81
1c55
1c7c
1c47
1ca0
1cb6
1ce3
1cd4
1c0d
a073
a025
a071
a090
a0c4
d46d
d458
d45a
d4e4
8e70
8e77
8efa
db5b
db82
ec01
ecff
ec20
ec9d
ecaf
ec3f
ecb6
ec79
ecc6
ecc5
d7bb
d777
d7fe
d753
d735
d7e4
d7bd
d7d2
714a
7176
712a
71a1
7159
712d
710b
9f73
9fa6
9fb5
9fea
9f3c
9f1d
9950
996e
999b
993f
995e
e273
e207
ce7c
ce53
ceda
ce1f
ce36
ce74
ce9a
cee2
cebe
ce30
ced3
ce15
e4ff
e4bd
e4c3
f764
f741
f76c
f774
f726
f7a1
f7be
f7ee
f715
f70d
cfed
cfb2
cf39
cf7f
cfec
cf24
cf2f
cfc1
cf0d
cf06
b1cc
b158
b1d7
b108
84ff
8448
847a
842c
84b6
8459
8456
841e
848a
84be
8488
84d2
df00
df52
df60
dfa0
df44
dfe9
df79
df5a
df3b
df23
df1c
b55b
b56e
b551
b5ec
b5d5
b587
b530
b5ee
9e47
9e26
9e05
bafd
ba36
ba2c
ba78
baa1
ba9e
bae2
babc
ba3b
c861
c87c
c82c
c8e9
c88a
c830
c8d3
8b01
8b0a
8b70
8b92
8bc9
8ba0
bd61
bd95
bd02
bd1e
bd7d
bdd3
ee4a
eef9
ee8f
ee97
eee5
eec0
eebe
ee13
c669
c6ff
c6b5
c627
c693
c6c8
c65f
c6c2
9a76
9af2
9a79
9a5a
9aac
70ff
70fb
70b5
706c
7075
704b
7071
7046
70e0
709c
7023
cb73
cb7c
cb99
cb7e
cbdd
cb40
cbc6
cbd2
cb07
eb67
eb8e
eb97
eb40
eb1e
eb8a
eb30
a932
a96a
a978
a9b3
a9be
a9c7
a913
dd35
dd06
d569
d557
d575
d580
d546
d5c1
d519
ae8e
ae4b
ae8b
aebd
ae15
ef68
ef8e
efb6
ef3c
ef12
bc45
bc98
bcfb
bcf9
bca8
bce3
bc88
d236
d25c
d267
d283
d2e3
d2f8
d2be
d2e7
d216
c363
c32c
c30f
c307
b832
b8fe
b854
b8d7
b8ae
b888
9401
94b9
9443
9440
941a
94b3
9485
9409
8a03
8a36
8a7e
8ae0
8c60
8c48
8c5d
8ce6
8c49
8c2d
8cc1
8c1c
95ff
9555
9568
9595
9529
9559
9518
c703
c71f
c779
c71e
c72d
c7cd
e569
e561
e532
e54c
e594
e5cb
e513
dcbb
dc61
dc34
dc89
cda0
cd79
cd90
cd85
b77b
b76a
b7bf
b74f
b77a
b7b4
b7d7
b730
9c21
9c41
9c54
9cfc
9c5a
9c6b
9cae
9cac
cafe
ca68
ca47
ca95
cae8
ca80
ca90
ca0d
c26e
c298
c295
c2e8
c279
c202
c259
c2f6
c2b7
6052
60fe
6020
6064
6048
6083
c553
c541
c567
c5ba
c5a8
c5c8
c523
c5c1
c5e7
c519
c51c
c518
30bb
30fd
305d
3067
3059
f0fe
f020
f0bf
f0e9
f05a
f088
404c
4064
4095
40b5
40bf
40f0
40f4
40ba
409a
4089
40eb
b06f
b047
b0fa
b082
b0df
b0cd
e0ff
e0f5
e0c9
e0e6
e07f
e09e
e027
e0b0
d070
d0fe
d0f3
d058
d080
d0d4
c06f
c045
c021
c057
c029
c0e3
c0e4
c0c1
c0c3
1009
a005
501f
0a05
0215
2007
8004
800a
801f
032d
0324
0329
0322
2108
500c
de0f
de09
400c
f006
6007
700b
180f
203f
d505
f509
3502
2505
c508
a01b
a012
a509
e504
e50c
5036
b031
b01f
f011
f014
2018
4018
c01b
6019
703f
f0a3
603d
6039
f031
d0a8
60ac
4034
403a
80ab
d038
d03f
90a5
00b9
00b5
00e1
00d7
00e2
00c1
00c2
00ab
0162
01aa
01da
014f
01e8
0174
0172
01a8
01c8
012d
01b0
08f5
0877
0834
08fc
0883
089a
0887
089c
08eb
0816
0aaa
0afb
0a3f
0ae9
0a40
0ac6
0aee
0a1c
03ed
0381
0392
031f
03bf
0375
03a8
038d
03c8
03e7
03d3
03ab
10ff
104e
10f5
104f
1031
1067
10f4
1025
10be
10c7
10d4
10ef
101d
02f5
0292
02b9
0234
0241
0248
02d5
0283
0240
02c8
02bd
02d4
1701
176f
17bb
17da
17b9
179d
1728
1735
1775
17e9
1749
1727
17c5
17be
1706
180a
1803
1855
189d
18b2
18bf
1829
18d1
187e
1859
1894
18d3
7377
73d8
735c
7344
7375
7302
739e
73c5
7388
73cd
731d
234a
232a
2398
2364
239d
2343
2367
237f
23dc
233a
de39
de8e
de26
ded7
de6b
de1e
2101
217b
2181
2165
2120
2128
2163
216c
2166
21dd
21d9
21f8
2189
21f1
21d4
21ab
5061
5045
5077
5021
505d
50ec
5059
505f
5094
50d2
be76
be68
be4f
bee6
bee8
be8e
beba
be25
bee2
bebc
be23
be0b
be1b
61ff
6164
61e8
6175
6197
612e
61e5
61e9
61d9
6130
61a9
6105
6104
6faa
6f5b
6f41
6f51
6f5d
6fe8
6fa5
6f3c
6f56
6fac
6f1d
059d
0526
0579
05d0
058c
05b7
051c
aa00
aa78
aa8d
aac5
aaee
aab7
aa18
1aff
1abb
1ad8
1a5c
1a96
1aac
ff7c
fff5
ff53
ff63
fff4
ffe9
ffe3
ff1e
ff84
fff6
ffad
ffc5
ffbe
fff1
ffe7
ff15
7c62
7c7b
7c32
7cda
7c99
7c27
7c93
7c87
7cf8
7c82
7cae
7cbd
7c2b
7ca7
7c0f
694e
6933
697a
69b4
6980
6990
697d
693e
69c2
cc01
cc6f
cc73
cc62
cccc
cc2a
cc6a
ccfd
cc92
ccfb
cc4b
cca1
ccd7
ccc8
cc3d
cc23
cca2
ed77
ed20
ed28
edd1
edd5
ed14
edcf
edd3
6269
6253
62da
6263
627a
62f4
62d5
6287
623d
4f20
4ffd
4f63
4fb5
4ff0
4ffc
4f86
4f5a
4f8b
4fcb
4f19
4f0d
5553
5568
5528
55fb
55a0
55e8
55e9
55b4
5549
553b
5523
55b8
55a3
55ac
0403
04fd
04c9
04a0
044d
048e
04d5
0472
0483
0479
04d7
04ad
0423
0419
4aff
4a4e
4afe
4a1f
4a8a
4aae
a7aa
a75b
a7cc
a7f9
a7a8
a79e
a7c8
a7eb
3365
335d
3344
3366
335e
33e5
33e9
33fa
33f1
338c
331b
3307
3761
37f3
371d
37a7
3718
790a
796e
79d8
7944
793f
79be
7916
7915
791b
767b
76cc
7670
769b
767a
7644
76d5
7672
7683
76fa
76bc
1169
11ff
11f3
1164
1122
115e
11a1
119e
111a
11df
1185
112d
11ef
111d
3850
3855
385b
3853
38f3
38d8
3863
38bf
38e1
3866
38d9
38bc
387d
38cb
38eb
38f7
3815
3155
314c
3168
31c9
3148
31f4
315f
31f8
317d
4e2a
4ef5
4efb
4e4d
4ee5
4e93
4eb3
4e90
4ecf
4ef6
4ec5
4ed4
2a32
2a60
2ad6
2a8c
2a05
2201
220a
2276
22a4
2268
221f
2241
2210
2244
22e1
22f0
22ce
22be
22ef
22ac
22c2
221c
a57e
a525
a527
a58d
a5e4
a5f1
a519
5b0a
5b77
5bf3
5bb9
5b22
5b72
5b59
5b80
5bd9
5b82
5bbe
5bbd
5bc1
5bb0
5bca
5b1b
5b0f
8191
8198
818b
81f8
817d
81a3
81ac
6e31
6ef4
6efc
6e7e
6ec0
6e17
6e8a
6edf
90e6
905e
907d
90c3
90ee
bb5b
bbec
bbf6
bb89
bb12
7b69
7bfe
7b92
7b54
7b67
7bf9
7bec
7b78
7b26
7b93
7b16
3962
394c
39d8
3928
3941
3948
3931
39ea
391e
3984
393b
3913
398c
390c
3906
6470
64a0
64e9
6449
64c4
64cb
648c
6411
64a7
6405
51de
517c
5145
5141
515c
5157
51af
517f
5199
5186
5183
5185
51f1
5107
6345
6333
63d8
6331
6399
637e
639e
63d9
638a
63bd
63b8
633a
631d
630f
527c
52f3
5292
5299
527e
5279
52dc
5290
52c6
52be
52c7
523e
34ed
34ff
3420
345d
3466
343f
3456
34e4
34e0
349c
34bd
341c
3648
366d
36a0
36b3
365f
36be
36ae
36cd
361d
2832
2821
286d
2826
2896
2802
288d
28d4
a450
a4ff
a4aa
a470
a441
a4d6
a429
a4f9
a497
a4e9
a42f
a49f
a484
a670
a62a
a6f5
a638
a620
a6f6
a689
a6eb
a618
09aa
09fd
0964
0937
09e1
09ec
09db
09e0
09c7
09ef
09a2
80de
8063
809e
80cf
80d3
5ede
5e73
5ef5
5efe
5eea
5e4b
5efa
5e25
5e85
fe62
fe55
fe2a
fe33
fe53
fe41
fe37
fe8f
fe58
fef2
fee0
fef6
fe23
fe85
fe15
fe1b
2ded
2dda
2d8b
2d23
2db8
2dee
2da7
2d05
974e
9744
9784
97c6
9705
5d4e
5d45
5dfb
5db5
5df2
5db4
5dfa
5d93
5d46
5df6
5d82
5deb
5d3e
5dab
65ed
6532
6560
6565
6528
6548
65e8
65e1
6529
65fc
653f
65b6
65c2
e829
e8b4
e849
e8d9
fdaa
fd55
fdfe
fdb9
fd47
fd4f
fd4b
fd27
fd5a
fd80
fde2
fde4
fdf8
fdcf
fdc7
fdbd
fdc1
fdf7
4c5b
4ca6
4c6d
4cb4
4c8a
4cca
4c05
2452
2465
24da
246c
2424
2449
245a
24f6
241d
240d
91e8
91f9
91d5
919a
91db
918b
911e
91c7
9130
1e01
1eaa
1e53
1e4c
1e41
1eea
1e25
1e17
1ecd
1ded
1daa
1d4a
1df5
1d38
1dfd
1de6
1d29
1d83
1d4b
1d02
1d59
1dbc
1d8c
1d08
0c61
0c68
0cc9
0cfb
0c63
0c78
0cba
0c46
4150
414e
4145
4165
41b6
415a
419c
4123
41c1
41cb
4130
411c
41ab
4107
2961
2952
2977
2947
2943
29e9
2996
295a
298a
29e0
29c5
29d2
293a
536f
5377
5333
53ea
53f9
538b
535f
53e2
5390
53c6
53f6
53f1
531d
1376
1332
13f5
131f
1341
13e1
134d
132c
1396
1383
1302
131e
1346
13d4
1330
1342
13c2
1470
14fb
14af
1466
14a8
1417
148a
140c
d901
d9ff
d920
d9b2
d9f9
d9fa
d9b8
8dff
8d4e
8d4c
8dfb
8d99
8df4
8d24
8dc4
8dbd
8d0c
43ed
4373
4361
435b
4353
435c
43e5
431e
433d
432b
430b
43d3
6855
68fd
6834
6897
68dd
688b
6830
681c
6818
6d50
6d7c
6d70
6da4
6d9d
6d44
6d4d
6d9a
6d1e
6d5f
6df8
6df6
6dad
6d3b
6d09
6d42
4bff
4b53
4b9d
4b6d
4bfc
4ba8
4b84
4b1d
4b42
a141
a135
a184
a1e0
a1b7
7520
75e8
7586
7559
75c0
7556
751a
759f
75bc
75d0
7519
6a73
6a69
6ab9
6a28
6a31
6a66
6a8e
6a83
6ab3
6aae
ac76
accc
ac4c
ac4d
ac58
aca5
acc0
ac6b
acd9
aca3
ac1b
77bb
772a
7753
7751
7737
777a
779e
776b
77c7
77e7
77cd
5a64
5ab5
5a48
5aa0
5a7f
5af0
5a72
5a26
5a3c
5a89
5acd
2650
26ed
26ff
26c9
266c
269b
2654
26a8
26c0
2671
2680
26f1
26c1
3521
354b
35cf
35ae
35f1
3519
079d
0763
0710
0799
078e
07b6
079a
0725
07bc
072d
07cb
07ef
b262
b2fd
b2d8
b25c
b27a
b28f
b278
b296
b217
b223
b2ef
b20b
b21d
1f33
1f53
1f98
1f9d
1fe5
1fba
1f46
1f13
1fd3
1fc2
1f18
47ed
47bb
4776
4792
47b9
4763
47e8
4797
4778
47b4
4771
471a
47c8
47d4
47ee
47a7
47ab
062a
0664
0628
0631
067f
0678
063c
0646
0690
06cf
0623
06c7
06d0
f532
f5f9
f597
f556
f58d
f594
f542
4d0a
4d76
4d4e
4d33
4d9d
4de1
4dfc
4d17
4dcf
4dc5
4d30
4dc3
4d0b
4dd3
4d15
4da2
4d1c
f433
f497
f4db
f414
f43d
f4f7
3f53
3f63
3fa0
3f5c
3fe1
3faf
3f97
3fa8
3fe2
3fe4
3f3b
3fa3
3fac
3f1b
3f0e
0b62
0b60
0b65
0bd6
0b8f
0b9f
0bae
0b2d
0beb
0bd2
0bc3
0b16
5400
5461
5453
5434
54d8
5463
544f
54ea
5496
54b4
5480
54b0
54ca
54a9
5408
6600
6673
665b
66af
66a5
66d9
6617
6612
6619
7f47
7f48
7f54
7f86
7f5e
7f96
7f9e
7f3d
7f3b
7fdf
7fae
7fe7
7f16
7fee
9d65
9d1f
9d8f
9d5e
9dc4
9dd4
9dd0
9d09
9d05
1281
1255
12a4
121f
122c
123f
1278
127e
12e9
12ba
12f6
12c4
1223
1285
9601
964c
9621
9647
969b
96af
965e
96db
9687
9684
962b
96d3
1b01
1b45
1bfe
1bf3
1b20
1b47
1b5d
1b7e
1b8d
1b5f
1bdf
1b12
1b1c
e670
e62a
e6d8
e648
e637
e686
e656
e6f7
e6ee
e6ac
e60e
16aa
164c
1668
16d8
1636
167f
1678
1658
169e
168a
168c
1642
f15b
f16d
f15c
f17e
f1e3
f11e
f1d9
f1e0
f1ce
f1c7
f1e7
f1a2
8803
88b2
886c
88d6
885e
886b
8893
88c1
8811
88a9
881b
3b4e
3b91
3bcc
3b2a
3bda
3b2c
3b9f
3b80
3b90
3b17
0fff
0fbf
0f67
0f66
0f78
0f87
0fd9
0f89
0d65
0d51
0d43
0df9
0d22
0d7e
0d58
0d71
0d90
0d14
0dbc
0dae
0da3
0dd3
0d42
0d18
0d0f
4450
4476
4433
4421
4451
446d
448e
4472
44e5
441e
4423
4488
44d3
4408
f361
f343
f3af
f38e
f322
f3d5
f385
f37d
f33e
f3ab
e9ed
e94a
e953
e9f3
e95d
e94f
e936
e967
e974
e9ba
e983
e98d
e9bc
e98c
fc55
fcf5
fcc9
fc28
fc22
fcf2
fc93
fc8a
fc14
fcbd
fccb
fca3
3e73
3e7b
3e4e
3e47
3e54
3e22
3ed5
3ef2
3ecf
3e3d
3ea3
3e0b
3ed3
3e42
3ea9
3e05
2cde
2c55
2c77
2cf3
2ca6
2c6c
2ce8
2cea
2c5e
2c9f
2cd0
2c04
d8da
d8e8
d878
d8c0
d8ad
d823
d8ef
d813
d8b7
7255
7291
7260
72b4
7279
7287
7217
72f8
72b8
7216
728c
720f
8500
85ed
858e
85b4
853c
859f
85e0
4201
4295
4210
4267
42ea
428e
427e
4249
4214
42c7
42cd
4211
4219
420e
4992
49c9
495d
4986
49b6
497e
49a8
4956
4917
49bc
492d
490d
490e
aded
ad81
ad66
ad75
add5
addb
addc
ad6b
ad17
add0
ad0b
ada2
8fbb
8fcc
8f45
8f34
8ffb
8f36
8f31
8ffc
8f9e
8f7d
8f09
8fa7
7447
746c
74e6
7443
7444
7466
74f4
74ec
74e5
74d7
7484
743d
74cd
7412
743e
7418
9848
98ec
980b
98a7
981b
980f
92bf
92f0
92b3
9214
9223
9230
92d3
9242
895b
8920
89bf
89af
8997
89f2
898d
8987
893b
89e7
89eb
57a4
57a0
573f
57d7
57c8
7eff
7e81
7eda
7e23
7ee7
d14c
d1b9
d1d5
d124
d10b
590a
5943
59e3
593d
5994
590b
59b0
59d3
a8ed
a8f3
a8e6
a85c
a857
a85a
a817
a8ca
a811
fb55
fb5b
fb70
fb45
fb65
fb22
fba8
fb79
fb9e
fb6b
fb94
fb30
fb05
afaa
afd6
afe1
afaf
af99
af09
af1b
da0a
da4a
da91
da64
da9d
da63
da48
da02
dad4
da88
daca
45ed
454c
45b9
456c
4544
4526
4583
45ce
4873
4877
48a0
4844
4879
48fa
481a
488b
4807
3a55
3a1f
3a28
3ab5
3a51
3ae8
3ab6
3a97
3ad7
3a71
3a8d
3ac7
3a7d
3a42
3ac2
827b
8252
826e
8222
82dd
824b
829e
826b
8271
82ce
82bd
82d0
8205
58fe
585d
5829
584d
58b4
5893
5812
5fde
5faa
5f76
5fa6
5f22
5fb6
5fe9
5f83
5fce
5f1d
f95b
f996
f9a8
f979
f9c8
f946
f990
f9ad
f9cb
8391
836a
8365
839d
8351
8343
83e1
83f0
8322
83bd
83cd
bfbb
bf4c
bfa3
2e55
2ea6
2e20
2e86
2ef2
2e71
2ec7
2e1d
2e0c
b361
b377
b3b2
b36d
b310
b3ea
b375
b3e2
b394
b3ef
b3d0
b3a3
e1ff
e1f5
e1a4
e167
e18f
e140
e16b
e117
e19c
e1bc
e123
c1ff
c1da
c15d
c1ec
c1f2
c1a5
c193
c13d
c1a2
c49b
c459
c4ae
670a
674a
6768
6764
679d
6747
6736
67e6
6722
6726
6702
67cd
6711
6718
670d
3d01
3d03
3dff
3d4a
3d60
3d47
3d6c
3de6
3daf
3d58
3da1
3db3
3dc5
3d3d
3dae
3df1
3df7
3dac
3dca
5c5b
5c2a
5cbf
5cfc
5c56
5cb3
5cae
5c2d
5cc1
5c16
5c08
5c06
0e03
0e20
0e6d
0e31
0e5e
0e49
0e89
0ec3
0e0d
b903
b9ff
b941
b951
b99b
b966
b9a8
b9c5
b9b8
b9cb
b912
b9a9
9b00
9ba6
9b39
9be8
9b37
9b97
9bb4
9bdc
87de
8798
87da
8743
8799
87d1
87e9
8725
87c0
87ae
87c3
ea34
eae6
ea37
ea10
eaf4
ea96
eab4
ea93
ea14
eac4
eaac
ea0d
faaa
fa64
fa6d
fa2c
fac8
faad
faae
fa19
7ab9
7ad5
7aa5
7ace
7a9c
7abc
7a2d
7af7
7a3a
2f77
2f2c
2ffa
2f24
2f27
2f89
2fcb
2fa9
2f05
2f04
2070
2041
2078
2083
2040
2049
205a
208d
208a
209c
20bd
154e
15bf
1529
1586
15f2
15ce
15f6
152d
15b8
15ee
15b0
1969
19ff
19a4
194d
1978
193c
19b3
1946
193b
19cd
1908
f6f3
f6d1
f674
f6e3
f617
f682
f618
f605
8647
86fb
8651
8648
86bf
8654
8629
868f
86f0
86ba
86dc
466f
4620
46c9
4663
4667
4622
4678
469e
4684
462d
468c
4618
27ed
27ff
27d8
276c
2767
279e
272f
2716
c958
c9b4
c984
c990
c9f8
c914
e34a
e36c
e3fc
e326
e3a8
e3db
e3c7
e3a3
e30b
257b
25bb
25a6
25fd
25b5
256c
256d
252c
2599
25f7
253e
2bff
2bb2
2b66
2b74
2b9f
2bcf
2bad
2bbe
2bab
2b0c
2b06
a3fd
a351
a343
a344
a3f9
a3dd
a3db
a393
a30d
6cde
6c52
6c77
6c10
6cfa
6cf8
6ceb
6cac
6c3e
6cd3
3c50
3cfb
3c10
3c99
3cec
3cba
3ca1
3c9c
3cbe
3cc7
3cc3
3cee
6b73
6b21
6bfb
6b6c
6b4f
6bf0
6bfa
6bd9
6bf6
6b89
6b30
56a4
5668
5664
565d
5672
561a
5687
5680
5684
568a
560d
560c
f262
f220
f23c
f2bc
f22d
f2e7
f208
f8bb
f868
f82f
f8e3
f8bc
f83b
f8ae
f8bd
f8cb
f8c3
f816
f83e
f8b0
f8ca
f815
d6b9
d69d
d65d
d635
d675
d69e
d6df
d688
d6ef
d60b
d609
d60e
a200
a201
a2cc
a2c9
a251
a25d
a22e
a2dd
a21a
a28d
a284
a2d3
a21d
93ff
9353
9374
9322
9372
9378
9356
9389
93ad
93b8
931c
b41f
b44f
b47f
b43f
b4f2
b4a8
b446
b43d
e7e8
e710
e7f0
e7e3
e784
e72d
e72b
e7c3
b6ff
b644
b622
b68c
7832
78d6
78d5
785a
7884
78b1
78d2
783e
7818
7804
ab52
ab70
abb9
ab6d
ab36
ab8e
abe2
7d01
7dde
7daa
7d32
7d4e
7df5
7df3
7db9
7d48
7d54
7dea
7d4d
7daf
7d8e
7dba
7da8
7da5
7dc8
7de2
7d8c
7da7
d373
d36e
d3fd
d347
d337
d366
d399
d3f4
d3b6
d3fa
d3b3
d3d4
d3b0
d3a2
1c68
1c29
1cf0
1c72
1c16
a09d
a0b2
a0bf
a05e
a0b4
a0f7
d47c
d439
d457
d435
d4f8
d4d0
d407
8ede
8e6f
8e36
8ee9
8e83
8e6b
8ee0
8edf
8ed2
8e42
db00
dbde
db62
db6e
dbf5
db4b
db9a
db59
dbc6
db1b
db0f
ec00
ec4a
ec77
ec64
ec2f
ec8c
d77c
d72a
d7b5
d783
d7ab
d70c
71ff
7191
7128
71b5
715c
71ea
71c6
71cf
71c1
713a
711d
7109
711b
9faa
9f68
9ff9
9fe2
9f89
9fc7
9f06
9955
99f5
9995
99e3
991a
99c7
99cd
990b
9909
9919
e2ed
e276
e26a
e268
e247
e22e
e259
e2c8
e25f
e2d9
e285
e2bd
e2cb
ce03
ce6a
ce54
cee5
ce26
ce6b
ce8b
ced9
cef8
cece
ce09
e460
e463
e4ea
e402
e4d7
e45a
e47d
f7de
f7d8
f7dd
f783
f7c2
cf76
cf77
cf6d
cfea
cf2c
cf8f
cfba
cf27
cfc4
cfad
cf9c
cf13
cf08
b121
b1b5
b178
b196
b1fa
b19a
b19e
b12f
b184
84fd
84d5
8425
845a
84f6
84d0
8412
8411
840e
df0a
dffd
df68
dfb2
df37
dfeb
dfc3
df42
b565
b547
b599
b5ba
b5d9
b5f8
b5f6
b53d
b5e7
b5ef
b518
9e69
9e31
9e54
9e97
9e1e
9e80
9ec6
9e7d
9e3a
9e06
ba50
ba58
ba79
ba59
baad
c87b
c8fe
c8fb
c848
c85d
c8e1
c87f
c8d1
c85e
c893
c8e4
c82d
c8a2
8b54
8bf9
8bfa
8b9e
8b3c
8be3
8b93
8b9f
8b0b
8b3e
bd81
bd68
bd28
bd7f
bd22
bd93
bd89
bd3d
bd88
bd12
ee63
eee8
ee3f
eea1
ee85
ee42
eea9
ee04
c631
c635
c622
c64b
c6fa
c6a1
c614
c63a
c609
9a73
9a52
9a6e
9a33
9a38
9a3f
9a2b
9a1b
704c
704d
702c
7058
7080
705f
7094
70d4
70f7
cb21
cb6d
cb35
cb22
cbb6
cb72
cb24
cb8d
cbb3
cbf6
cb3d
cbb1
cbdf
eb6c
ebf4
ebfc
eb5f
eb17
eb3d
eba7
eb0e
a903
a9fe
a960
a9a4
a96d
a97f
a9b6
a9e9
a925
a924
a9c6
a982
a942
a918
dd6a
ddf3
dde8
ddf0
dd7e
dddb
ddc0
dd46
ddd4
dd12
d50a
d56a
d52c
d5f0
d52e
d5b4
aede
aebb
ae68
ae5c
ae37
ae67
ae7f
aee9
ae80
ae89
aecd
aec2
aea2
ef70
effe
ef38
ef5e
efa5
ef1e
ef90
bcdd
bce0
bc14
bc42
d250
d270
d26e
d21f
d2f6
c34e
c328
c395
c3a0
c354
c335
c375
c3b4
c356
c393
c3ae
c315
c304
b8e6
b878
b8db
b88d
b846
b8e4
b82d
b8d4
94ed
9495
944f
9431
9499
94b6
949f
94e2
94df
94c7
94bd
94ca
9442
8a4a
8a5b
8af3
8afd
8a92
8a1f
8ab5
8a7a
8a4b
8a40
8a85
8a08
8cb5
8c79
8c3c
8c84
8cce
8cc4
8c3e
8c07
9573
9533
95fd
95fb
95d6
95e6
954d
953f
95e0
9514
9513
95a3
c701
c7cc
c7f5
c7fe
c7c5
c723
c71d
c7ab
e54a
e553
e565
e510
e5b6
e525
e5a5
e59c
e585
e519
dc52
dc33
dcda
dcae
dcf1
cd70
cd77
cdfd
cdd1
cdf4
cd7e
cd96
cd6b
cdc8
cdb0
cd11
cda9
cd06
b7cc
b720
b7f4
b759
b78d
b7eb
9cff
9c61
9c77
9cb9
9c5d
9c67
9caf
9cd1
9c89
9c9c
9ccd
9c1d
ca01
ca9e
ca93
cac6
ca11
c201
c250
c262
c232
c228
c22e
c28d
c20e
606a
6021
609d
60b6
60e9
60c6
60ca
c503
c55f
c5d3
3053
30fb
30f9
3079
3084
30e0
30cf
30df
30d3
f0ed
f0ff
f0bb
f0f3
f047
f087
407b
406a
4020
4068
4067
40ea
407f
40e3
4071
40b1
402d
40b8
b04a
b0d8
b078
b09a
b0b3
b0d9
b0bc
e0cc
e06a
e068
e080
e0cb
e0eb
d0bb
d091
d0bf
d05c
d0e8
d0dd
d0ba
d079
d084
c092
c0da
c028
c0e9
c096
c080
e003
0a08
900b
900c
0219
2008
2009
de0b
400d
f002
3002
b000
c002
6008
d00d
4508
2034
2030
2039
2506
b50d
a015
f01a
7019
7013
9010
9013
a0a9
40a8
d0af
d0a3
8034
8033
20ad
20ab
20a7
20a5
20a3
e0ac
9037
4037
4030
4032
403c
80a1
80a3
b0a9
90a2
30a1
00d8
00e0
01ff
014a
0195
01a0
01fc
0178
018d
01ce
01c7
01d4
01cd
01ee
0862
0851
08d6
0825
0859
08dc
08b3
08c8
088a
08c3
08d0
0819
0aff
0a4e
0aa6
0a1f
0ab2
0a6d
0aa0
0a10
0a97
0a5e
0aa1
0a90
0a3d
0aa7
0332
036a
03fb
03d1
035e
03ba
0380
03f6
03c7
03a7
0318
1076
10cc
1065
10f9
1074
1040
10cd
103e
0232
0238
02d8
0228
0236
0243
0299
02f0
0297
02f2
02b4
0224
023c
025a
02e2
029c
02ac
0242
1750
1760
176d
17d6
177f
17a5
171a
1784
17ef
178c
1718
170d
182a
1895
18b5
182c
183f
18e9
18fa
189e
18b3
18e4
18be
18df
18f1
182d
187d
1812
18b0
7370
73a6
7334
7328
73b5
73b2
735d
73a0
7329
73f9
738e
7322
732e
73cb
73a3
2350
23de
23ed
2345
2338
2334
23fb
23e1
23b6
2325
2349
233c
2380
2384
23ad
23c5
233d
233e
23b0
23a7
de00
de38
deb2
deb6
de2f
de46
de7d
deb0
de1d
de15
2155
2160
2195
2151
215d
21f9
21f2
21a8
214b
219a
218a
21ce
2185
218c
213e
21d3
2115
21a7
5053
504c
5060
50fb
50bf
5086
50b4
5082
50cd
50ef
50eb
be00
be61
bea4
be34
bef9
be7e
be85
6100
6198
61d8
6136
61b4
61fa
61a1
61e0
61ce
61ad
6185
612b
61e7
61cb
6112
61d3
6f62
6f32
6f60
6f29
6ff4
6f97
6fe5
6f58
6f9e
6f82
6f3d
6f2d
6fcb
054a
0552
0598
0520
0599
05fc
05e2
05cf
053e
0519
aa03
aa6f
aa7b
aa4e
aaa6
aab9
aa1f
aa22
aa5e
aa9a
aad7
aaf6
aac4
aa2d
aaf7
aa3a
aaa2
aa1b
aa05
1a61
1a76
1a45
1afe
1a60
1a22
1a8b
1ae0
1a9c
1abc
1a2b
1aeb
ff76
ff38
ff5d
ff4f
ffe8
ff24
ff46
ff9c
ff2b
ff16
ff1d
7c73
7c68
7c58
7ce2
7cd0
7c12
692a
691f
69d6
69f9
697f
6978
69fa
693c
6971
6984
69f8
6923
6988
69cb
69a2
690f
cc32
cc9d
cc28
cc7e
cc5a
cc8d
cc3b
ccd4
cc12
cca3
ccee
cc07
ed76
ed9b
ed37
edf9
ed78
edfa
ed02
ed87
ed23
edef
edf7
ed11
ed04
6270
6260
6236
62d1
6297
62e9
62ba
6296
62a1
6224
621e
62be
62a9
4f55
4fcc
4f70
4fb9
4f6d
4f35
4fec
4fdd
4f79
4f1e
4fe2
4f9c
4fbc
4f16
4f0b
4fca
5591
552a
556a
559d
5541
557a
554d
55fa
5559
55df
5588
553a
0445
0468
0439
04ea
0466
0486
047e
04e5
0496
0427
0456
049f
04f7
04ee
4abb
4a91
4a68
4a2e
4ae5
4a59
4a2b
a7ed
a768
a7fb
a7a0
a72c
a7f2
a7b3
a7ef
a730
a7ac
a73a
3381
3376
3321
33d8
33fb
334f
339b
3326
3323
33ae
37b9
37b2
37fc
37ce
37cb
37d0
378c
79ed
7952
79f3
79a6
7968
794f
7926
7946
793d
790d
765b
7645
76d6
765c
7657
768f
7674
76d7
7693
768d
7680
763b
76bd
76b7
7606
11de
1173
1120
11fc
117e
114b
11ae
110b
11b7
3860
38b9
381f
3810
3899
38e2
3890
38f8
3889
38b0
380f
31cc
3120
3151
3174
31dd
314b
31b4
31d7
3149
312f
31ef
310b
31b0
3104
4e50
4e69
4e62
4eaa
4e52
4e6e
4e38
4e9d
4e28
4e36
4ed6
4eba
4e40
4e9a
4ed7
4e5f
4ef1
4ebd
4eef
4e13
4ef7
4e42
4ea7
2a62
2a9d
2a47
2a74
2aa1
2ae2
2a9c
2a12
2a3e
2aa2
2a1b
22ff
224f
2275
2226
224b
229a
2218
a50a
a569
a5ff
a563
a551
a56c
a536
a55c
a54d
a575
a55e
a524
a5dc
a5c2
a5a2
5bed
5b4a
5bf5
5b6a
5b4c
5ba4
5bfd
5b92
5bb5
5b51
5b43
5be9
5b26
5bdd
5b3c
5bf8
5b14
5b89
5b3d
5b7d
5bd4
5b13
5bee
5b8c
5bd3
817b
81fe
814f
8129
8127
81dc
8114
8189
8130
81b0
8107
6e61
6e4a
6e52
6ef3
6efd
6ec9
6e51
6eea
6e2c
6edc
6e1a
6e5f
6e0c
9091
9065
90b9
90fb
90bf
902e
909a
90d9
90c5
902d
902b
bb98
bb64
bb5d
bb72
bb83
bb40
bba1
bb3c
bb87
bb84
bb90
bb17
bb82
bbf1
bba3
bb1b
bb1c
bb0e
7b6e
7be8
7b10
7b7f
7b75
7bf2
7b02
7b0d
39f5
3945
3977
39d7
3990
398a
39e0
39c4
3988
39cd
39b0
3942
645b
64f5
6434
6447
644d
647f
6474
644b
649e
646b
64c5
6423
517b
5191
51fe
51a6
51d8
5163
5154
5166
519a
51c0
5171
5117
5112
51ee
51ca
51a9
6301
6376
6355
632a
63fe
63da
6328
6339
6366
637f
6374
632e
63e5
6325
633c
6388
63d2
63c3
6305
526e
524c
52d6
525c
527a
5257
5275
5297
52d7
521e
5284
525f
528a
52ad
52b1
52f7
5209
521c
5206
34bb
3481
34a4
3441
34a1
3449
34a5
34e3
3446
34c1
340b
3406
36ed
3676
3692
3641
3636
36dd
36c5
2898
28b9
281f
28bf
2899
2883
2840
28dc
28e2
28ce
28bc
28df
28ae
2813
28d2
28f7
280c
a42a
a4fe
a453
a465
a443
a44d
a479
a4e3
a489
a43d
a4d2
a669
a64e
a698
a621
a69d
a648
a686
a67e
a6fa
a69f
a68a
a6be
a62d
a688
a612
a615
a619
0973
0981
0977
094c
0963
099b
094d
0966
0978
09dc
095a
0984
09bd
09cd
0904
8092
8051
80b6
8097
8096
804b
805a
802b
80c1
80ef
5ebb
5e61
5e52
5e6e
5efb
5e5c
5ece
5ef6
5edf
5e19
febb
fe20
feb2
fe72
fe79
fe25
fe5a
fe46
fee4
febe
fe0c
2d70
2dfe
2d6d
2d35
2da5
2d27
2dc4
2dae
2d2b
2dd4
2de7
2da3
2d09
9732
9753
9754
9766
972c
978e
975f
97f1
9788
97d2
9730
97ab
5d69
5d65
5da4
5d5d
5dd5
5d02
5dd7
5d27
5d90
5d17
5d9c
5d3b
5dc3
5d1d
5d1c
654a
6547
652c
6599
657e
6556
65cf
6530
6516
65ca
e873
e8aa
e891
e87c
e8b9
e840
e8a1
e885
e888
e808
fd7c
fd70
fd65
fda4
fdf0
fd22
fdd5
fddd
fdba
fdfa
fd9e
fddc
fd17
fdc6
fdb1
fd0c
1082
4ccc
4c43
4cec
4cb6
4ca5
4c27
4cbe
4cc7
4cbd
2491
2441
24fb
246d
245c
24e1
2475
24d5
24dd
24ba
24a8
242f
2484
24f8
2412
24a3
24ee
24c2
916f
914a
9170
9134
9147
916d
91a0
915c
91e1
9175
9186
91b4
9159
91e4
91c4
9116
9115
911c
1e7b
1e2a
1e39
1e4d
1e66
1ef0
1e79
1ece
1e9c
1eb8
1ea3
1e11
1ea9
1e1c
1e04
1d4e
1d6e
1d33
1da4
1dd8
1d51
1db6
1d79
1da1
1de2
1de4
1d88
1d12
1d3e
1d1d
1d1b
1d0d
0c4e
0c5b
0c7c
0c70
0c6e
0cda
0cb5
0ce3
0c5f
0c85
0c13
0cc3
0c04
41a0
4175
4179
416b
41f6
41ae
417d
411b
4119
410c
2969
2981
2932
294e
2991
292a
2992
2983
2925
293c
29bc
29f1
29eb
29a2
535d
5310
53e5
5379
539a
53a1
53c0
53e4
5323
53bd
533a
530c
136f
1361
1398
135c
1325
1359
13b1
13df
13f7
13d0
13ca
130e
140a
1455
1477
1434
14f2
1402
1427
14c7
14e7
14b8
1407
d964
d9b9
d963
d9b5
d96d
d95c
d91a
d98a
d9ad
d913
d9b7
8dc9
8d39
8d2c
8d7e
8de3
8de2
8dcf
8d9c
8dbc
8dbe
8dc7
8dd4
43f5
4377
4368
43d8
4331
4310
43ec
43d5
439a
435f
43e2
43d4
433e
68aa
6833
6898
68b2
68a0
6829
68f9
6822
6893
6894
68f1
68cd
68ee
68c2
68ab
6d69
6daa
6d61
6dda
6db9
6dd8
6d35
6d29
6dfc
6d8e
6dba
6de3
6d5a
6d84
6dd9
6dcd
6dee
6d15
4b0a
4bfe
4b33
4b60
4b22
4bf2
4b1a
4b80
4be4
4bcf
4b88
4beb
4b13
4bd2
4ba3
4bee
4bd3
a169
a16e
a14c
a16c
a1e1
a14d
a166
a1ec
a126
a1a1
a171
a180
a18a
a114
a1f6
a1c4
a182
a1a3
a1b0
7571
751e
7517
7512
75b0
6a4a
6a55
6a6a
6a65
6a7f
6ab6
6a2f
6ad9
6ad3
6aa7
6aa9
ac91
ac5b
ace1
acd1
ac2f
acdb
ac17
ac8a
accf
acad
ac9c
acb1
ac2b
acab
776a
77a4
7734
7710
77f9
7772
7778
7756
7793
5a91
5a5b
5a52
5a77
5a21
5a20
5ad1
5ab6
5a96
5aa5
5a6b
5ae0
5af6
5ad0
5aee
5aac
26de
267f
2649
263c
26e0
260c
2604
3555
359d
3547
3586
35e5
355f
35b1
3594
35b7
0701
0750
076f
0753
0775
073f
07fa
0740
0702
07a5
078b
0787
07cf
07c1
b2fb
b25d
b24f
b27f
b299
b2d5
b297
b2dd
b2f2
b287
b2bd
b2e7
1f52
1f7c
1f77
1ffe
1f6c
1f39
1fe9
1fb3
1fe2
1ff8
1fcf
1feb
1f0b
1f0f
475b
472a
4777
4739
47d6
477f
47f4
4722
479e
4756
4717
47bc
47f1
47c7
4730
067b
0638
0647
06b5
0651
0643
067e
0602
06dc
0656
06c8
0614
06f7
0616
0609
0618
060f
f573
f565
f520
f531
f567
f5f0
f574
f5e5
f5f6
f5be
f5ca
f5c2
4d01
4d32
4d91
4d64
4db9
4db5
4dd1
4d22
4de5
4db4
4d27
4d82
4da9
f400
f498
f464
f4fb
f49b
f47a
f435
f4dd
f49a
f46b
f43b
f485
f4bd
f4b8
f406
3f69
3fb9
3f57
3f7f
3f4b
3f79
3f02
3f59
3f8a
3fe0
3f14
3f2d
3fca
3fa7
3fa9
3f0c
0b4a
0b52
0b92
0b51
0bb6
0b97
0b8c
0b09
5479
54c0
5485
542d
548c
5415
54a2
667c
6670
66e6
667f
66d5
6683
66b4
66e4
6689
663d
66d4
66c1
660c
7fde
7f2a
7f51
7f57
7fa1
7fd9
7ff6
7f15
7f05
9d4d
9daf
9da1
9ddc
9d93
9d71
9d19
9d18
12aa
1232
12cc
1270
1295
1231
12d1
12f4
1217
128a
9673
9669
9632
9620
9678
96c0
96ce
96c4
9612
1bb9
1b9b
1b7a
1b99
1b87
1b1e
1b14
1bb1
1bb8
1bd2
1bca
1b15
e676
e664
e68a
e616
e6d3
e642
e608
1670
16a6
1654
1666
1624
16dc
168b
16c6
1614
16ee
16b0
16ab
f165
f139
f129
f199
f175
f15a
f19f
f189
f1a3
f1b7
f11b
f10d
88cc
88c9
881f
8836
8831
8822
88f2
8884
882b
88cd
8830
88a7
8805
3b03
3b62
3bff
3b32
3b39
3b74
3bb1
3bdf
3b07
0f5b
0f21
0f51
0f8f
0f9e
0f82
0fa9
0f05
0f07
0daa
0d81
0d70
0df5
0d41
0d31
0de1
0df4
0d24
0de3
0d46
0dc4
0d7d
0d16
0d3a
0d09
0d0e
0d07
444a
4452
4443
4499
44d1
44fc
443f
44c8
44e4
4494
44df
4419
f303
f36f
f3ff
f391
f37c
f345
f368
f34f
f3e8
f3ea
f3c5
f38c
f3ca
e970
e963
e9b5
e902
e9dc
e9b3
e9be
e994
e923
e9ca
fc6a
fc60
fc41
fc47
fc39
fc54
fcea
fc2c
fcd1
fcf4
fcfc
fc74
fc7e
fce0
fcbc
fc3b
fcae
fcb8
fc13
fc0b
fc0f
fc0d
fc0c
fc07
3ef3
3eb9
3e6d
3e67
3eb6
3e2e
3eba
3ea1
3e5f
3ec6
3e82
3e94
3e12
3e18
2c73
2cfd
2c10
2c86
2c9e
2c8d
2cb3
2cc8
2cbc
2cef
2cee
2c8c
2c05
d852
d834
d87a
d857
d84d
d822
d87e
d8c8
d8df
d82b
d88c
d80d
726e
7247
7243
7286
728e
72a8
72fa
7202
72dc
728d
721e
728a
72ef
72f7
720c
85bb
854e
8534
8547
8539
8554
8529
852c
85e9
8526
8524
858b
8514
425d
429b
42f4
42dd
4202
42db
4280
42ce
42c4
4289
42d0
421c
4206
4901
4932
49fe
49a4
491f
499d
4963
49e8
4957
49d1
492e
4980
495f
49e2
49e4
4989
49c1
4930
49c2
4919
4918
490f
ad6f
ad62
ad45
add6
ad57
ad83
ad79
ad56
adc8
ad14
adbc
adbe
adb8
adf7
ada3
adab
8f35
8f02
8f24
8fc6
8f3b
8f0b
8f1b
8f0e
745b
741f
749b
74e1
743f
74dd
7479
7402
7459
74e2
74e4
74ab
740f
98de
9845
9877
9864
98d6
987a
988f
98dd
98ba
98a8
98ce
9894
98bd
98ac
9261
9232
9221
923c
92c8
928a
92f6
929c
9285
92c7
923a
92b0
920e
8900
8968
89f9
898f
89f0
895e
8925
8989
8982
897d
892b
8930
576f
57ff
5755
5752
574c
5734
5739
576d
577a
57d3
5742
571c
57ab
5707
7e7e
7e79
7ea1
7ee2
7ef8
7ec4
7ef7
7e3a
7e05
d10a
d170
d160
d134
d128
d163
d16d
d1d6
d1fa
d187
d1b3
d1c6
d1b1
5903
59de
5991
5920
5995
596d
5997
5972
59dd
5924
59a5
5987
59d2
59a9
590e
a803
a8aa
a863
a843
a899
a8ba
a825
a884
a889
a8b1
a8cd
a8ef
fb50
fb38
fbb9
fbb5
fb4f
fbd6
fb2c
fb7e
fb9f
fb80
fbad
fb9c
fbef
af64
af48
af44
aff0
afa8
af06
dab2
da6c
dae6
dae8
dad9
daf8
da1d
da09
daab
456f
45aa
4581
4552
456e
456b
4881
4876
487c
4847
4857
4810
48ea
4899
4874
4858
48f2
485a
481e
48e4
480b
4809
48a7
3a52
3a48
3ad6
3a10
3a8e
3a2e
3a7e
3a59
3a24
3ac6
3a9c
3ac5
3ac1
3a0b
3a08
8201
82ff
825b
825d
82ea
82f9
829a
8202
821e
82cf
82c1
82c3
820b
82ca
82c2
5860
5854
5866
583f
5825
58e0
587d
5f21
5f41
5f47
5f43
5f75
5f8e
5f5e
5fa8
5f4b
5f79
5ffa
5f25
5f27
5ff8
5f85
5fd4
5f88
5f13
5f8c
5f08
f9de
f9aa
f9fd
f928
f9ea
f974
f9e9
f925
f98c
f9b7
f911
f9a7
f91b
830a
8369
837b
834e
8336
83fc
83e9
83e2
8394
8388
8318
8305
bfed
bf91
bf52
bf6a
bf20
bf28
bfbf
bf57
bfa5
bfc3
2e60
2e6d
2ee6
2e57
2e6b
2e93
2e8d
2ea3
2e11
2e1b
b39d
b379
b3ad
b32b
e100
e161
e132
e1a6
e195
e1a0
e1d6
e102
e190
e1bd
e1eb
c16c
c1a0
c154
c1dd
c140
c19f
c1e2
c1c2
c461
c44d
c42c
c48f
c4f0
c4d1
c4ba
c4a8
c4dc
c4c8
c4d9
c4e4
c48a
c4c5
c4b1
c4a2
c4ab
6781
6732
67d8
674d
678e
67f2
67b4
6740
67e3
67dc
6771
678a
67f6
677d
3dde
3d73
3d77
3d95
3d57
3da8
3da5
3ddf
3d12
3da3
3d1b
5c0a
5c50
5ced
5c7f
5c3f
5c2e
5c9a
5c5a
5ce0
5c3b
5ccb
5cc3
5cd0
5c19
0ecc
0e63
0e51
0eb2
0e6c
0e35
0e10
0e66
0efc
0ee9
0ef6
0ec7
0ecd
0e07
b9f5
b95c
b9af
b997
b92f
b91e
b946
b9d9
b9c3
9b7b
9b74
9b02
9b59
9b49
9be3
9b71
9b8d
9b87
9b8a
9bc6
9bc1
9b18
9b05
9b07
8700
876c
877f
8749
87a5
87dc
879f
87bd
8788
ea62
ea4e
ea86
ea97
ea79
ea9e
eac8
ea3d
ea23
eaeb
eaca
fa45
fa31
fa7a
fa86
fa3f
fa2e
fa79
fa5a
faf8
fae0
fa14
fac5
fad4
fab8
faef
faa9
fa08
fa07
7a69
7a5d
7a67
7ae1
7aaf
7a8f
7a3c
7a84
7aad
7af1
7aef
7ab7
7a06
2f60
2fe8
2f35
2ffc
2f74
2f5a
2f6b
2fb3
2f17
2f3d
2fbd
2fc3
2f3a
2f1b
20bb
207c
20cc
20b2
206c
2029
204d
20e9
20ba
20c6
20f6
20c5
2088
20ef
20d2
20c3
15ed
15fd
15b5
156c
15ea
152b
15a7
1519
190a
1952
1992
19d8
1941
195d
196d
1979
19dc
1993
193a
1907
f601
f6da
f628
f65e
f625
f68d
f68b
f6b3
f684
f6ad
f6be
f613
8677
8643
8699
86d1
8674
865e
868d
86b1
86c3
8642
46de
46ff
4670
4677
4628
46b5
466c
46bf
4697
4683
46b3
46ae
46b0
2781
2722
273f
2797
2778
2779
2714
27c4
27cd
27ee
278c
2719
2718
c962
c953
c9f3
c96c
c943
c937
c9c5
c9eb
e36f
e373
e352
e32a
e368
e351
e37f
e374
e372
e39a
e346
e3ce
e3eb
e30c
257c
2568
25b9
25c9
2531
2537
254d
2575
25fc
258e
25d5
2526
2525
255f
25e0
25c6
25c4
259c
257d
2515
251b
2b52
2b60
2b20
2bb9
2bf9
2b7f
2b75
2b5f
2bce
2b94
2bd4
2bc3
2b16
2b1c
2b0e
a355
a364
a35d
a386
a396
a358
a3b4
a340
a31a
a3c8
a3f8
a3e0
a3be
a31c
a304
6c70
6cf3
6c38
6c64
6cb9
6cbf
6c6d
6cec
6cb6
6c4b
6cb4
6c9e
6c3c
6c1a
6c80
6cbc
6cb1
6c0c
6c04
3c52
3c53
3c4c
3cd8
3cb5
3cea
3c44
3ce5
3c90
3c09
6b62
6b39
6b5c
6bd5
6b26
6b58
6bf2
6b8d
6bc6
6b3d
6bdf
6b1c
565b
56cc
5670
5633
56b9
561f
564f
565a
568b
56ee
561d
f2aa
f261
f2c9
f26c
f2e6
f299
f2e5
f2dd
f258
f2c4
f2ad
f285
f22b
f2c3
f2a3
f20b
f215
f2a9
f205
f820
f8bf
f831
f85c
f896
f83c
f856
f817
f89c
f812
f8a3
d600
d648
d66d
d610
d65e
d69a
d61e
d680
d6ad
d6a9
d61c
d60f
a28f
a2cb
a2eb
93ed
9361
9333
9328
9363
935d
93a0
9336
935c
93e9
93db
9313
93d3
b40a
b4ed
b473
b4a0
b467
b440
b480
b4d9
b442
b418
b4ab
b40d
b40c
e776
e733
e7fd
e78f
e7ec
e774
e7c4
e7f1
e7a3
e71b
b6fd
b6fb
b6e8
b674
b696
b671
b6f6
b69c
b63d
b607
78de
787b
7881
7853
7834
78ec
788b
78b3
78e0
78f6
78bd
7813
7842
ab50
ab45
ab6c
ab29
abfa
abe3
abad
abc7
abc1
ab88
abca
7d98
7d35
7dfa
7d24
7d3c
7ddc
7d5f
7d8a
7dce
7db1
7d2d
7dd4
d39d
d328
d3e8
d357
d383
d384
d3ad
d3ef
d330
d3d3
1c38
1c9d
1c95
1c02
1c8d
1ce4
1c14
1c7d
1cb8
1c30
1c8c
1c1b
1c04
1c07
a052
a067
a0ea
a04b
a056
a0d9
a09c
a0c5
a02d
a0b7
d4ed
d432
d4fe
d4a6
d4d8
d495
d42c
d4b6
d43c
d4c0
d4e3
d493
d446
d4be
d4a9
8e0a
8e03
8e65
8ec9
8e02
8e56
8e9f
8e2b
dbff
db76
dbf3
db98
dbd8
db6d
dbe6
dbec
db86
db72
db7e
db96
db2f
db8b
dbce
db2d
dbf7
db05
ec95
ece6
ec8b
d70a
d776
d763
d76d
d778
d749
d7db
d79f
d782
d7f1
d7ef
d716
d71d
d719
d705
7162
7181
71d8
7126
7183
711a
71f8
713b
7123
712b
71e7
9f6f
9f76
9fd6
9f37
9f4d
9faf
9f9f
9fd9
9ff8
9f8a
9fce
9fbe
9f2d
9fa3
9fb0
9fca
9936
9954
9975
9926
993c
9993
9917
993d
993b
99d0
e2ff
e277
e220
e2d1
e2d5
e297
e23c
e25a
e29f
e2ce
e289
e282
e2be
e2ef
e21d
e242
ce00
ce76
ce9b
ce2c
ce3f
cec0
cecf
ce85
ced0
ceab
ce07
e400
e455
e4b2
e436
e486
e422
e48d
e41e
e4f8
e4ce
e4b1
e412
e4a3
e4ab
f78e
f7a8
f79e
f746
f723
f713
f7ac
cf03
cf91
cf65
cfda
cf1f
cff0
cffc
b1de
b198
b120
b139
b1ea
b16b
b1a3
b1ca
8434
84af
8424
84c0
8484
84d9
8430
84ee
dfde
df4a
df76
df54
df35
df86
dfba
df87
dfe0
dfbe
df2b
dfe7
dfef
df0b
df05
df0c
b500
b552
b5f5
b5a4
b5da
b541
b56c
b539
b567
b5fc
b58e
b558
b5a1
b559
b58c
b5a2
b519
9e0a
9eff
9e7c
9e33
9e39
9e5c
9e43
9eb4
9e25
9e9e
9edc
9ee2
9eb0
9e09
ba52
ba9a
ba71
bab3
ba17
ba89
ba23
ba13
c862
c891
c8cc
c821
c834
c854
c874
c87e
c840
c849
c884
c8eb
c81c
c808
8b45
8be1
8b7f
8bf4
8b22
8b80
8bb1
8b94
8bdf
8b0e
bd6d
bd5e
bdc7
bdbd
bda3
bdc2
ee62
eeaa
ee91
ee6a
ee64
ee1f
ee47
eebf
eed6
ee43
eeea
eee1
ee2e
ee78
eeee
c650
c673
c6a6
c67a
c65a
c690
c6be
c685
c67d
c61b
c60e
9af3
9ada
9a54
9ae1
9a4d
9ad5
9a24
9ae2
9a3b
9aeb
9aa7
9ac2
7073
705b
7045
7041
7083
70d9
70bd
707d
70d0
70ee
cb6f
cb41
cb6c
cb54
cb8f
cbec
cb83
cb1a
cb80
cbf8
cb89
cb88
cbac
eb62
ebff
eb65
eb41
eb31
eb7e
eb96
eb71
eb9f
eb46
ebe2
ebe4
ebbc
eb3b
ebf7
ebca
a9bb
a944
a9e1
a9a8
a9db
a98d
a99f
a9d9
a92b
a9d2
a912
a9ca
a90c
dd50
dd73
dd32
dd65
dd38
ddfd
dd47
dd8e
dddd
dd17
ddf6
ddc7
dd13
d545
d5c9
d5d8
d528
d56d
d5a0
d535
d57e
d5c0
d56b
d5c8
d590
d5d9
d5b1
d5eb
ae7b
ae61
aeda
aeb9
aee8
aef9
ae4d
aeec
aedd
ae02
aeb3
aed9
aee4
aead
aec3
ef4e
ef52
efb9
ef39
ef4f
ef84
ef15
ef08
bc50
bc5b
bc77
bc5d
bcea
bcec
bcb6
bc3b
bcb7
d234
d2b5
d239
d2ea
d2f0
d226
d256
d28a
d214
d23e
c36f
c3bb
c398
c3a4
c347
c336
c3d1
c3e5
c324
c371
c317
c3b1
c3be
c3b0
b86f
b877
b8a6
b8d8
b863
b831
b872
b8b3
b814
b8a3
b8d3
b8a7
b80c
9445
9448
944d
9472
94a8
949c
94b0
8a4e
8a70
8a77
8a4c
8aa4
8a20
8a68
8ac9
8abf
8aa0
8a2c
8af0
8a74
8ad5
8a72
8ab4
8afa
8a9e
8a84
8adf
8c73
8cbb
8c91
8cf5
8c33
8c68
8c41
8c7f
8ca5
8cf1
8cd2
8cb0
8c09
8c18
955c
9543
95e5
9596
95c7
95d4
9516
c76f
c7aa
c76a
c7a6
c7fb
c74f
c7f4
c73f
c797
c7e5
c726
c7ba
c756
c7b3
c73b
c709
c711
c71b
c706
e550
e577
e544
e57f
e53f
e5e5
e596
e583
e559
e527
e5f7
e58c
e518
dc60
dc68
dcd8
dce8
dc37
dca8
dc6b
dcbc
dcd2
dca7
cd7b
cdda
cd36
cde1
cd75
cde5
cdf2
cda8
cdb4
cde3
cd3d
cd94
cd7d
cd12
cd8c
cd3a
b733
b760
b765
b71f
b729
b775
b71e
b75f
b7ce
b7c7
b7e7
b7a9
9c70
9c34
9c9d
9c28
9c39
9c43
9c35
9c24
9cd7
9cb0
9c0f
9c05
cabb
ca5b
caf5
ca4c
ca64
cae5
ca02
ca1a
cabe
ca16
ca1c
c2ff
c2cc
c2a6
c29d
c24f
c28f
c2fa
c2cf
c2be
c294
c2d0
c21d
c2a2
6091
6095
6051
60ec
605e
60c8
6084
60e2
608a
60b1
60f1
607d
602b
60cd
c5a4
c5bf
c554
c52c
c5d1
c522
c55e
c5dd
c593
c53d
3050
3064
30ec
3074
30b3
30e4
30c7
30d4
30d2
f091
f053
f063
f05c
f0e8
f07e
f08a
f02b
f0ef
4052
402e
40e5
4049
40dc
407d
40c3
40b7
b0da
b024
b027
b0e0
b0f7
e073
e07c
e064
e095
e05d
e09b
e0ea
e0d5
e059
e08b
e094
e0d0
e0b7
d095
d048
d06d
d0ea
d0f0
d0fc
d02e
d0d9
d0b0
d0c2
c081
c0fb
c095
c05c
c0b6
c094
c0d3
100d
1007
501c
0a0f
0a0e
9000
8003
801a
801b
8017
8013
032c
2105
2109
500b
f00f
3004
300b
b00f
b00c
600c
700f
d00a
d007
0508
301d
4502
203b
d507
750f
250e
b506
8506
e502
503b
b032
f01b
4010
c015
6014
6015
601e
7015
7035
e013
f0ac
f036
40a5
803a
e0af
a03d
a037
c03b
c039
60a6
60a5
50ad
50a4
50a6
50a5
d03d
d03a
b0ae
c0a7
90a4
00de
00ce
00cf
009c
0132
0164
015d
01af
0186
01e9
01a5
0156
01c4
01e7
0188
01eb
01b7
0142
01a2
0832
0870
086a
08b5
0839
084f
0879
089f
08e2
0817
0814
0885
08cb
08b0
08c2
0a63
0abf
0a31
0ae6
0a37
0a99
0a8f
0a22
0ae3
0a8b
0a5f
0a17
0aeb
0391
0395
0343
0399
031a
039f
0390
03bd
03eb
0342
0315
03a9
031b
10de
104a
10fe
10da
1028
1051
10d6
1078
10fa
1059
10e2
10e4
10f8
10f6
10ee
1011
02ff
02bb
02aa
0220
02e6
02f4
0226
02a1
02a5
0227
02db
02dc
02be
02c1
170a
177b
1781
1776
172a
17ea
17e1
174d
17fc
17d5
172e
1796
17a8
17ad
17cb
1742
1850
18de
18a6
18a0
18e8
1857
184d
1866
1883
18d7
183b
18ef
7369
7381
7355
7352
73cc
7365
73bf
7331
7337
737f
73d5
739a
7327
733c
73b3
7382
73d0
730f
730e
2301
23a4
2392
235e
23e5
239a
238d
2317
23e0
230f
2308
de4c
de4f
de7a
de44
defc
deba
deb4
de79
de80
de5f
de17
def6
de94
deac
dec2
21aa
2161
2153
2121
2168
211f
21b5
21e8
218e
2140
213c
2180
2190
21cf
219c
21bc
2194
212b
21c1
2113
21a2
50ff
507b
504a
5057
5067
505e
5025
5023
5085
be45
be65
beb9
be6c
be9b
be10
be24
be49
be71
be80
be84
be5f
bed9
bee4
be14
bead
bebe
bec1
be13
61f5
61b5
61bf
6157
6167
61f9
6199
61b6
6159
6149
61a5
613c
61e3
618b
6187
6117
61b1
612d
61d4
61b8
6113
61c3
6116
61a2
6f61
6f70
6f92
6f1f
6f9d
6f63
6fd1
6f75
6fba
6fa8
6ff6
6fdf
6f42
056f
0576
0568
05da
0544
05e5
05b3
05e4
0517
05ce
05c5
05c1
05d2
aa0a
aa2a
aa45
aa92
aa37
aa72
aa7e
aa49
aa90
aaad
aab1
aa3b
aa23
aac2
1a7b
1a81
1a55
1afb
1a31
1aec
1a2e
1a46
1a90
1aad
1a3d
1a3b
ff6f
ffaa
ff81
ff52
ff6a
ff65
ff64
fff9
ff79
ff9a
ff2f
ff8b
ffce
ff3d
ff85
7cbb
7caa
7cfe
7c33
7c64
7c9d
7ca0
7c57
7cf0
7cb6
7cd5
7c7e
7ca8
7c49
7cdf
7cef
7ceb
7c1c
6903
6936
6910
69e1
693f
695e
6983
6925
692f
696b
69ce
69bd
693a
691b
cc81
ccb9
ccea
cc29
ccaf
ccec
ccba
cc96
cca8
ccfa
cc40
cc59
cc3c
cc9f
cce2
ccc7
cc18
cc08
ed01
ed50
ed6f
edff
edfe
edb2
ed4f
ede6
ed54
ed67
ed29
edec
edba
ed96
edb4
edc7
ed7d
edd2
edc3
eda3
eda9
62f5
6268
62c9
6234
6228
624f
6257
62fc
6278
6258
62a8
6279
62a5
6293
6271
625f
629c
62c5
627d
62b8
620c
4f7b
4f76
4f6a
4f36
4f67
4fea
4fe1
4ff9
4fb4
4fd7
4f56
4fc5
4f2d
4fd3
4f09
5573
5569
554a
5570
5598
5539
5586
5593
55f7
55d3
55a2
04b9
0424
04ef
0430
04a3
0411
04ab
4a45
4a60
4ab9
4a47
4ab5
4ae3
4a89
4abc
4af1
4a30
4a8c
4a19
a7bb
a761
a74e
a760
a7da
a7bf
a7e8
a767
a774
a7a1
a7dc
a784
a75f
a7e2
a717
a78a
a7c6
a7cf
a79c
a794
a7c1
a788
a718
335b
3352
332a
33a4
33fd
3334
33f9
33af
337f
3399
33ba
3383
33d9
33bd
337d
33ee
333e
33b7
33ca
3315
3755
374e
3765
3764
376c
3779
3759
371a
3717
373d
3794
37ca
3742
3719
370d
7973
79bb
7955
79fb
796c
7943
797a
7922
7978
79f2
794b
795a
795f
79cf
79a3
793e
793a
764e
7660
7668
76da
7610
767f
768e
765e
76ba
76b4
7671
76c8
762b
76cb
76f7
76a3
7619
1100
112a
1153
11fd
1128
11a0
1199
11ba
1124
1127
1171
11ac
113a
11ab
3865
38fb
3829
38d5
3823
38d2
381b
38ab
3806
31ff
317b
3153
3121
31a6
3128
31fb
316d
31d6
31f9
317e
31e5
3127
311a
3184
31f6
31c5
318c
3118
4e77
4efd
4e92
4e10
4ee1
4eec
4e87
4e17
4e9c
4ebc
4e82
4eee
4eb0
4e18
4e0c
2a0a
2a38
2ad7
2ac0
2a8a
2af1
2af7
2a16
2aee
2aa7
22f5
2233
2221
229d
22fb
22bf
2257
2278
227e
2259
221a
229f
22ad
2223
222b
2288
22a3
223a
22b0
a528
a5b5
a59b
a5e8
a52c
a574
a53f
a5bd
a58c
a5ab
5b50
5b53
5b64
5bda
5b29
5b87
5bc6
5bce
5bbc
5b05
8128
8139
81e1
8186
81a1
81d7
8117
81ce
81c4
8185
81b7
8104
6e81
6efe
6ea4
6e68
6ed6
6ee6
6eba
6e56
6e85
6e2d
6ea7
6e0d
90bb
90fe
9098
9044
906b
9087
90e0
90c4
90b1
bb77
bbda
bbc9
bbd8
bb28
bb7f
bb8e
bbdc
bbb8
bb30
bb3e
bb19
7b01
7baa
7b7c
7b6a
7b1f
7bd1
7b49
7bb3
7b90
7b8a
7b2b
7bd0
7bee
7b3e
7b07
3955
39b9
3986
39f2
3987
3917
393d
3985
39c7
646e
64fe
6498
6468
64da
649d
64e6
6457
6435
648e
643f
64ba
6479
64ce
64f1
64e7
64d3
6418
6406
6407
51fd
51c9
51b5
516d
51ea
5197
5178
5126
51fa
5159
5124
5127
511a
518d
5187
51e2
519c
51d4
5115
63de
63ed
6391
636e
6334
639d
63bf
63a0
634f
6310
6340
639a
636b
63b3
63e2
639c
633d
63f1
63cd
63a9
631c
52ed
5273
5221
5220
52ce
52c1
5213
520b
5242
520d
3462
3455
342a
3453
3428
3463
3451
3486
3478
34dd
34b4
34c5
34c3
3412
341d
364e
3645
3677
3653
3638
361f
3663
3622
363f
36b4
3640
3602
369f
36e0
36df
36c7
36d0
36ab
3605
28bb
2876
28cc
286a
2845
28fe
284c
28fd
284f
28e5
2825
28c3
283e
28b7
2811
280e
a44e
a491
a46e
a4f3
a422
a4b6
a440
a43c
a48b
a4cf
a485
a4c3
a4a3
a43a
a405
a6ff
a6fd
a6da
a663
a6ea
a68f
a697
a658
a624
a62f
a6d9
a694
a6d3
a61b
09de
0947
0931
0943
0974
0922
0902
0924
0971
09c6
09be
09eb
09d0
0912
09ac
0909
8069
8062
8061
80f3
80fb
806c
80dc
808d
8089
5e50
5e55
5e7c
5ee8
5e7e
5ea1
5edb
5ee3
5e56
5eb3
5ecf
5ead
5e2d
5e88
5eb0
5e09
5ec2
5ea9
5e04
fe01
fe69
fe60
feda
feb5
fe4f
fe36
fe43
fef9
fed1
fe8e
fe97
fed7
fe1e
feb3
fee2
fed9
fef8
fe14
fedf
fed2
fe3e
fe1d
fea2
fe05
fe04
2d01
2d73
2d53
2d21
2da4
2d6c
2d36
2d31
2d67
2df9
2d66
2d2c
2df4
2dec
2d22
2d3f
2d5e
2d83
2d3c
2d71
2d8d
2df6
2d9c
2d94
2d0d
9701
976f
97f3
9721
974f
975c
97cb
97d3
9708
9706
5d62
5dfe
5d33
5d20
5dfd
5d47
5db2
5df9
5d7f
5d2c
5d8e
5d22
5d3f
5d2e
5d79
5da5
5d56
5def
5da3
5d0b
5d19
6503
6564
65b5
65f0
6525
656b
65f8
6582
65bd
652b
65b8
653e
6518
e803
e862
e8fe
e833
e838
e828
e847
e87a
e83f
e87e
e817
e8c6
e89c
e8c1
e8b7
e8c2
fd03
fded
fd53
fdf4
fdb4
fdd7
fd9f
fd87
fdc8
fdbc
fd3b
fddf
fd2d
fd2b
fd30
fda2
fd19
1080
1083
4cde
4c6f
4c76
4cc9
4c54
4cf0
4ce5
4c5f
4ce2
4ce4
4cf8
4cf6
4cdf
4c2b
4cb7
4c18
24aa
24f3
2464
24c9
24b2
24e6
24f0
2472
24e5
2458
24db
243b
247d
24b7
24a9
2408
2407
916e
91f3
914c
9128
912e
91f2
9102
912f
91b1
91cb
91ef
911b
910f
9108
1ebb
1efe
1e60
1e20
1e95
1ed1
1e02
1e9e
1e6b
1e8b
1e7d
1e42
1eab
1e06
1d2a
1df3
1d95
1d6c
1d37
1d57
1dd5
1d97
1ddc
1d71
1d8b
1d80
1d17
1dc4
1dc5
1da3
1d18
0c4a
0c32
0c4c
0c38
0c54
0c8b
0c82
0c09
0c1b
0c19
4162
4192
416c
4139
4126
41f2
41b4
41dc
41f8
2960
2934
296c
2931
2958
2956
2993
29e4
29cf
297d
29d0
298c
29c2
2905
5364
53da
53fb
5351
536c
5343
5366
538f
5374
5383
5356
533d
53d0
53ac
1303
1350
13cc
136a
1366
1399
1397
1340
132d
1315
1450
14bb
1476
1428
1479
1471
14c8
14cf
1489
14bc
14df
14f1
1412
d969
d9a0
d931
d9e6
d957
d9f0
d996
d94b
d979
d993
d91e
d9e2
d917
8d81
8d4a
8d77
8d33
8da4
8d64
8dda
8dbf
8da0
8d36
8de1
8daf
8d3c
8d8a
8dc1
8d3a
8dc2
8dab
8d05
4352
43da
436d
43a0
43d1
4322
435e
437e
4340
43a1
4327
43e0
43be
43df
4323
43c7
43d2
4316
438c
4305
430c
680a
686f
684c
681f
68b5
689b
6866
68e9
6883
684b
6871
688d
68e4
6817
6889
687d
6888
68f7
6d73
6d32
6d21
6dc9
6d51
6d5d
6d43
6df9
6d97
6d5e
6ddd
6d79
6d59
6da5
6dc0
6dbc
6d88
6da3
6d8c
6d3a
6d0c
4be6
4b9b
4b66
4b7f
4bb6
4b78
4bdd
4b4b
4bb4
4bdb
4bb3
4b82
4bb1
4b2d
4b16
4bd0
a14a
a155
a170
a177
a11f
a148
a13f
a1dd
a196
a19e
a193
a19f
a19c
a1bc
a13b
a115
a1a9
7555
751f
75bf
75e6
75a1
758a
75df
7523
752d
757d
75b8
7542
6a7c
6a77
6a38
6a95
6ad6
6a58
6af2
6a49
6a90
6a17
6ac6
6af6
6a12
6aee
6a06
ac4e
aca4
ac34
ac1f
acf4
ac83
ac80
acbe
acd4
acf7
ac12
7769
7781
77da
7747
7736
779b
7767
77a8
77a5
771a
7780
77c8
77b1
77ae
77c2
771b
77ab
770f
7704
5aed
5af3
5a92
5a47
5a5d
5a67
5a4d
5a8e
5ad7
5a87
5a14
5abc
5a3b
5ab7
5ac2
267b
267c
26cc
2633
2692
2664
269d
26d6
2610
2656
268b
2614
26ee
26ac
26ab
3503
3562
3541
35bf
35a0
359b
357a
35f0
3574
359a
35d7
359e
3514
35bc
35b8
35d2
0791
077c
0770
076e
07c9
07d8
07bf
0736
0758
0779
0749
07dc
0756
0780
07d9
07ce
07c4
073d
07be
07ae
07d2
070b
b281
b22a
b24c
b298
b221
b26c
b2e8
b2a5
b22f
b23c
b22b
1f5b
1f31
1f54
1f29
1ff9
1f66
1f5e
1fb4
1fd9
1f7d
1fee
470a
476f
47aa
474c
4734
47b5
474f
479b
4799
473f
4779
47d7
472f
478b
4790
4713
470b
4707
060a
0669
0655
0632
0670
0660
0668
06d8
06d6
0644
06f4
06db
0687
06e4
06bc
062d
06a7
f562
f56a
f5b9
f5b2
f548
f535
f53f
f5dd
f583
f5c8
f5b8
4d69
4d52
4d65
4d41
4db6
4d78
4ddd
4d6b
4d9f
4ddf
4dcd
4da3
4d05
f438
f49d
f428
f436
f48e
f426
f4b4
f4e3
f488
f4d2
f4c3
f409
f405
3fbb
3f52
3f6d
3ff0
3fb6
3f49
3f2f
3f1a
3f1e
3f82
3f88
3f08
0bcc
0be6
0b43
0b67
0bf9
0b7f
0b99
0bd1
0bec
0bd5
0bf2
0b56
0bd9
0b9c
0bb0
0ba7
0bc2
546f
54aa
5457
5483
5494
54eb
5405
6669
66f5
66f3
6620
6634
66d8
66a0
665c
6643
6637
6657
663f
6640
6624
663c
665a
66bc
66df
66ef
6630
6642
6605
7f32
7f60
7f4f
7ff4
7f59
7f87
7fb3
7f90
7f17
7f7d
7f8c
7f09
9d69
9d5b
9d7c
9d70
9d47
9de6
9d29
9d74
9d72
9d5a
9d3e
9dca
9d0c
12bb
125b
1275
1222
1202
12dc
1256
12f7
9677
9663
96b2
9644
962c
9625
9617
96f8
96be
960b
963e
960e
1b4e
1b64
1bb5
1b29
1b75
1bec
1b25
1b1a
1b8b
1b8a
1bbc
1b13
1b08
1b04
e6f5
e677
e692
e6b9
e6d6
e635
e64d
e672
e62e
e6c6
e6b1
e6be
e694
e685
e6c3
e6b0
e61c
e605
e607
1650
16ff
1676
1692
1628
16fb
16b5
164f
1637
168e
16d5
1696
1659
1649
161e
1689
16f1
16eb
1606
f181
f121
f120
f1b9
f163
f148
f1af
f13f
f19a
f1c0
f171
f18d
f1cd
88de
8860
8898
88bf
888f
88dd
8802
88e4
8816
88d0
8812
88ee
880e
8808
3b7c
3bfe
3b53
3b31
3be6
3b35
3b22
3b97
3b78
3bba
3b4b
3bfa
3bc0
3bd0
3b3a
3b0c
0f01
0f03
0f7b
0ff5
0f6a
0f77
0ffe
0fb5
0f75
0ff4
0ffc
0fe5
0f49
0f8d
0fe2
0fd4
0f0b
0fc2
0fa2
0d4a
0d4e
0d4c
0d34
0d9d
0d47
0dfb
0d95
0db2
0dea
0d2c
0d3f
0d79
0d49
0d3c
0ddc
0dad
0d85
0dc7
0dbd
0def
0df7
0dee
0db7
0dab
442a
44a4
4434
4448
44d6
44f0
4424
442f
44dc
4484
44c6
44ad
4430
440d
f352
f365
f334
f38f
f35e
f383
f32f
f387
f3f6
f3c3
f318
e901
e90a
e9fb
e96d
e9f9
e9af
e95e
e99f
e95f
e93d
e9c1
e9eb
e918
fc76
fc21
fc65
fc5e
fc4b
fca1
fc49
fcc1
fcb0
fc1d
fc11
fc18
3e69
3ef5
3e98
3ea6
3e31
3e7a
3e4d
3e8f
3e79
3e59
3e1a
3e8b
3ed9
3ee0
3e89
3ebc
3ec5
3eae
3e88
3ed0
3e0f
2c7b
2c61
2c4e
2c91
2c5b
2cf5
2c68
2c47
2c4d
2c75
2c74
2c96
2ca1
2c27
2ce3
2c8b
2c46
2cf8
d803
d8ff
d8f9
d8af
d8f0
d8e5
d879
d82f
d81e
d8e4
d83b
d894
d8a3
d8b0
d8ca
d8a7
d8a2
d819
d818
d807
720a
7262
72ff
7239
727f
72fc
72e9
72ce
72ad
72b0
72c2
72a9
8598
8568
85fb
85a8
85a5
85dc
851e
857d
85b8
85eb
8519
4203
4276
4232
4234
42bf
4231
42e8
4229
422e
421e
42e4
427d
42eb
4230
4216
4903
494c
49fb
496c
4931
49ea
4929
497f
4922
49b4
4949
492f
499f
49d9
49f1
49bd
49d4
49a3
490b
adbb
ad76
ad70
ade8
ad37
ad67
adf4
ade9
add7
ad8b
adae
8f01
8f03
8f7b
8f61
8f91
8f6e
8f64
8fd8
8f28
8fb5
8fb4
8fdc
8f56
8f1a
8f8b
8fb1
8f0f
8f04
7476
7491
746a
7464
74b9
74d8
747a
7486
74e9
74a5
74e3
74d9
74c4
7488
7430
74f7
740b
74d3
741c
7404
986f
98ff
9861
98f3
98da
9847
9851
98a0
982c
988e
98e9
9840
9893
98c6
98b1
98a3
98ca
98c2
980e
920a
92ed
924a
924e
925b
92cc
92f5
92fb
926c
92d6
929b
9266
9274
9258
92ce
92cf
9289
92d2
92ab
920c
8932
89c9
8941
89fb
8963
8951
89a1
8927
89f8
89d2
8912
8906
5773
5781
5732
57fd
579b
5754
57e8
5737
57af
5774
57dd
57f2
5717
5785
573e
570f
7ea6
7eb9
7e51
7e67
7e72
7efa
7e3c
7e6b
7e71
7ecb
7eab
7e0f
7e08
d1ff
d17b
d16e
d1c9
d148
d137
d157
d18f
d156
d18d
d1f1
d1eb
d130
d106
5950
5941
5935
59af
59b6
5940
59c8
5990
59be
59e7
a8de
a8ff
a86a
a834
a828
a8b2
a848
a829
a886
a896
a8a8
a859
a83c
a8d9
a80b
a842
a815
a8a7
a806
fbde
fb73
fb33
fb53
fb98
fb64
fbd8
fb28
fbaf
fb8f
fbd1
fb74
fb96
fb59
fb1e
fb8a
fbcd
fb16
fbd0
fbac
fb04
af76
af55
af45
affe
af65
af34
afe8
aff2
afb4
af02
afe0
af14
afc7
afbd
af2b
af18
af05
da6f
da21
da92
dab9
da34
dabf
dad5
da72
dab4
dafa
da59
da49
dadb
dadc
da6b
dacf
da85
daf1
daf7
4533
4521
4520
459d
45fb
4551
45f0
458e
4574
45e5
4580
45b3
45e4
4517
45c6
4523
45cd
45a2
4869
4862
4855
4853
4860
48b2
48d1
48f4
48e5
48a5
4827
48db
48d9
488a
48ce
4885
48c7
48ac
4815
48a2
48a9
480c
4804
3a0a
3a81
3afe
3a95
3ab2
3a6c
3a54
3a78
3afa
3a3c
3adc
3ae2
3a14
3ad4
3acb
3a30
3a15
8203
824c
82da
8210
822c
8296
8217
822b
8230
820d
820e
586e
5877
5838
581f
58b2
587f
58d7
589e
581e
582b
588c
58d3
5807
5f81
5f61
5f77
5f36
5fe8
5f7a
5f57
5faf
5f8f
5fdd
5fa1
5f5a
5f8b
5f84
5f17
5fb8
5fb0
f903
f9ed
f973
f952
f92a
f9fb
f937
f9e1
f986
f98b
f9e2
f9d9
f9c5
f9e7
f93e
835b
83f5
8353
83a0
835c
8354
83b6
8383
8302
83a5
83c3
83b7
830f
8306
bf00
bf73
bf4e
bf33
bf64
bfda
bf5d
bf31
bf5c
bf54
bf29
bf4b
bf27
bf1d
2ebb
2e61
2e4e
2e91
2e7c
2e21
2ef4
2efc
2e3f
2e78
2ea1
2ea5
2e2f
2e5a
2e89
2e2b
b36a
b321
b368
b36c
b329
b37f
b38f
b3ec
b3e5
b326
b3b4
b3fa
b33c
b3b3
b3e4
b3cd
b3c3
b3b7
b315
b318
e101
e165
e1f9
e1f0
e1ec
e122
e1ba
e196
e1a8
e14b
e127
e193
e184
e1c5
e1c7
e112
c176
c19d
c14f
c136
c17a
c166
c1e5
c1d7
c127
c1ad
c1b0
c1a7
c469
c46a
c477
c4a4
c438
c4fb
c431
c4f4
c4d5
c4dd
c489
c423
c42b
c4cb
c4a3
c40b
c4b7
672a
676a
67fd
67b2
677f
6796
67a5
6787
675f
6705
3d4e
3da4
3d38
3dda
3da0
3d36
3d5c
3d54
3d66
3df4
3d86
3d74
3d72
3d40
3d2f
3d9f
3dcf
3d2d
3d2b
3dd0
3dee
3d0b
3d3a
3db0
3db7
5c70
5c45
5c77
5c98
5c21
5c92
5cb9
5c5d
5c31
5c10
5c29
5cf4
5c22
5cd5
5cf2
5c71
5c85
5ca7
5c1b
5c0e
0e4c
0e98
0e65
0eb5
0e9b
0e4d
0ea8
0edb
0ee3
0ec5
0eae
0ea3
0e19
b901
b955
b9f3
b96d
b943
b935
b929
b975
b9dd
b99e
b9dc
b99f
b9e2
b9f6
b9bd
b9cd
b9d3
b90f
b906
b904
9b0a
9b7c
9b70
9bbf
9be6
9b7a
9be1
9bec
9b7e
9be9
9bd7
9bc8
9bcf
9bf6
9bd4
9bd2
87f3
87b5
876d
8702
8787
8780
87c6
87ad
87f1
870f
8706
ea01
ea91
ea43
eaf9
eae3
ea1e
ea88
eab8
ea13
ea30
ea3e
eab0
eaab
ea08
ea06
faf3
fac9
fa47
fa39
fa99
fab6
fa97
fab4
fa59
fa24
fa49
fadb
fa5f
fa46
fac6
fa16
fa8c
fa1d
fa42
fa11
fa15
faa7
7a55
7ada
7ad8
7a6d
7a54
7a37
7a66
7aec
7a02
7a56
7a8a
7ad4
7ab8
7aab
7a0d
7a05
2f6a
2f21
2f34
2fb5
2f54
2f29
2f8f
2fd0
2fee
2f15
20ed
20f5
2077
20f3
2098
20fd
20d8
20e1
20d1
2024
206b
209f
2087
2080
20f8
20eb
208c
1569
15f5
15a6
1565
1568
1551
1536
157a
158f
1574
1578
15dd
155a
159c
1523
1516
1901
19ed
1962
1976
194e
19f3
1920
1936
1937
1966
19f0
1974
1983
199e
199f
19bc
19c5
19b1
192b
19d2
1930
1912
198c
19a9
f681
f691
f6a4
f654
f657
f6d5
f679
f624
f6db
f66b
f6eb
f6d0
f63e
f6d3
f615
86ed
8655
866e
8653
8621
86b9
861f
866c
86a0
86d6
8610
86fc
863f
8678
86dd
8649
8617
86c6
8689
86c5
86df
86eb
86a3
86ca
8606
4633
4660
4665
461f
4647
46b2
465c
4635
462c
46f4
466b
4671
461e
46f6
4616
4642
4605
2791
27cc
27f5
276a
27f3
2738
2751
27bf
2744
27f4
2774
2726
27b4
2749
275f
27d9
279c
2723
27ae
27c3
270b
27ca
27a9
270e
2704
c90a
c991
c9a6
c9e8
c97a
c9f9
c9f0
c9ec
c9a1
c924
c971
c946
c93d
c9b7
e30a
e350
e34c
e3e8
e3d1
e322
e325
e35f
e3e4
e3ae
e313
e330
e3d3
2550
2545
2598
2554
2544
2578
251a
2589
25ad
25bc
2511
25a2
2bde
2b5d
2bbf
2b10
2bf0
2b2f
2b1a
2bc8
2b9c
2bc5
2b23
2b30
2b11
2b1b
a30a
a3de
a369
a3bb
a391
a37c
a333
a360
a334
a39d
a328
a3e8
a310
a3e1
a374
a37e
a383
a302
a385
a312
a30e
6c81
6c20
6c47
6c43
6c7a
6ca1
6c27
6ce2
6cc4
6c1d
6c11
6c06
3c03
3cf3
3c60
3ca6
3ce8
3c26
3cd7
3ca5
3cc0
3c82
3ce7
3c30
3c3a
6b7b
6bf5
6bfe
6b65
6b34
6b5d
6b8e
6b74
6b25
6b8b
6b46
6bce
6b94
6b2b
6bd0
6b12
6b0b
6bb0
6b1b
6b04
5645
5677
5641
5654
5667
5644
5675
56f2
5640
5671
569f
56ad
56ae
5616
f245
f2fe
f221
f292
f295
f2e8
f2fc
f2d7
f2a5
f22f
f25a
f21e
f2cf
f23d
f2be
f2ae
f2bd
f23a
f2b0
f218
f20d
f20c
f8ff
f855
f860
f8a6
f89d
f8ea
f8e1
f8fc
f8f2
f825
f8f8
f8c4
f80c
d655
d66a
d6e6
d643
d64d
d67e
d6e5
d6c8
a232
a24e
a2f5
a2da
a27a
a2d1
a28e
a280
a2d9
a2c4
a289
a2be
a2ae
a27d
a2b8
a2ef
a2ca
a21b
9398
9368
93bf
9331
93e1
9366
93f0
9375
9397
9387
939c
9394
93cb
93ef
9312
93ca
93ab
930e
b46f
b44c
b42e
b4b3
b414
b48c
b4b7
e7da
e7b9
e79d
e763
e751
e73f
e7e5
e771
e717
e7f6
e789
e73d
e7ae
e77d
e7c1
b600
b66f
b64a
b66e
b62a
b66a
b638
b6a0
b636
b65c
b68a
b682
b6c5
b6b1
b6ae
b6d2
b60b
78bb
7861
784a
78cc
7833
78a6
7838
78fd
7841
78e8
78f0
78fc
789a
7825
781a
78cf
78eb
7815
ab4a
ab53
ab74
abe9
ab79
abc4
ab94
abe7
abef
abf7
abd3
ab09
ab0c
7ded
7d7c
7de6
7d57
7d8f
7d3f
7d72
7d5e
7dc0
7de3
7d9c
7dae
7d3e
7dc2
d3ff
d3bb
d332
d3d8
d336
d310
d3f0
d3b4
d325
d3e0
d33e
1c7b
1c91
1c52
1c2a
1c98
1c37
1cf9
1c99
1cd5
1c7e
1c26
1c79
1c93
1ce2
1cce
1ccf
1c82
1ccd
1c3a
a055
a045
a098
a0fd
a096
a0dc
a08d
a0c6
a094
a023
a0b0
d403
d4e6
d410
d47e
d483
d41e
d442
d4a7
d404
8e50
8e32
8efe
8e92
8e68
8ebf
8e43
8e44
8e29
8e8e
8e79
8e25
8e27
8ec0
8e8a
8ec4
8ebd
8e7d
8ea3
8e15
db2a
db38
db28
db41
db5c
db66
dbd1
dbb6
db58
db83
dbdb
dbe4
dbf8
dbc5
dbd2
db3e
dbca
db15
ec98
ec2c
ecd5
ec9a
eca5
ecb3
ecbd
ecef
ec13
ec3e
ec42
ec18
d734
d7ec
d7a8
d74b
d71a
d71e
d789
d73d
d7d4
71bb
7132
7152
7168
7147
7136
7167
71f9
71ec
71fc
716b
715f
71e2
71c7
71b0
7104
9f21
9f38
9f6c
9fbf
9fd1
9ff4
9fb6
9fe5
9ff2
9f4b
9f25
9fb1
9ff1
9feb
990a
996f
994e
997c
9977
99b9
99d8
996c
996d
99e1
9922
99f6
9982
99c1
e200
e238
e2b9
e26d
e2d6
e296
e2d7
e217
e2b1
e230
e2a3
e2d3
e2ab
ce50
ceff
cef3
ce28
ceb5
ce39
cea0
ce40
ce2f
cedc
cebd
ceb8
ceee
ce8c
ce1b
ce08
e401
e47c
e464
e4d6
e467
e47f
e475
e4f4
e4dd
e424
e471
e48a
e4c6
e4c4
e489
e43b
e430
e40b
e4ca
f70a
f76f
f795
f7b2
f7e8
f75e
f771
f71a
f7ef
f716
f707
cf01
cfbb
cf4e
cf34
cf41
cf6c
cf86
cf5e
cfdd
cf9a
cfc6
cf3b
cfee
b173
b14e
b195
b163
b1b2
b1bf
b135
b1f9
b14d
b17f
b12c
b149
b1d9
b1f8
b1e7
b11d
8465
8438
8451
8443
8466
8478
8479
8490
8489
84bc
8482
847d
8416
8409
840c
df32
df33
df4c
df21
dfa4
dfda
df1f
dfb5
df66
dff4
df96
df40
df3d
df85
dfbd
dfcd
dfcb
df15
dfc2
df0d
b533
b553
b538
b5d8
b528
b54f
b531
b566
b5d1
b540
b5a5
b5db
b580
b5c1
b513
9e2a
9e53
9ef3
9e9d
9e28
9e74
9edd
9ef6
9ead
9ecb
9eac
9e42
9e15
9e07
ba61
ba60
ba92
ba64
ba10
ba26
ba3c
ba93
ba1a
ba5f
ba0b
baa9
ba18
c898
c8d8
c8bf
c836
c831
c85c
c89b
c837
c867
c88e
c8ba
c858
c8b1
c8c3
c8b0
8bed
8b32
8bcc
8ba6
8b65
8bb5
8b43
8be8
8baf
8bfc
8bdd
8b27
8b71
8b8d
8bd9
8b3b
8bbe
8b06
bd4a
bd6e
bdfe
bdb2
bd43
bdf2
bd83
bdf1
ee55
ee52
ee34
eefb
eeb5
ee39
ee36
eeaf
ee58
ee9e
eee3
eedf
eef1
ee0b
ee19
c603
c632
c65b
c6cc
c660
c621
c636
c626
c658
c683
c6c0
c646
c68a
c615
c60d
9ade
9a62
9a20
9ae8
9aea
9a7f
9ad1
9a59
9a9c
9abc
9ab1
9a7d
9ab8
9ad2
7076
7070
70fe
70f3
7098
70d8
705c
7096
70c8
70c5
70d2
70d3
cb01
cb38
cb34
cb28
cb95
cb51
cb5c
cb43
cb7a
cbf9
cb8e
cba8
cb6b
cb90
cb14
cb82
cb3b
cbcd
cbcb
cb3a
cb42
eb4e
eb7c
eb53
ebfd
ebda
eb48
eb36
eb5c
eb9b
eb99
ebb4
ebc4
ebad
eb7d
ebd0
eb8c
eb07
a950
a9ed
a92a
a9f5
a9d8
a957
a9dd
a958
a959
a91a
a91e
a946
a9f8
a9f6
a9ae
a92d
a9b8
a9ef
a90f
a90e
dd51
dd39
dd5d
ddbf
dd5c
dde1
dde5
dd58
ddfa
dd1e
ddcb
dd1d
dda7
dd0d
d5aa
d5b5
d536
d5f9
d526
d5db
d593
d5c6
d5cd
d530
ae01
ae52
aefb
aed6
ae44
ae75
ae72
aeb4
ae79
ae9f
aeae
aec7
aeb0
eff3
efa0
ef9b
ef2c
ef24
ef17
ef8a
ef2b
efeb
efab
ef0f
ef06
bc6f
bc73
bcfe
bc65
bc1f
bc9d
bcb5
bc51
bcb2
bcf0
bcd1
bc97
bc9a
bc9e
bc27
bcdc
bc71
bc1e
bce2
bcb1
bccb
bc19
bc04
d255
d252
d22a
d2fe
d221
d263
d2d6
d257
d2f9
d2af
d22c
d275
d274
d22e
d249
d2c8
d2df
d2ae
d2c7
d2bd
d2eb
d213
d2a7
d2a2
c301
c345
c3f3
c3d8
c341
c339
c367
c329
c35e
c32e
c3f2
c3dc
c3c8
c3ce
c3c4
c33b
c3ee
b87b
b85b
b87c
b82a
b895
b8fc
b8b4
b840
b827
b83c
b81a
b8e2
b8a2
9461
94f5
9433
9468
94fb
94b5
942c
94fc
9478
94b4
94e3
9414
94f6
9423
94e7
94c3
94d0
8a6a
8a45
8a95
8a39
8a35
8ad1
8ab6
8aa5
8a5a
8a80
8ace
8a9c
8ac5
8aca
8a18
8a06
8a04
8c55
8c77
8c4c
8ca6
8c6d
8cf9
8c2c
8c86
8ce9
8c2f
8cdb
8c87
8cae
8c88
8c15
9550
9569
9539
95ec
95b4
959f
95f6
95df
953e
953a
c732
c72a
c798
c751
c748
c757
c72c
c778
c7a5
c7c0
c771
c7e2
c78a
c7ce
c7f6
c7b1
c7c3
c742
e500
e501
e50a
e598
e5b9
e51f
e5d8
e5b2
e5af
e579
e540
e53c
e5be
dc0a
dc2a
dc6a
dcc9
dcfb
dc36
dc31
dc9b
dcfc
dc8e
dc96
dc9a
dc49
dc56
dcc6
dcad
dc23
cd01
cd50
cd52
cd33
cdf3
cd2c
cda5
cd87
cd1e
cde0
cdc4
cdb7
cd1d
b7de
b75d
b7f9
b7fc
b786
b774
b702
b793
b787
b7df
b71d
b707
9c2a
9c6a
9c10
9ce1
9c7f
9c3f
9cba
9ca5
9c27
9c3c
9ccf
9cc4
9c1c
ca62
caaa
ca2a
ca6a
cafd
ca63
ca29
ca3f
ca78
ca6b
cac4
caad
cadf
cad4
ca09
caa7
c291
c2b5
c244
c2af
c25e
c278
c296
c2a5
c212
604e
60f5
6053
6028
6096
604b
60b4
609a
60d9
60df
60c3
c57b
c521
c547
c5b5
c548
c536
c5f4
c578
c596
c558
c5c0
c5ce
c5f6
c5b1
306f
3068
309d
3048
305c
3066
30d1
3027
30d9
30d0
f02a
f0b5
f0ea
f04d
f099
f08f
f026
f0dd
f04b
f0b4
f09e
f046
f089
f0be
f094
f085
f0bd
f0cd
4070
4092
40c9
4054
4022
4078
4025
40d7
40c6
40c4
40d0
b07b
b081
b076
b091
b0f5
b060
b09d
b06c
b044
b0f0
b0d5
b02f
b09f
b046
b0eb
e09d
e0e8
e05e
e026
e0ba
e079
e049
e0ef
d060
d092
d041
d0b5
d022
d0d5
d083
d09e
d02f
d05a
d0c5
c0f3
c05d
c0f0
c075
c05e
c078
c0b1
c0ee
c0ca
100c
5011
501a
5019
501e
303f
e00d
e00c
9001
900d
900a
9002
0213
021e
0a74
0a77
0a75
200b
8016
801c
0323
210e
5001
500d
5006
3007
3006
b004
c008
c007
700c
1806
d004
050f
950b
9505
550e
6505
6509
f50f
750d
350e
2504
8505
c504
c502
a01c
a506
150c
503d
5037
b013
2015
201f
c01d
6011
601b
7018
901f
703d
f0a1
f0ae
a0ad
a0a3
603a
6036
f03f
f033
d0ab
20a1
e0a8
e0a0
e0a9
e0a3
903a
70a1
70aa
a032
a033
a03e
c037
60a1
60af
60a3
50ab
4035
b0aa
b0af
c0a1
c0a5
90a8
009a
01ed
01f5
015c
012e
01cb
0820
0864
08d8
0841
085d
0831
085c
0854
0844
084d
0866
08ec
08be
082d
0815
081c
0807
0a69
0a52
0ac9
0a8e
0a26
0a58
0a9a
0a2f
0adc
0a89
0aad
0acb
0a15
0376
035b
032a
0364
03b5
03e6
0372
03f2
03db
035f
03c4
03df
105d
10bf
10e6
10ea
1024
1013
1030
10f7
1016
020a
0281
027c
02f3
0298
0264
029d
0239
0244
028f
0286
02b6
02e9
027d
0288
02cb
02a3
028c
175b
17cc
17a4
1720
1792
1768
17b5
179b
1754
1757
1744
17f4
177e
1740
17dc
17c4
17bc
17f7
17d3
171d
186f
1873
18ff
1876
1853
18f3
184c
1892
1864
1828
1851
184f
189b
1867
1844
1822
18db
183c
185a
189f
1887
185f
18c1
181d
181b
734a
73f5
736a
73b9
7324
73d7
73c6
73f1
73bd
7316
733a
73a7
23ff
23f5
2328
2331
23e8
237a
2329
2386
2396
239e
239f
23e2
2390
233b
238c
230b
23d3
de91
de70
dea6
de64
deb9
de9b
de75
de3f
dee5
dee9
de59
dee2
dee0
dec6
dec5
debe
def7
de1c
210a
2103
21a4
219d
21a0
2143
2135
21af
21fc
2122
217e
2179
21e2
2118
50ed
506e
5020
50da
50d8
504f
509a
50b3
50d9
50f8
50c5
50c1
50f7
50b0
be73
be7b
be55
becc
be2a
be98
be20
befb
beb2
bebf
bea0
be36
be43
bee1
be8f
bed1
be8b
be17
be30
bea7
be18
6103
61fe
61a6
61a0
6143
618e
61dd
6183
6193
6114
61f6
61df
6123
613a
611d
61ab
610e
6f50
6fed
6fbb
6f38
6f20
6fb2
6f36
6f1a
6f9f
6fae
6fc7
6fbd
6ff7
6f12
6fb0
05aa
056e
05bf
0566
0597
05e9
0558
05fa
0524
05a5
058a
05e0
052d
05cd
aa73
aa61
aa53
aa4c
aa98
aa20
aa95
aa5d
aa67
aa99
aaf0
aad5
aadd
aaf2
aaa5
aac6
aabe
aac7
aabd
aa30
aa0f
1a0a
1a52
1acc
1a33
1a20
1a41
1a6c
1a39
1a48
1a36
1a9b
1ae8
1a35
1ae1
1a7f
1a8f
1a7e
1ae9
1add
1a83
1afa
1a5a
1ac6
1abd
1ad2
1a0d
1a05
ff7b
ff4a
ff5b
ff98
ffa6
ff57
ff44
ff4d
fff0
ffec
ffd5
ff72
ffba
ff83
ffe2
ff82
ffd2
ffa9
7c6f
7c2a
7c8f
7c74
7ca1
7cc0
7c84
7c8a
7c3b
7cf1
7cd2
7cd3
7c05
7c08
7c0c
7c06
6981
69f5
696a
6938
6995
695d
6954
6967
69fc
69d5
69e3
698d
693b
69be
69c3
698c
69d3
6915
ccaa
cc98
cc41
ccbf
cc5c
cc10
ccfc
cc22
cc72
ccb4
cc25
cc9e
cc1a
cc17
cc8a
ccbc
cc2d
cc0b
ccc2
cc05
ed69
ed53
edfb
ed43
ed10
ed25
edd7
ede3
edad
ed94
62bb
626e
629b
624b
62d9
62df
622b
62e7
6213
62d2
62c3
62ac
6219
4f50
4f61
4f65
4f92
4f68
4f9d
4fa0
4fe8
4f57
4faf
4f2e
4ff2
4f25
4f85
4fae
4f2b
4fef
4fc2
55f3
554c
5560
55b2
55bf
5536
5599
55d1
554b
55e3
55dc
556b
551a
558b
55cf
5589
5582
55ae
55c2
047b
0476
047c
04f5
04a6
04b5
04bf
049b
048f
04f0
04e9
04f2
04fa
0425
04a5
049e
042f
04dc
045a
04c8
043b
04df
04c7
04c3
04b7
0408
040c
4af3
4a95
4a5c
4af9
4af2
4a17
4a3d
4adf
4ad2
4ad0
4aa3
4a42
4a0d
a76f
a72a
a74c
a721
a720
a74f
a78f
a772
a79a
a759
a7e7
a7c3
a70b
a7ab
a705
a704
3350
334a
33cc
336e
33bf
337a
334d
332e
33a1
3359
33e0
33cd
3316
33d0
330f
330e
3304
3701
376f
37cc
3798
3748
37ea
377f
37f4
37ec
37b6
372e
3796
37c6
37bd
37d4
37b8
37c2
3705
3704
796f
792a
7945
79a4
79da
791f
7963
79dd
799a
799f
79e0
79c7
79d3
79ab
790f
790c
7904
7601
76ed
7621
7648
76ea
7697
7658
76c0
7694
76d2
76d3
76c2
761b
760e
1103
11aa
114e
11b5
1131
1186
1126
11b4
11c4
119c
11bc
11be
11eb
11d3
1105
1108
386e
389d
389b
3886
3822
3897
382e
3826
389c
3882
380b
381d
310a
3177
31a4
314f
3154
3110
3175
3197
3140
3159
319e
31dc
31e2
31ce
31ae
31eb
31a3
3142
3108
310c
4e5b
4ec9
4e41
4e31
4e9b
4ef0
4e79
4efa
4e27
4e8d
4e1e
4ebe
4e7d
4e0d
2a6f
2aff
2acc
2a6e
2af3
2ada
2a34
2a31
2a66
2ad5
2a24
2a46
2ad4
224a
227f
2274
223f
22b4
222f
225a
22d4
2242
2215
22a7
a570
a5a4
a538
a51f
a59d
a56d
a5e6
a510
a544
a5ba
a5a5
a5b3
a546
a589
a5ef
5b6e
5ba6
5b68
5b7a
5b97
5b96
5bfa
5b6b
5b8b
5bc4
5b85
5bc3
5b12
5bc2
5b0e
8100
81aa
8176
814e
81fd
81a0
815c
817a
81f0
8156
81be
8115
6e03
6e62
6e7c
6e6e
6e6a
6e4b
6ed9
6ec7
6e7d
6e06
9070
9020
9092
90f0
90fc
9097
9084
90f8
90ce
909c
90f1
9088
bb73
bbbb
bb4e
bb52
bb70
bb6e
bb2a
bb63
bb51
bb39
bb37
bb22
bb79
bb02
bb5a
bb46
bbf8
bbdf
bbc7
bb8c
bbca
bb18
bb08
7b52
7b20
7b68
7b41
7b2c
7b86
7b3f
7b58
7bb4
7bc0
7b5f
7bf8
7b94
7bc7
7bbd
7b1b
39cc
392a
3998
39a0
39f9
3999
39b6
392e
39a8
39a1
3902
39ad
3982
39ee
390d
64aa
644e
6491
6477
6437
64e1
642c
64fc
64f2
6459
64c8
6489
64be
642b
64d4
641d
5181
515b
516e
5192
51e6
5110
51e3
51b3
51bc
51c5
513d
51ef
518c
513e
510f
637b
6360
6392
63b5
637a
6383
6356
6394
6330
63a3
5269
5277
52e6
527f
5202
5225
528b
5294
5215
5205
34de
3445
34a6
3465
3447
3429
348e
345e
34c8
34e2
34d9
34c6
34bc
34ef
34ca
34a9
340e
3404
3601
3661
3655
366e
3667
3699
364b
3617
363b
36bd
36e7
3642
3606
2833
2839
28e1
28f9
2875
28ec
28dd
28f2
28a1
2887
281e
28e4
2814
28eb
2812
281d
2815
2808
a401
a445
a4da
a4b2
a4a0
a4e8
a486
a472
a458
a483
a49a
a4f8
a43e
a409
a442
a40d
a6de
a673
a661
a64a
a66a
a633
a6c9
a634
a6a0
a64f
a6e6
a657
a6a8
a602
a62b
a6b8
a616
a6d0
a604
0932
092a
0920
0928
09fb
09b5
0957
09b6
09ba
09a5
0956
09f6
09f7
09c3
09ee
093a
090e
80ff
8053
8064
80d8
80e8
8099
8022
80d5
8040
8087
80e2
8090
80c6
809c
80ee
5e03
5e69
5e2a
5ef3
5e20
5eb2
5e48
5e4f
5e37
5e29
5e66
5ed1
5eba
5e59
5e2f
5ec8
5ed9
5e89
5e42
5e15
5e0c
5e06
fe03
fe73
fe81
fe4a
fe7c
fe98
fe65
fe38
fe67
fe44
fe4d
feec
fefc
fe86
fe2e
fe7e
fe2f
fee3
fedc
fe8d
fe80
fe5f
fead
fe7d
fecb
fed3
2dde
2d69
2d81
2d55
2d7c
2d65
2d64
2db9
2d9d
2db6
2dba
2de3
2ddc
2d1a
2dd9
2df8
2d3d
2d13
2dd2
2d12
97a4
97bf
976d
977a
977f
9722
9725
9756
97c3
970b
970f
5d76
5d38
5d1f
5d99
5d58
5d9e
5d6b
5d87
5d1e
5d80
5db1
5d23
5d7d
5d2b
5dcd
5d16
5dd0
5d12
5dac
5d42
5d0f
5d0d
65ff
657b
6576
654c
65fb
654b
659e
65c0
65e3
65e4
65ce
65b1
65e7
65cb
65f7
6512
651d
6515
6519
e87b
e8cc
e8f3
e84c
e834
e84f
e837
e822
e85e
e824
e83c
e88b
e81e
e880
e889
e8df
e8c7
e8cd
e8b0
e819
fd69
fd45
fd77
fd21
fdfd
fd92
fd44
fd4d
fd8f
fda1
fd24
fde3
fd1a
fd8b
fd90
fdf6
fdcb
fdeb
fdb7
fd18
4c4a
4c91
4c65
4ca0
4c29
4c5e
4c26
4c96
4cf2
4c4b
4c25
4c9e
4c3c
4cdc
4c9f
4c87
4cc8
4cd9
4cc6
4ccf
4cc5
4cb1
4c2d
4c12
4ca3
4ca9
4c1c
240a
24ed
2473
24bb
244a
2432
24fd
2428
2437
247a
24e3
24f7
24ca
9161
9145
9165
9138
9151
919b
9154
9166
91ec
91ba
9196
9125
91f8
91bc
9185
912b
91d3
9109
91a9
9118
9104
1ede
1e81
1ef5
1e6a
1e98
1eda
1ec9
1e5d
1e31
1eaf
1e7f
1e2c
1e86
1e90
1e82
1edf
1e13
1ed2
1e30
1e1b
1e0f
1dfe
1da6
1dda
1d9d
1dfb
1dd6
1d5c
1dfc
1d86
1d3f
1d7e
1ddd
1d6b
1d87
1d9c
1d2d
1dbd
1db8
1dcd
1def
1d16
1d0f
1d0e
0c03
0c7b
0ca6
0c47
0cbf
0c7f
0c75
0cdd
0c83
0c90
0cef
0cee
0c07
41a4
411f
4151
41d6
415c
4154
4137
415e
4196
4159
411e
413b
41e7
41f7
41c2
410f
29bb
2955
2998
29d6
2954
294d
29ec
29fc
2974
29f2
2979
29a1
2949
29a5
29c0
29e3
29ac
29a7
290c
53ed
5353
531f
534f
53e8
535e
5396
534b
5324
5349
536b
539f
53cf
53cd
53d2
538c
53d3
53a2
53a9
1373
135b
13fd
1395
13b2
1354
1329
138f
13d1
132e
1379
1387
13e2
13d9
13cb
130b
133a
131b
130d
14de
1452
14b9
14d8
1463
1431
149b
14d1
147e
1424
146b
148b
14be
1494
1485
142d
14cb
14ee
1405
d903
d960
d968
d99d
d951
d96c
d910
d999
d9f4
d922
d9d5
d972
d959
d949
d9a3
d91c
d90f
d90c
8dfd
8de6
8dec
8dfc
8d5e
8de9
8dba
8df2
8da8
8dd7
8d93
8d17
8d0b
4301
436f
4376
4364
43fb
434f
43e6
4366
438e
43e3
436b
4371
438d
43e7
43d0
433a
431b
6821
6828
68bf
6843
6844
68e1
682c
68d1
688e
6896
6824
68db
68dc
685a
68bc
683b
68be
68df
688c
68ac
683a
6842
680d
6d03
6ded
6d6a
6d65
6d1f
6d31
6daf
6dec
6d86
6d27
6d71
6d1a
6dce
6db1
6dae
6d13
6d30
6dd0
6d18
6d0d
6d04
4b61
4b52
4bf5
4b10
4b44
4b97
4bfa
4bcd
4bc2
4b06
4b04
a1fd
a144
a129
a1b6
a12e
a1ba
a183
a156
a1ae
a1bd
a188
a112
a13a
a11c
a10d
a104
75ed
7576
7552
756e
756c
755d
7554
75ba
7587
7582
75c1
7515
75a9
6a50
6a32
6a45
6aa4
6a92
6a9b
6ae1
6a2c
6ae9
6ac0
6a93
6ac5
6a23
6ae7
6ab8
6aca
6a0d
6a04
aced
acaa
ac32
ac2a
ac38
ac5d
ac4f
ac67
ace9
ac96
acf2
ac25
ace2
ace4
acce
ac94
ac0b
ac3a
acb0
ac19
ac0d
77de
774a
77f3
77a6
7768
771f
7748
7786
7774
7726
7796
778b
7794
77ef
77c3
7716
7707
5a03
5a7c
5a70
5afd
5a28
5a54
5a24
5ae3
5ab3
5ae2
5a17
5a19
2601
264e
2652
266a
26fe
2668
2647
26b5
2651
265c
2635
2666
262e
2683
26b4
269a
2646
26cf
26f6
26c4
26b8
26ef
26d2
26f7
260d
3501
350a
35cc
35b9
351f
3567
35a5
35f6
3585
35c7
35d4
35ee
351b
07ff
077b
07cc
074c
0795
076c
0744
0729
07ec
07ba
074b
0724
0714
0789
0723
07a2
070f
b26a
b238
b2da
b234
b295
b239
b2f9
b222
b272
b2d7
b293
b28b
b2c6
b2ad
b2c7
b2eb
b2c3
b21c
1f63
1f5c
1fea
1ff4
1f97
1f2e
1f96
1f49
1fd2
1f3e
1f3a
47fe
47a6
4738
4764
4741
4751
47d1
4775
478e
47d5
475e
474b
47c5
47e7
4712
4715
4718
4708
4704
064e
06f3
06fd
0636
06e1
068e
06d5
064b
06a1
066b
0617
06d4
06d2
0605
f577
f538
f551
f57a
f510
f529
f5ec
f5fc
f572
f55e
f527
f5db
f5c0
f571
f5e2
f5c3
f5a3
f5ac
f5d3
f5a9
4d4a
4df5
4d6a
4da4
4d9b
4d29
4d74
4d3f
4d5e
4de3
4db3
4dae
4d13
4df7
4dc2
4d06
f4bb
f453
f4da
f4b9
f434
f4e8
f437
f429
f45e
f4ba
f424
f480
f4e2
f4ce
f4ad
f49c
f4c7
f4cb
f4b0
f4d3
f4ca
f415
f418
f404
3faa
3f76
3fcc
3f6e
3f2a
3f77
3fb5
3f51
3f4f
3f9b
3fdd
3ff2
3fdb
3fc6
3fcf
3fad
3fcd
3fd0
0b01
0b5b
0bb9
0bbf
0ba0
0b10
0b8e
0be9
0b59
0bdb
0be2
0bf6
0bc5
0b94
0bbd
0b12
5455
5452
54f3
54c9
5441
5448
5410
547f
548f
548e
542e
5440
5424
5449
54c6
54cf
5489
54b1
54d0
5412
54ab
5406
6601
6665
6668
6678
6626
66dd
66fa
6625
66cf
662b
66ac
6608
6606
7f00
7f73
7f69
7f45
7ff3
7f78
7fb4
7fdb
7fe3
7f9f
7f23
7ff1
7fd4
7ff7
7fa3
7fac
7fa2
7f0f
9df3
9d20
9d41
9d6d
9dd6
9de1
9d75
9d25
9d59
9dd7
9da5
9d8b
9dcf
9dbe
9dab
127c
1245
1292
12fb
12b5
125d
12b6
12a1
12c8
12c6
12df
12f1
12c7
12ef
12ee
128c
9603
96ed
9681
9661
967c
966a
96da
9636
96f9
968e
9674
96f2
9680
96e0
96c6
969c
9685
96c7
9613
9630
96ca
9642
961b
9618
9606
1b50
1b7b
1bbb
1b5b
1b77
1b53
1b65
1b36
1b37
1b66
1be5
1b26
1bb4
1b24
1b9e
1b5a
1bf8
1bad
1b82
1b3a
1b05
e691
e6fe
e653
e663
e6e1
e6fc
e626
e602
e61a
e68d
e682
e6ca
16de
162a
1645
16f3
1621
16a4
1638
1620
1647
163f
167e
164b
165f
16e4
16f8
16d4
1688
16b8
16f7
16a9
f1cc
f14c
f1a6
f1a4
f1c9
f1d6
f135
f1a8
f14b
f179
f1e2
f17d
f1c1
f1ef
f112
f1b0
f1ca
f105
8891
887c
88a6
8892
88da
88fb
8839
887a
88af
88b4
8856
8880
88ce
8885
88cb
88c3
8842
8815
3b6f
3baa
3b55
3b63
3b51
3b6c
3b6d
3b7e
3b96
3b58
3b79
3b02
3b93
3b1a
3bb3
3bc7
3bd3
3b19
3b18
0f81
0f53
0f38
0ffb
0f6d
0fe6
0fdd
0f4b
0fd7
0f9f
0f2b
0fcb
0f8c
0f0e
0f0c
0d38
0d20
0db5
0d6d
0de6
0d74
0df2
0dd7
0d27
0df8
0dc6
0dce
0d12
0da2
440a
44ff
445b
4477
4468
445d
44af
4478
44ba
448d
449c
4485
44ca
4415
44a2
441b
441c
4418
4406
f373
f336
f37a
f325
f371
f31e
f3b3
f384
f32b
f330
f308
f307
e97b
e9aa
e95b
e977
e9d6
e9e1
e9a8
e93c
e95a
e98b
e987
e9e4
e9f8
e9ce
e989
e99c
e985
e9c3
e9d0
e9a3
e91b
e90f
e905
fc6f
fc52
fc77
fc4c
fc67
fcb4
fc80
fce4
fcf8
fce7
fcee
3e03
3eaa
3e76
3e77
3efe
3e28
3e41
3e5c
3e43
3e9e
3e9f
3e84
3e17
3ead
3ecd
3ed2
3e30
3e07
2caa
2cb5
2cb2
2c5d
2cfc
2c26
2c40
2c90
2c8a
2cc1
2c88
2c12
2ca3
2cac
2cd3
2c1c
d87c
d8f5
d8a4
d85d
d831
d89b
d8d5
d840
d849
d86b
d887
d8e0
d8c6
d8cf
d8f6
d8eb
d8f7
726f
72aa
7270
7292
72b5
725c
729b
724d
72e5
72e2
7290
7214
72c1
72eb
723e
850a
8562
8555
85fe
85fd
859d
8563
8510
85f9
8578
8584
42a4
4247
4239
4236
425c
4243
42a1
429e
42e3
4217
42c6
42cf
429c
42f1
42bd
421d
42ca
420c
496f
49ed
49cc
4968
495c
4958
4940
49dc
4971
ad73
ad2a
adf5
ad77
ad21
ada6
ad20
ad43
ad4d
adf0
ad74
ad7e
ad71
adb3
adcf
adad
adef
add2
adb0
ad42
ad1b
8f69
8ffe
8f95
8fb2
8f74
8f22
8fe5
8f58
8f93
8f9c
8fbc
8feb
8f19
74cc
7438
7439
74af
7499
74d1
7426
7456
741a
749f
74b1
74b8
741b
9820
98fb
9836
9835
98af
98fc
9822
9879
989e
982f
988d
9817
988a
9814
98d4
98d3
981d
9818
9804
92de
9233
9264
9228
92a0
924f
9210
924d
927f
928f
928e
9222
924b
92b4
929e
921a
928d
929f
928b
92ad
922d
922b
928c
9215
9207
8991
8934
8929
89ec
8986
8922
8924
89a5
898a
89ce
89ae
89d0
898c
893a
8915
57fe
57e6
5766
5775
5758
5793
57e4
578a
577d
57d2
571b
5708
5704
7e52
7e6a
7e60
7e92
7ec9
7e28
7e31
7e9b
7e57
7ef4
7ed5
7e2e
7edd
7ec0
7ef6
7edf
7ef1
7ecd
7e12
7e1d
7e11
7e0c
d1aa
d12a
d120
d1fb
d1b5
d15d
d1a8
d1a1
d1dc
d190
d1c4
d1f7
d1b7
d119
d10e
594a
594c
5938
5992
5937
5910
597e
59d7
599e
595f
598a
5988
59a7
a855
a84e
a86e
a898
a8a4
a875
a822
a8b4
a879
a81a
a882
a8c1
a8eb
a8a3
a8c2
a805
a808
fb01
fb7b
fb76
fba6
fb68
fb29
fb66
fb99
fb3f
fb26
fb56
fbf8
fb14
fb3d
fb13
fb11
fb15
af01
af5b
af60
af43
af7a
afd1
affc
af3c
af8b
af16
afa3
afac
af04
da50
dade
da73
da98
da28
da41
da51
da43
da8f
da3c
da14
da89
dadf
daae
dac7
dabd
dacd
da13
da0b
da05
45f5
4528
4531
45e1
452c
45d1
45ec
453f
45d5
4579
45fa
45a1
459e
4593
45ad
4594
452d
45a3
45a7
451b
480a
4850
486e
486a
4829
484d
489a
489f
4889
48ae
48f1
482d
48d2
4811
3aed
3a76
3a4e
3aa4
3a38
3ada
3a39
3a31
3a9b
3ad5
3ae5
3add
3aa8
3a25
3ae3
3ad9
3ab1
3a16
3a3a
3aa7
3a1b
8262
8261
827c
8233
8253
8268
82c9
8241
8239
829b
82b6
82db
8213
82d2
82ac
823e
5803
58de
58aa
5855
5847
58a0
58fc
58a5
58ce
58d4
5842
58a7
581c
580d
5805
5806
5f55
5f52
5f53
5ff3
5f20
5f44
5f66
5f9a
5f94
5ff7
5f09
5f15
5f0f
f9bb
f9b5
f95c
f9e8
f967
f92e
f97e
f940
f902
f959
f91e
f9e4
f9e0
f914
f9f6
f9bc
f913
f930
f9ca
f9a9
8303
83bb
8381
8368
836c
83bf
8344
8329
8366
8374
8325
839e
836b
8387
83e4
83c6
839c
83b1
83be
83e7
83ef
8313
833a
83a2
830d
8308
bf61
bf5b
bf65
bf8f
bfec
bf8e
bf7e
bf26
bfba
bf56
bf71
bf3b
2e03
2e50
2ec9
2e41
2e48
2e5d
2ee8
2ef9
2eb6
2e7e
2e25
2ee2
2e3b
2ed4
2ec1
2ee7
2ed2
2e30
2ef7
2e19
2e1c
b381
b376
b370
b3fe
b3f3
b338
b367
b3db
b3e0
b3ce
b3cf
b382
b3cb
b3ac
b31b
b305
e17b
e138
e16d
e166
e186
e172
e17e
e1a5
e1dc
e19f
e1c8
e146
e1df
e185
e12d
e1d2
e11d
e11c
c14e
c16a
c1fe
c11f
c131
c1e8
c1f4
c13f
c172
c1a1
c10d
c470
c42a
c421
c464
c437
c499
c4b6
c45e
c4a1
c413
c4c2
6720
6710
67f4
67d5
6778
67ba
673c
67d9
67f8
67c4
6716
67ac
6709
670e
3d7b
3d76
3d55
3d4f
3d49
3d5a
3d71
3dd9
3d8a
3dd4
3d30
3da2
3d0e
3d0c
3d06
3d04
5c03
5caf
5c2c
5c97
5c4b
5c24
5c9e
5c1a
5cd9
5cad
5c23
5c30
5cc2
5c1c
5c0d
0eff
0e6e
0e53
0efd
0e68
0ec9
0e57
0e59
0ea5
0e93
0e90
0eb1
0e7d
0ee7
0eef
0eb7
0ea9
0e0e
b9ed
b9bb
b94a
b97c
b995
b902
b927
b980
b9c1
9b4a
9bfe
9b53
9bd8
9ba0
9bba
9b27
9b46
9bc7
9b3e
9bd3
9b0e
9b08
874a
876a
871f
8739
87e6
87f4
87ec
87dd
871e
87c8
87c5
873b
877d
873e
87c2
871b
8718
870d
ea6e
ea53
ea9d
ea95
ea6c
ea9b
ea7a
ea35
ea44
ea4d
ead1
ea3f
ea2e
ea78
ea4b
ea02
ea59
eac0
ea6b
ea8b
ea87
eae2
eac1
ea1d
ea15
eac2
ea1b
ea1c
fa32
fa2a
fa6a
fa38
fa28
fa54
faec
fa8e
fa5e
fa9e
fa1a
fa84
faf6
fa82
fab1
facb
fad2
faf7
fac3
fab7
fa05
7a0a
7a61
7ae8
7afc
7a86
7a8e
7a58
7a2f
7a5a
7a6b
7a9f
7ad3
2f6f
2f4e
2fcc
2f9d
2f48
2f7a
2f44
2f7e
2fe3
2f84
2fbc
2ff1
2fef
2fd2
2ff7
2fa3
2f0b
2f19
2f0c
2076
209d
205c
209b
2057
20fc
20fa
20d7
20dc
20bc
20b1
20df
2085
156f
1570
1598
1563
156d
154f
15e6
1554
15ec
1522
15ba
1579
159a
15a5
158d
155f
15ad
15c5
1585
15d2
1530
1512
1511
19bb
1981
1965
1938
1968
19b2
19d1
1972
19dd
1958
1927
1971
1917
19e0
19c4
1918
190f
f662
f6f5
f633
f668
f664
f639
f636
f65c
f67a
f678
f6e2
f68a
f6c5
f6df
f62d
f642
860a
86cc
8634
868e
8658
8659
8604
466e
4645
4653
46d8
468d
4690
46bc
4685
46bd
467d
46cd
46f7
460b
460e
4608
2773
272a
274f
275c
27e9
2783
279a
2784
27ce
27ad
27c5
c920
c91f
c928
c9e6
c95c
c9e1
c9b6
c9ba
c9a8
c9fa
c91e
c93b
c988
c9c3
c915
c905
c907
e3ed
e34e
e37c
e36e
e377
e353
e363
e36d
e336
e310
e3e5
e387
e3c5
e31d
e342
e3ab
2569
252a
251f
2541
25b6
25c0
255a
25c8
25e2
25cf
25d4
2530
25a3
25b0
2542
25a7
25c2
2bbb
2b34
2bf4
2bfc
2bdc
2b1e
2beb
2bd2
2bac
2bc2
2b19
a303
a350
a3ff
a36a
a34c
a3a6
a3a4
a363
a36d
a39b
a357
a3ea
a39a
a356
a384
a3d9
a38a
a382
a33d
a3df
a3cd
a3cb
a3ef
a316
a30b
a33e
a33a
a3a7
a31b
a30c
6c6f
6cda
6cb2
6ca5
6cd9
6cce
6cf6
6ccb
6c30
6cee
6cab
3c6f
3cfe
3c48
3ca0
3c7a
3cf9
3c4b
3c8d
3c9f
3c5f
3cdf
3ca2
3c04
6b70
6b33
6b53
6b64
6b1f
6b51
6b43
6be1
6b4d
6bd1
6bfc
6bdd
6bdc
6b17
6bbc
6bcd
6bac
56aa
569d
5631
56f4
5674
56a8
56a5
5627
5689
56a9
f24a
f255
f252
f27c
f260
f2a4
f268
f228
f2f0
f226
f271
f25f
f214
f242
f86f
f853
f87a
f867
f829
f875
f8f4
f822
f84b
f89f
f814
f8be
f8f1
f888
f8d0
f811
f80f
d669
d6bb
d677
d64c
d6fd
d6da
d654
d6db
d68a
d689
d6bc
d6bd
d613
d6f7
d6d0
d6ab
a203
a2aa
a270
a236
a2d6
a23f
a2b6
a272
a27e
a2db
a25f
a212
a209
a2a9
a20d
a207
9350
9320
93fd
93c9
9351
936d
937f
937e
9324
93e3
93e0
9330
931d
b4aa
b433
b4b5
b45d
b443
b4ea
b449
b49e
b48d
b4ad
b49c
b4ac
b41d
e7ff
e755
e7cc
e76d
e744
e72e
e778
e7dd
e71a
e790
e78a
e714
e73b
e7ca
e7a9
e70c
b6fe
b660
b620
b634
b61f
b66c
b643
b67e
b640
b627
b687
b6cf
b6d4
b6eb
b6c3
b63e
b609
b61b
78ea
78ba
7883
7840
7827
7846
788a
782b
78e7
78ef
7812
780b
78a7
abfe
ab22
ab97
ab2e
abdc
abb3
ab84
ab90
ab14
ab8c
abb0
aba2
ab18
ab04
7d6f
7d76
7d55
7d70
7dd8
7dfb
7df4
7d49
7d1a
7deb
7d04
d37c
d3fe
d365
d364
d31f
d39b
d3db
d35f
d3cf
d382
d33b
d3be
d3c1
d3cb
d316
d311
d308
d30c
1c03
1c61
1cf5
1c53
1c28
1cfb
1c31
1ce8
1c7a
1c44
1cf4
1cdc
1cb3
1cbe
1cae
1c0b
1cb0
1c18
a069
a0fb
a063
a048
a05c
a066
a0f4
a078
a0e9
a08b
a087
a0bc
a0bd
a0ef
d4ff
d44e
d491
d421
d468
d42e
d4e9
d44b
d42f
d484
d4b1
d40b
d41b
d419
8e76
8e52
8e4c
8ea6
8ee8
8ec8
8e82
8e85
8e88
8eb8
8eb7
8e07
db61
db4c
db63
db39
db54
db10
dbba
dbb4
dba5
db27
db5a
db9f
db80
db90
db8a
dbb1
db13
db0e
ec73
ec62
ec91
ec52
ec33
ecb9
ecb5
ec39
ece9
ecf2
ec93
ec71
ece4
ecdf
ecc2
ec08
ec0c
d701
d7ed
d773
d760
d7b9
d795
d751
d7e1
d7b6
d724
d7d7
d7a5
d793
d75f
d78a
d7ae
d78c
d7b0
d711
d704
7120
719d
7148
7154
713f
7197
71a8
718d
71c8
71e0
7185
7115
9f01
9fed
9f6e
9f28
9f7f
9f2c
9ff0
9f22
9f24
9f6b
9f17
9fae
9f88
9f05
9976
9953
9934
995c
9935
992c
9974
99dd
9983
999a
99dc
99f8
99be
99ae
9913
990f
9905
9907
e250
e2da
e2b5
e248
e24f
e29b
e2f4
e29e
e2e3
e256
e223
e2f1
e23e
ce45
cefe
cea4
ceea
ce44
ce29
cedd
ce58
ce8d
ce2b
cecd
ceb0
ce06
e4aa
e461
e4a4
e438
e451
e437
e42c
e48f
e43f
e496
e49a
e4ad
e49c
e4bc
e4d2
e48c
e4b7
e41b
e405
f77b
f781
f776
f755
f7fd
f7b9
f75c
f7f9
f7af
f7d5
f702
f724
f7d7
f75a
f76b
f780
f7e2
f7e0
f7c4
f73d
f785
f7c7
f7d0
f709
f70e
cf50
cf52
cfa6
cfd8
cfbf
cf4f
cf31
cf7a
cf10
cffa
cfa1
cf59
cfc0
cf93
cf8d
cfe2
cf14
cfbc
cfb1
cf2b
cfd0
cf12
cfa3
cfc2
b100
b169
b155
b17c
b1c9
b141
b143
b13f
b1e9
b14b
b1e4
b13d
b1b1
b1be
b1f1
b1c7
b1a7
b10e
841f
8495
845c
843f
84f1
84d4
84a3
84b0
8442
84a7
df03
dffe
df53
dfb9
df28
df41
df48
df43
dff9
df8f
dfd1
df5e
df2e
dffa
df49
dfa5
df84
dfc4
df9c
df2d
dfac
df18
b503
b5de
b5bb
b54e
b5cc
b5f3
b564
b55d
b526
b596
b53c
b556
b5e2
b5bc
b5bd
b5d0
b512
9e68
9eda
9eb9
9e5d
9e36
9e7f
9ef0
9e75
9e8e
9eba
9e02
9e49
9e8b
9edf
9ed0
9eca
9ea2
ba6f
ba7b
ba4a
baf3
ba39
babf
ba29
baf0
bab4
ba49
ba56
bace
baa3
ba19
baab
ba04
c8ff
c876
c88f
c878
c896
c89a
c82f
c8f8
c889
c882
c8d4
c8ee
8bde
8b69
8b61
8b5b
8b52
8b38
8b20
8bd8
8bbf
8b5c
8b4d
8bd5
8bba
8b24
8be2
8bf6
8bc4
8b3d
8bc7
8b7d
8b19
8b05
bd69
bd55
bd47
bd5d
bd57
bd2c
bd75
bdfc
bde9
bd96
bda5
bd2d
bd2b
bd18
ee6f
ee73
eefd
ee28
ee7a
ee7f
eee9
ee2f
ee9c
eed2
ee12
ee11
eeab
ee07
c661
c676
c670
c677
c6f3
c6a4
c634
c663
c65d
c66d
c644
c6e1
c6dd
c682
c623
c613
c6d2
c63e
c61d
c60f
9abb
9a98
9a92
9ab2
9a6c
9a35
9afc
9a5e
9a4b
9a9a
9a25
9a1a
9a80
9ae4
9abe
9a94
9a2d
9ac3
9ad0
9a3a
9a19
7081
7061
7020
70d6
7043
7044
70fc
7086
7074
70f2
70fa
7040
706b
7093
70e2
70c6
70b8
cbb5
cb39
cbbf
cb36
cb31
cb3f
cb78
cb84
cbc4
cb2d
cb7d
cb16
cb09
eb50
eb73
eb76
eb32
eb5b
eb6a
ebb9
eb28
ebd6
eb43
ebe8
eb72
eb4b
eb79
eb56
eb9c
eb85
ebae
ebe7
eb13
ebb7
ebd3
eb0d
a9a6
a91f
a963
a9b2
a936
a9d6
a910
a9d1
a922
a987
a988
a9cd
a9a7
ddff
dd7b
dd20
ddda
dd99
ddb6
dd97
ddce
dd94
dddf
dd23
ddae
dd16
ddc2
d56f
d581
d555
d591
d538
d5af
d5d1
d596
d54b
d559
d5c5
d594
d52b
d5f7
ae00
ae20
ae47
ae6d
ae31
ae9b
aef2
aea1
ae1a
ae87
aee0
aed4
aec1
aed2
aef7
aea3
ef03
ef76
ef65
efc9
ef34
effb
ef25
efe3
efdc
ef93
ef71
ef8d
efc5
efae
ef2d
ef13
ef30
ef0d
ef05
bcbb
bc76
bc20
bc68
bcda
bca0
bc54
bc2c
bc5e
bc78
bcb4
bc49
bc6b
bcd9
bcbc
bc2d
bcc7
bcbd
bc3a
bc1d
bc0d
d2ed
d25b
d2a6
d2b9
d241
d26c
d244
d28b
d21e
d290
d2d9
d282
d209
d21c
d20d
d207
c332
c391
c35b
c3f5
c35d
c3af
c37f
c3f4
c33f
c397
c372
c383
c379
c346
c3f8
c3df
c388
c3cd
c312
c33a
c319
c30e
b869
b881
b8af
b85e
b8dd
b8a8
b879
b85a
b89c
b8bc
b894
b8bd
b8d2
940a
9450
94bb
9481
9432
942a
94b2
946c
948f
94d1
942e
9471
94f8
9488
94ac
940b
940e
8a6f
8aff
8acc
8a34
8a28
8a51
8a37
8a67
8a96
8a79
8a25
8a17
8ac6
8a12
8a07
8c01
8c50
8c6f
8c52
8c9d
8c95
8cb2
8cbf
8c7a
8cea
8c8f
8c26
8c58
8ca8
8c93
8c80
8cbe
8c85
8c13
8c12
8cb7
8ca2
8c0e
9500
9591
955b
9570
954c
95af
95f2
95a5
9587
95b1
95be
9523
95f1
952d
95bd
95e7
95c2
9519
c781
c770
c720
c792
c79d
c76c
c7f0
c7d1
c775
c7e9
c724
c78b
c780
c7c8
c7df
c785
c7ae
c7a7
e573
e55b
e557
e599
e5d1
e59a
e5b3
e5cf
e5b1
e5ae
e5d4
e5b8
e5d2
e5c3
e5c2
dc7b
dc6e
dc45
dc92
dc95
dcb2
dc48
dca0
dcf9
dc79
dc9e
dc27
dcc4
dcd4
dcd0
dc18
dc04
cd45
cd47
cd2f
cd82
cd23
cdbd
cdee
cd09
cda7
b773
b776
b770
b764
b741
b748
b7e6
b75c
b796
b7fa
b727
b73c
b7c8
b7c5
b7ab
9c0a
9c73
9c69
9c4a
9c37
9ce4
9cf8
9c14
9cc5
9c42
caff
ca32
ca70
ca53
cada
ca10
caea
cab6
cab4
caa1
ca25
ca49
cadb
ca3c
ca84
ca14
ca23
cac3
caa3
cac2
ca05
c2fe
c292
c2b9
c241
c2a0
c28e
c27e
c2ba
c2a8
c293
c2e4
c2c4
c213
c2a7
6069
6081
6061
6055
607c
6060
60da
60b9
6041
605d
6057
6086
6074
6078
6093
60cf
60be
60d4
60d0
c581
c55b
c52a
c5da
c5a0
c5d6
c597
c587
c590
c517
c5cf
c589
c5ad
c530
c51d
3073
3091
30f5
304c
3060
30da
3063
3043
302e
3025
309e
308a
3089
3088
3042
30c2
f069
f098
f092
f09d
f095
f0e1
f022
f02e
f078
f058
f09a
f0d7
f02f
f080
f0d0
f0ee
f08c
4045
4041
406d
40e6
4044
40f2
4040
4093
40b3
40cf
402b
40d3
40c2
b045
b077
b021
b020
b067
b097
b080
b0f6
b085
b0c1
e0bb
e052
e070
e0fe
e065
e0b9
e0bf
e06d
e0f0
e0ec
e02e
e093
e087
e082
e0df
e0c1
e0c3
d073
d021
d0c9
d06c
d04f
d029
d066
d08f
d046
d0c6
d09c
c052
c0fe
c0e1
c0ec
c04b
c059
c05a
c0d0
a008
a002
e00b
e002
0218
0a71
200c
200e
8001
800c
0326
2102
500e
de02
4001
4008
f003
3001
300e
b008
b003
700e
180d
1804
1807
050d
050b
0509
950c
550c
3011
301a
301c
d50d
d502
f50b
350b
b504
a01a
a504
a502
a50e
150f
503f
5039
b036
b015
f018
f013
f01e
2014
4017
4016
401e
c01e
6016
601c
7011
7012
d016
d01f
d01e
f0ab
a0ab
6037
6030
f03e
40a1
d0a1
8031
e0a2
70ad
70a3
c031
60a8
e038
e035
50a2
403f
80aa
80a0
80af
b0a8
b0a7
30a8
00bf
0176
0152
017c
019d
017f
01ec
017e
01f2
012f
01db
019f
013b
0111
011b
0852
08fe
0853
0860
0838
086d
08f9
082e
08b4
08f1
08b8
0813
0842
080d
0aed
0a61
0a65
0ab9
0ab5
0a51
0a4d
0afc
0a2e
0afa
0ac8
0a8a
0ace
0a3b
0abe
0adf
0ab8
0ad3
0369
03d8
0336
0331
0383
0359
03c0
03dc
039c
03be
03cb
03b7
031d
03ca
1073
105b
1068
10d8
106c
1043
1057
10e5
10d7
10db
10d9
107d
1018
0245
02ea
0293
0287
02cf
02ae
02e7
0209
02a9
02ab
17de
1798
1764
177a
1799
17e5
179a
1724
17d7
179e
175a
173b
17bd
17b8
1712
17a7
17a2
1704
187b
18aa
184a
184e
1870
186a
1848
18e6
187a
1886
188e
1897
1896
182f
1846
18d4
18f7
1816
18ac
18a9
73fe
7333
7338
73c9
739d
739b
7326
73a8
736b
7346
7317
73b1
73ae
73d4
738c
73b0
7311
7304
7307
236a
23f3
234c
2363
234d
23d1
23fc
2322
2340
2302
23e3
23b1
23be
23eb
2330
2319
231c
230d
decc
deda
ded6
de8f
def2
dec4
deb8
ded0
de12
ded3
217c
2177
2147
216d
2110
2167
2186
21e5
21ba
21a5
2156
21e4
2114
21ef
21f7
2112
21b7
21a9
50f5
50c9
509b
508f
50d1
50d5
50ba
5049
509e
50e3
50bd
be01
be91
bea6
be6d
be67
bef0
be83
be79
be3d
be3b
bec7
bebd
beb8
beef
beee
be1c
be07
6176
6170
6153
61a4
6120
6168
617a
61ea
61e1
61ec
6196
6158
614b
618d
6180
61be
617d
61cd
61eb
6f4a
6f55
6f45
6ffe
6f28
6f4f
6f4d
6f8f
6ff0
6f22
6f3f
6fd5
6fdd
6f8d
6f90
6fb8
6fb7
6fca
6f15
6f0e
055b
05f5
0577
056c
0510
05f4
0572
05a8
0540
05e3
055f
05b8
05eb
05f7
05c3
051d
0515
05c2
05a2
aa7c
aa21
aac9
aad8
aa47
aa4f
aa36
aa29
aa4d
aa3f
aa2e
aae5
aa96
aa25
aadc
aa1a
aa1e
aae4
aa17
aa14
aa82
aaa3
aa8c
aaac
aad3
aa42
aa0e
aa07
1a9d
1a47
1aaf
1afc
1a8e
1a78
1a27
1ae3
1a56
1a88
1ab8
1a16
1ab7
1a11
1a0e
ffcc
ffa0
ff35
ffaf
ffdd
ff1a
ffb3
ffd4
ffee
ff09
ffca
ff42
ff0e
ff07
7c91
7c98
7c20
7c92
7c41
7c6d
7c67
7c7f
7c86
7cba
7c2f
7cc4
7c1b
69aa
6955
6977
69da
6947
69bf
6935
69ec
69a1
6956
6930
69ca
6918
6904
cc00
cc69
cc7b
cc6e
ccda
ccd8
cc95
cc5d
cc7f
ccb6
ccdb
ccdc
cc8b
cc80
ccce
ccbd
ccef
cc8c
cc15
cc19
cc0f
ed32
edcc
ed64
edda
ed1f
eda0
ed2c
ed7e
eddd
ed83
eda8
ed40
eddb
ed82
ed30
ed3e
edb7
edab
ed0f
ed08
ed0c
627c
6245
62b9
6241
6295
6272
6226
628b
6246
6290
6294
62bd
62d4
6288
620b
6242
6211
621c
6218
62ab
620e
4f69
4f4e
4f91
4f6e
4ff3
4f95
4f5c
4f10
4f5e
4f83
4fc8
4fce
4fc4
4f82
4fb1
4fc1
4fd2
4fc3
4fac
4fab
4f0f
4f04
5501
55bb
55aa
554e
556e
5521
5592
5543
5566
5597
5558
5583
55db
5571
558d
55e4
55ad
0469
0461
042a
04fb
0431
0437
04af
0475
04f4
04ec
043f
042e
043c
0487
041e
0417
042d
043e
4a7b
4a5b
4a4c
4aa6
4afd
4a28
4a51
4a36
4a7f
4a58
4afa
4a9e
4ac0
4ad9
4abd
4a7d
4ac1
4aca
4a15
a791
a764
a728
a739
a7e6
a743
a79b
a729
a7af
a75a
a756
a780
a7f8
a7f6
a7be
a7c7
a7d2
a73e
a71d
330a
337b
3320
3363
335c
3357
33b6
3302
3393
33c8
33f8
33c5
33c1
33c3
3312
331c
370a
377b
3792
3741
3747
3763
377a
3757
3783
37a1
37c0
3756
37cf
3713
3716
37ac
373e
3715
7962
794a
797c
79cc
7921
79b9
7928
796d
79f9
7974
7958
79b4
7956
79d9
7923
7930
79b7
76de
762a
76fe
764c
7654
7699
7675
7626
76db
761a
769f
7617
76c6
76ae
76c1
76ee
7618
7604
11ed
1121
1192
1151
116c
11bf
11ea
1129
1146
11f8
11cf
3864
3828
385c
3857
38f9
38fc
383f
38b6
3896
3883
3849
388b
3880
38b3
380e
31de
31aa
3170
31b9
31b2
3157
31e1
314d
317f
31c0
318b
3180
312b
3113
31f7
31c3
313e
4e7b
4e5d
4ebf
4ee6
4e66
4e7f
4ef4
4e22
4eb6
4e7e
4e58
4e9f
4e94
4eeb
4ec3
2abb
2a4a
2aa4
2aa0
2a4d
2a2c
2af4
2ab6
2ae5
2a96
2a25
2a59
2a56
2ab3
2ac8
2ad9
2ae0
2abc
2ac5
2acb
2a09
2a0e
225b
2245
2277
22a6
2247
22ba
22fa
2256
221e
2282
a555
a55b
a56e
a553
a5da
a5c9
a595
a537
a5d5
a572
a52e
a5dd
a5fa
a5d7
a56b
a580
a530
a5d0
a515
5bde
5b60
5b34
5b6d
5be6
5b5c
5b4d
5baf
5ba1
5bd7
5b27
5b9f
5b1e
5bef
5b3a
5b42
810a
815b
816c
81d6
819b
818f
8183
81b4
819a
81db
8187
81d4
8109
6eff
6ecc
6e77
6e47
6ef9
6e4d
6e58
6eb4
6efa
6e9f
6e82
6eb1
6eb0
6ed3
6e11
6e18
90ed
90fd
90da
90b2
9048
9054
90ba
90b4
9027
905a
90b3
90c8
90c6
9089
90c1
90cd
90b7
bbaa
bbf3
bb4c
bbb5
bbe8
bb7a
bb67
bbaf
bbd5
bbe9
bbdd
bbfa
bbc0
bb6b
bb1e
bbbe
bbae
bbbd
bbc1
bbeb
bbb7
bba9
bb0c
7b6f
7b7b
7b91
7bb9
7b28
7bbf
7baf
7b66
7b72
7be5
7ba8
7b24
7bd7
7ba5
7b2f
7bdc
7b9c
7b7d
7b13
7bd2
7b1d
7b0f
3969
39aa
3952
3933
39f3
3964
391f
39d1
398e
39ba
399e
399c
3994
39a3
39ac
39b7
3915
3919
64de
6466
648f
6475
64f4
645e
6458
6424
6427
6482
6494
64eb
643a
6415
64a2
5101
5177
51a4
5120
51b2
51a0
51a8
51a1
51a5
51d9
51c6
51ce
5109
5104
630a
63ff
635b
63d6
63f0
6386
63b6
634b
6327
63ce
63c7
632b
6316
633e
63a7
63ab
5281
525b
521f
5263
5251
5231
52e1
52af
5266
52f4
52fc
5286
5296
52a5
52b8
528c
347c
3468
349d
3495
34b5
346c
346d
3443
3410
34d1
34f4
34fc
345a
34c7
34b0
34b7
341b
340f
36bb
36e8
367a
3657
3644
36f0
367e
3626
3683
368b
361e
3646
368a
36cf
36f6
36a3
360b
36b7
360f
360d
286f
2869
28aa
28c9
2863
28b5
284d
288e
2822
285e
2858
28b4
2849
28a5
282f
2827
28b3
28d9
283b
282d
28c7
288c
283a
a44a
a476
a45b
a433
a434
a41f
a4b5
a45d
a49b
a47a
a474
a43f
a4d5
a4fa
a4c0
a45a
a4c6
a414
a4ce
a4f6
a4cd
a413
a48c
a415
a41b
a4ab
a40e
a67b
a6fe
a6a6
a6d8
a641
a6bf
a631
a643
a6f9
a666
a649
a6a5
a6db
a671
a680
a65f
a646
a6e2
a614
a6c4
a63d
a623
a6ef
a613
a6f7
a63a
a609
a6a7
a60f
a60d
0962
097b
0976
0952
096e
0953
0921
09f9
09d7
093c
0946
0989
0982
092d
091d
09a9
0919
806f
804a
805b
80cc
8045
8060
80b9
804d
8074
8027
806b
8080
80d4
80cb
80d2
5e81
5e4a
5e21
5e92
5e9d
5e41
5e63
5ebf
5e31
5e7a
5e44
5e86
5e74
5e22
5ed5
5ea8
5e27
5e1a
5e80
5ee4
5ee0
5ec1
5eb8
5ea3
5e18
5e07
fede
feaa
fe5b
fe6e
fefd
fec9
fed8
fe5d
fe66
fef0
fe75
fe3f
fe8b
febc
fe2b
feb8
feef
fe30
feee
feab
fe06
2d32
2d33
2d60
2d9b
2d7a
2d44
2d8e
2ddd
2d25
2dc0
2d5f
2d90
2d88
2da9
2d18
9703
9773
9781
97fe
9720
9783
97b4
97fa
976b
971e
97eb
9719
970d
5d01
5d03
5d7c
5d34
5d43
5d37
5d66
5dc6
5dc4
5d88
5d8c
5d1b
5d08
657c
65a6
6541
6536
65af
65ec
65e5
65e9
65d7
65a5
659f
65f6
6589
65c5
65be
65eb
65c3
658c
651b
65ab
e86f
e821
e8a4
e8d8
e841
e89b
e810
e8f9
e8b6
e8f2
e802
e856
e88d
e8e4
e8e0
e8cf
e8ad
e882
e894
e8a3
fd00
fd52
fd60
fd51
fda0
fd54
fd67
fd29
fdec
fd74
fd5e
fd78
fd7e
fd96
fd58
fd8a
fd9c
fdf1
fdee
fd3e
fdca
4c62
4c4e
4c95
4c63
4c6c
4c5d
4ce1
4cf9
4c7f
4cf4
4c2e
4ca8
4cd7
4ce3
4c56
4c90
4cad
4c82
4cc1
4cd2
4c04
4c07
2403
2450
246a
2454
2467
2429
247f
247e
2426
2496
244b
2440
249a
2456
24e2
2417
243d
24be
24df
24ae
24eb
24c3
2415
240f
2404
9103
9150
91ed
9192
91da
91fc
918e
9124
91d7
91c0
918d
9146
91c6
9182
91be
918c
910b
9105
1e4e
1eb9
1eb2
1eb6
1e2e
1e59
1e8d
1e1e
1e84
1ee2
1e8a
1e3a
1ed3
1d03
1d70
1d41
1d47
1d5d
1de1
1d99
1d9a
1dd7
1d9e
1d5a
1db3
1dd9
1de0
1d3d
1ddf
1dc1
1dd2
1dca
1d11
1da7
1d19
1d1c
0c50
0c45
0c21
0c9d
0c39
0c36
0c9b
0cf9
0c2c
0c99
0cd1
0ca1
0c27
0cc4
0cbc
0c3d
0cc7
0cd2
0cd0
0c8c
4177
4198
41a6
41fb
419b
41ea
4166
417f
41d1
4122
4172
4140
418b
41b3
4182
410e
29ff
2970
2933
29fd
29b9
2928
297e
296b
2923
29c3
537b
5321
53b5
5336
53a8
5359
53e3
53dc
535a
538d
5387
53b3
53d9
53b1
537d
53ee
530d
1355
13a4
1338
1320
13c9
1347
1339
13e9
13fa
1371
135f
138a
139c
13ef
131c
146f
1462
146e
1445
14fe
14da
14c9
1439
1410
144d
148e
1493
14c6
14bd
14d4
14ac
143e
14a7
1406
d96f
d9ed
d97b
d961
d970
d9f3
d99b
d92c
d9c5
d9be
d923
d92d
d916
d909
d918
8d03
8dbb
8d55
8d7c
8df5
8d53
8da6
8d92
8d68
8d41
8db5
8d5d
8d9b
8d67
8d75
8d86
8d8e
8d97
8d25
8ddc
8d71
8d1e
8df8
8d14
8dcb
8d12
8d08
43de
434e
4360
439d
4329
4374
4372
4383
43fa
433c
4393
4315
43a7
4306
687b
68bb
6838
6868
68d8
68fb
6895
6848
684f
6836
68d6
68fc
6872
682e
6858
689a
6880
68f8
68ad
682b
68b8
68a3
6804
6dbb
6dfe
6d4c
6d60
6d28
6de8
6dea
6de1
6d75
6df4
6de9
6db4
6d17
6d2d
6dbd
6d2b
6dc1
6dac
6da2
6d05
6d08
4b4e
4b21
4ba6
4bda
4b34
4b47
4b63
4bea
4b8e
4b56
4b2b
4bc1
4bb8
4b8c
4b3e
4b1c
a1ed
a162
a161
a138
a164
a1da
a128
a16d
a1ea
a1f9
a1af
a1e5
a15f
a117
a1b1
a1e7
a1c3
a11b
7550
7581
7528
7531
7567
75f0
75d1
7596
7525
75a5
752f
75b3
7584
75f8
75ae
75c7
758c
75b7
75c2
751c
6a62
6a5b
6a52
6acc
6a6e
6a51
6a48
6a6d
6ae6
6a74
6a97
6add
6a02
6a24
6a3c
6ae3
6adc
6a1a
6a5f
6af8
6ae0
6a30
6a8c
6a0b
6ab0
6a42
6aa2
6a07
ac81
ac33
acf3
ac98
ac64
ac39
ace6
ac7a
ac35
ac75
acba
acd7
ace3
ace0
ac82
acae
acc7
acc1
ac11
ac08
7755
7791
77b9
7741
77d6
77fc
7779
7740
775a
7771
779f
778a
773d
7713
7730
7712
77d3
7742
770c
5a4a
5a4e
5a33
5aa4
5ae6
5a5c
5a2c
5afc
5a5e
5a4b
5afa
5a1e
5ad9
5a8a
5a82
5a3d
5a94
5a23
5a88
5aca
5a42
5a1b
2676
262a
26b2
26ea
26f0
2697
26ba
2679
2625
269e
268d
26c8
2684
26e2
26f8
26c5
26ae
26d4
26cb
26d0
26d3
26c2
35ff
3577
35a6
3568
3563
35e8
35d1
35d5
3558
3580
35c8
3590
3582
353b
35bd
35a9
3518
0769
07f5
0765
0720
07fd
0792
07a0
075c
0754
072c
07f0
0796
07a8
072f
0727
079f
07d4
071d
0704
b255
b2cc
b2f5
b2fe
b2a6
b241
b2b2
b2d6
b229
b2e5
b2ba
b2a8
b240
b21a
b21e
b2c8
b25f
b23d
b2c1
b2ee
b2b0
b2d3
b21b
b219
1f62
1ff3
1fa6
1fa4
1f92
1f36
1f35
1f7f
1f8f
1f26
1ff2
1fa8
1fce
1f89
1f88
4761
476a
4765
477a
4710
4786
472e
477e
47a1
473c
478d
4714
479c
4782
47b1
47c1
47ef
47a3
47b7
4742
47a2
47a9
471b
4719
067c
066a
06fe
06a4
062c
06ec
06b6
0672
06e5
0658
0683
06a8
0627
065a
0693
069f
061e
06c6
06ad
0682
06bd
0607
f503
f576
f5cc
f553
f5f3
f54c
f564
f5d6
f5f4
f5ba
f5b4
f579
f540
f5d7
f55a
f5e0
4d73
4d2a
4d45
4d60
4d21
4dda
4dfb
4da0
4d4f
4de8
4d40
4d24
4da5
4d9e
4d87
4d80
4dce
4d3d
4df1
4dbd
4deb
4db7
4da7
f401
f473
f461
f4cc
f470
f465
f420
f4fd
f495
f463
f451
f410
f4ea
f4e1
f4fc
f4a8
f49e
f42f
f484
f4d9
f4ae
f4a3
f4a7
f4a2
3f81
3f61
3f75
3f27
3f71
3f8b
3f05
0b91
0b7c
0b53
0b4f
0b29
0bf4
0bb4
0b80
0b8a
0bb1
0be7
0b1c
0b0d
54ed
5481
5470
5445
5477
5464
549d
545d
54e6
549b
5437
5486
54e9
54f2
549a
54db
549f
54e2
54d9
54f8
54f6
54c5
542b
54e7
541b
660a
66aa
6655
664c
661f
669d
66b2
66ea
6666
662c
66f0
6675
66f4
66e5
6649
66b3
66f8
66e0
66c4
66c5
66f1
667d
6611
66a9
660d
7f6f
7f62
7f5b
7f68
7f37
7f35
7f2c
7f8a
7f2b
7f88
7feb
7f0c
9d03
9d53
9d21
9d64
9d48
9d5c
9d37
9d7a
9d86
9da8
9d40
9d02
9db1
9d23
9d85
9d15
9da9
1220
12b9
1241
125c
12ea
128f
12b4
12fa
1240
12db
123c
121e
12ad
122b
9652
9660
9665
96b5
964f
9631
9643
9610
96d5
96e5
9679
96a5
969f
965f
96e2
96d9
9614
96df
96bd
96b8
96cb
1b52
1b98
1b38
1b92
1bda
1bd8
1b51
1b43
1b35
1b2c
1bfc
1bd5
1b58
1ba8
1bd7
1be2
1bd4
1bc1
1b09
e64a
e6cc
e633
e665
e61f
e65e
e6fa
e69e
e6dc
e69f
e617
e6f8
e6f6
e6c5
e6df
e6ae
e6cb
e6a9
e61b
e6ab
16c9
169d
165d
1643
16ea
16af
168f
16fa
162f
165a
16c4
169c
16c7
16ef
160e
f176
f14e
f170
f198
f192
f1b5
f154
f14d
f122
f1dd
f196
f16b
f1ad
f1b1
f1ae
f188
f11d
f106
8868
8864
8857
88f9
888e
88c0
888b
88c8
88c5
882d
8809
88ca
88ab
3b61
3b76
3b45
3ba6
3bfd
3b9d
3bbf
3be8
3b4d
3baf
3b99
3b8f
3b75
3b3f
3bd5
3b5e
3be5
3b71
3bd9
3b8a
3bad
3b13
3b15
3b04
0fbb
0f4a
0f70
0f45
0f33
0ffd
0f28
0f41
0f5d
0f10
0f5e
0fa8
0f25
0fc0
0fe3
0f8a
0fc6
0fcd
0f0f
0d6f
0d73
0d61
0dcc
0d6e
0d45
0d21
0da4
0dfd
0d9b
0dd5
0da1
0da5
0d9e
0d82
0ddf
0d2b
0d0d
4401
447b
4481
44cc
446a
44a6
4438
44da
4454
4437
4474
4422
4479
449a
4459
4456
448b
44e2
44f8
44cb
44c3
44ee
4411
f355
f321
f3fb
f3bf
f344
f34d
f32c
f3b6
f397
f378
f326
f396
f358
f3a1
f39e
f3ae
f3e7
f309
f311
f30f
f30d
e962
e9ff
e945
e933
e921
e9a4
e948
e9a0
e92c
e98e
e9d5
e9e9
e958
e979
e96b
e971
e917
e9bd
e9b8
e912
e9d3
e9c2
e90c
fc0a
fcaa
fc61
fc9d
fce6
fc9b
fc57
fce1
fc4d
fc96
fc58
fc25
fc3c
fcf6
fcc5
fc23
fc30
fc42
fcc2
fca2
3e32
3e92
3ef0
3eec
3efc
3ea5
3e8a
3ee7
3eab
3e0e
2ccc
2c2a
2c64
2c41
2c67
2ce1
2c2c
2c3f
2cb6
2cf2
2c83
2ca8
2c49
2c56
2c14
2c89
2c23
2cf7
2c16
2ca2
2c1b
2c0f
d80a
d8bb
d832
d84e
d853
d8b2
d854
d8f4
d8fc
d897
d84b
d8db
d871
d89c
d8c1
72de
72a4
7238
72fb
7237
7244
7266
72f4
727e
7283
72d7
7256
72cf
72ee
72ab
7208
7204
8528
8551
8535
857f
858f
8546
8590
85c6
85b1
85df
853a
85c2
424a
4291
42fd
42c9
424d
4266
4226
42fa
42e2
42e0
42e7
4213
42c2
4964
4954
495e
49dd
491a
4946
49ce
49c4
49b8
4912
4909
4915
ad32
ad3f
ad97
ad72
ad5e
ad02
ad25
ad93
adc5
ad3a
8f76
8f52
8f98
8f38
8f9d
8f48
8f7a
8f2c
8f3f
8fa8
8fdb
8f6b
8ff8
8fbd
8fcd
8fc3
8fd0
8f3a
8f0c
7445
7453
7460
74a4
7492
74c9
7428
7495
7463
7454
744b
7440
742f
7480
74e0
749c
74df
74c7
747d
74c1
74ef
74c3
74d0
748c
7409
7442
7408
7406
984a
9832
98cc
9833
9865
9838
984d
9899
98d1
98d5
98f2
989a
98d7
98c0
985a
981a
988b
9880
9884
98b7
9809
92da
92c9
9239
92e1
9249
9227
92db
9287
92e2
923b
9213
92ca
9205
9206
8981
8961
897c
896e
8998
8938
8964
8943
8957
8944
8974
8983
89a8
8940
891a
899f
89c6
89cf
89bc
89be
8985
89c3
8916
89a3
89ee
891c
890c
5791
572a
576a
5768
57b9
57d8
5763
5751
5744
5799
57d1
57b6
5772
57c0
5756
571a
5780
5784
57ce
5782
5794
571d
7ede
7e6f
7e4e
7e45
7e98
7e65
7e20
7efd
7e64
7e63
7ea0
7e37
7e7a
7e35
7eaf
7eec
7e97
7e40
7e02
7e24
7e90
7eb1
7eae
7ec7
7ec3
7eca
7ea7
7e18
7e06
d1de
d1ed
d161
d176
d164
d141
d151
d16c
d1af
d166
d199
d1f4
d122
d197
d178
d17e
d196
d1b4
d149
d1c0
d1ce
d19c
d1d2
d116
d112
d1a7
d118
5901
5932
5953
597f
592c
5999
598f
5975
5986
5974
59bc
59df
59ae
59ac
59ab
5908
a801
a862
a852
a865
a8fd
a89d
a8a0
a8f0
a8b6
a85e
a89a
a82f
a88d
a82d
a87d
fb03
fb91
fbf5
fb77
fbb2
fb43
fb54
fb7a
fb67
fbf4
fb86
fb2e
fb9a
fbd7
fbc8
fbe2
fb82
fbf1
fbc7
fbb8
fb09
fb42
fb0c
fb06
af50
afff
af21
afc9
af39
af9a
af24
af8d
af5f
af46
afe2
afd9
afce
af85
af30
afee
afa9
af0f
af08
da03
dabb
da45
da53
da95
da39
daea
da4d
daaf
da86
daba
da40
daa5
da5a
da71
da9f
daf6
da82
daee
daac
daa9
da0e
4503
4591
4560
454f
45e6
4510
458f
45fc
4572
4540
45e3
455f
4590
45cf
4585
45c7
451c
4801
486f
48ed
481f
48d8
48bf
486d
4836
4837
48af
48f0
48dd
4893
488d
48e2
48f6
483d
48b1
4823
4888
483a
48c2
480d
3a7b
3a4c
3ac9
3aaf
3ad1
3ae9
3a02
3a2f
3a5a
3a17
3a8a
3abc
3a85
3aae
3a2d
3a0d
826a
82fe
8265
8263
8244
8274
827e
82a8
82fa
8224
82c0
8290
8214
8216
82ee
58cc
58a6
5865
5864
58da
5828
5899
58f4
58ec
58a8
589a
5802
586b
588b
5814
58bc
58c1
58cb
5830
5f0a
5ff5
5f6a
5f45
5f60
5fd8
5fb2
5fbf
5fba
5fb4
5f40
5f59
5fe3
5f56
5fb3
5fc6
5fc4
5fad
5fbe
5fc3
5f18
5f04
f969
f9da
f99d
f9f9
f966
f926
f958
f9f2
f9fa
f9a5
f92f
f9c4
f9c7
f9d2
f9b0
f9d3
f942
f9a2
f919
f90d
f908
83aa
83cc
83fe
8360
83a6
83fb
8363
83e6
8337
837a
83af
83fa
8340
8359
83db
83dc
8371
8346
8317
838a
83ce
83f6
8323
83b0
8304
bf01
bf6f
bf7b
bffe
bf60
bfa6
bfa0
bf37
bf99
bfdc
bfdf
bfcb
bfd2
bf0b
bfa9
bfab
bf0c
bf07
2e01
2e69
2e6e
2e92
2ed8
2eb2
2e6c
2e9b
2e54
2e7a
2ed5
2e2e
2edd
2e02
2ead
2ebc
2e0b
2e42
2e18
2e05
b3de
b373
b332
b35b
b351
b331
b374
b3ba
b34b
b340
b3c6
b3bc
b33d
b3be
b3a9
e121
e1c9
e1bf
e15c
e129
e199
e1e9
e126
e19a
e18d
e1e2
e1ce
e1be
e1cb
e116
e109
e107
c17b
c1aa
c18e
c1b6
c149
c187
c146
c1d9
c1e4
c18a
c1e0
c1ce
c1df
c1bd
c1c1
c1b8
c1cb
c1f7
c1c3
c1ac
c1ca
c1ab
c106
c44a
c4fe
c4fd
c447
c4e6
c422
c43f
c47e
c46b
c4be
c485
c4ef
c4eb
c4f7
c4d0
c4a7
6776
67a4
6792
67fb
6748
6766
6786
672e
67a1
67c0
679f
67c8
67ae
67d2
6730
6715
67ab
3d69
3d34
3dd8
3d35
3d99
3db6
3dba
3d83
3dd7
3d3c
3d8d
3d84
3d46
3dc7
3dd2
3d8c
3d09
3d19
5c32
5c33
5c28
5cfb
5c6c
5c48
5c6d
5c37
5c7a
5ce9
5c25
5c1e
5c17
5cf8
5cce
5c94
5cf1
5cc7
5c7d
5cf7
5cca
5c15
0e7b
0ebb
0e34
0e95
0e48
0ebf
0e75
0eba
0e58
0e4b
0efa
0ed9
0e30
0e15
0e18
0e05
b94e
b933
b934
b983
b91a
b9e4
b9ce
b9ad
b92d
b930
b911
b9a7
9b6f
9baa
9bcc
9b20
9bda
9b48
9b4f
9b5c
9bf9
9b22
9b1e
9b84
9bc4
9bb1
9bcd
9bef
9b13
9b3a
9b1c
9b0f
8703
8750
876f
8776
874e
8791
87b9
879d
87fb
87b2
8744
87e1
872c
878f
87d5
87ba
87f2
87b4
878d
875f
87cb
87ef
878c
8742
8708
ea0a
eaed
ea76
eafe
eab2
ea54
ea8f
eae9
eadb
eabc
ea3b
ead4
ea3a
ea04
ea07
fa81
fa33
fa36
fa37
fa7e
fae5
fa40
fa93
fad9
7a03
7a62
7a52
7a2a
7af5
7a92
7a64
7aa0
7a99
7ad1
7a97
7aba
7a9a
7a24
7a71
7a5f
7a90
7af8
7ab1
7a0f
2fed
2f45
2f53
2fd8
2f51
2fb2
2f5c
2fd1
2f3f
2fe5
2f71
2f87
2f06
20ff
2047
2044
205e
2058
2027
20db
20b3
20ce
20cd
20ee
1553
15b2
157f
152e
1526
1587
15c4
153b
15d4
153e
151c
1991
196e
191f
199d
1954
1944
198e
19e9
19a8
19fa
1959
198a
19c7
19c1
19b0
f603
f6ff
f64e
f67c
f670
f62a
f641
f647
f65d
f6ea
f675
f68e
f659
f61e
f680
f6c8
f6bc
f6cb
f612
f6ee
f6b0
8691
8620
8641
8695
865d
866d
8657
8644
8686
86d5
86e9
8602
862f
86cf
8694
8616
860b
86a9
860d
8605
460a
46fe
46f3
4654
46e8
467a
46ea
464d
4666
46e9
46fa
469a
463c
46dc
46ad
46c5
463e
461b
460d
4607
2701
274a
2760
2721
27a6
27b5
27d1
27a1
2712
273a
27a7
271c
270c
c9de
c932
c952
c939
c95d
c99b
c935
c999
c9d1
c9c0
c9c8
c9f1
c93e
c911
c9ab
e303
e332
e3b2
e37a
e3f4
e359
e35a
e38b
e380
e38a
e37d
e3d2
e33e
e309
e30d
250a
2562
254a
2570
2560
25d8
2528
254f
25af
2566
25f4
2522
2597
255e
2583
252f
2571
2580
25f1
25b8
253a
251c
2bed
2b7b
2b4e
2b98
2ba4
2bd8
2b51
2be6
2b35
2b29
2b24
2bd7
2ba5
2b27
2b14
2b89
2bcd
2bcb
2bee
2bb7
2ba7
2b08
a353
a3d8
a348
a34f
a354
a375
a322
a397
a379
a349
a32f
a371
a39f
a3b3
a3cf
a394
a323
a3b7
a3ca
a315
a308
6c0a
6c45
6c21
6c34
6cd6
6ce1
6c66
6c8f
6cdd
6cf2
6c83
6c5f
6cc6
6cbe
6cc7
6cbd
6cf7
6c8c
6ca7
3c45
3c77
3cb9
3c28
3c31
3cd6
3cd1
3cd5
3c97
3c72
3c58
3c83
3cb4
3c9e
3cdb
3c3c
3c1a
3c87
3c1e
3cad
3c85
3c13
3cac
3c05
3c0e
6bed
6baa
6b7c
6bbf
6b9b
6b57
6b35
6b66
6b2e
6b5a
6b90
6b14
6bad
6b9c
6b82
6bf7
6bb7
6bd3
6b1d
6b0d
564c
56a6
5651
56d6
56e6
56af
5697
5626
56c0
56e3
56e0
5694
56f7
56a3
56ca
5615
f2de
f26e
f26a
f277
f264
f234
f29b
f237
f210
f286
f272
f2f2
f279
f290
f217
f2c6
f2ce
f23b
f2f1
f207
f861
f8b9
f8c9
f834
f8d8
f828
f863
f848
f84f
f8e6
f89b
f874
f82e
f89a
f81a
f88d
f8b3
f85f
f8e0
f82b
f819
f80e
d64a
d676
d653
d6f3
d61f
d622
d6d5
d62e
d6ba
d6a1
d649
d6e4
d69c
d682
d6c1
d6e7
d6eb
d642
d6a2
d60d
d604
a2a4
a238
a234
a24f
a243
a235
a278
a2f2
a202
a21e
a28a
a294
a230
a2c3
a2ab
930a
9369
9376
934c
93a6
93a4
9364
9343
93ea
93f9
939a
9346
93f1
93cd
93b0
b450
b469
b44e
b470
b434
b4d8
b45c
b429
b4af
b4fc
b497
b43c
b493
b48b
b45f
b4f8
b482
b4b1
b43b
b4bd
e7f5
e745
e777
e798
e765
e7c9
e7b2
e76c
e731
e743
e79b
e754
e757
e786
e783
e725
e724
e727
e78d
e7e0
e79c
e7be
e788
e7f7
e78c
e7ac
e709
b669
b645
b6f3
b6a6
b6b5
b64f
b6b6
b65e
b678
b659
b65a
b6d9
b617
b642
780a
78ed
7873
78fe
7821
78da
78d8
78fb
7895
7857
78dd
784b
7893
78f8
78c6
783b
787d
781b
7806
ab81
ab60
ab20
abb5
aba0
ab44
ab86
abd5
ab83
ab40
ab25
ab27
ab1e
ab80
abce
ab82
abbe
ab23
ab85
ab7d
abb8
7d45
7da6
7da4
7d64
7dc9
7d41
7d95
7d4f
7d37
7d10
7d44
7df9
7d22
7db6
7de9
7d26
7ddd
7d83
7db4
7d5a
7d9f
7d1e
7d82
7d2b
7df7
7dc3
7dd0
7d12
7dac
7d1d
7d0d
7d06
d3ed
d376
d353
d392
d3c9
d35c
d335
d326
d3a5
d33d
d32d
d3eb
d315
1c50
1ca6
1cda
1cc9
1ce6
1c66
1c96
1c4b
1cc0
1c6b
1cb1
1c23
1cf1
a081
a091
a077
a0b9
a0d8
a041
a06c
a057
a07e
a0ba
a058
a0f2
a083
a0e3
a0e0
a088
a0d2
d469
d44a
d453
d465
d437
d4af
d472
d4e5
d4a8
d4b3
d4cf
d494
d4e7
d4ac
d41c
d40e
8e55
8e7c
8ef5
8e6a
8e60
8e41
8e4f
8e10
8efc
8e86
8e5e
8e2f
8e8d
8e1e
8ee4
8ecf
8ead
8e94
8eae
8ee7
8ec3
8ec2
8ea2
8ea9
8e0c
db52
db70
db53
db20
dbfd
db64
dbc9
dbb5
db43
db7a
db35
db2c
db8f
dbf4
db3f
db97
dbe9
db79
db02
dbc0
db1e
dbb3
db14
dbbc
dbbe
db23
db2b
dbd4
dbcd
db42
db11
db1c
db0d
ec03
ecbb
eca4
ec34
ecd8
ecfb
ec63
ec54
ec74
ec59
ec24
ecc8
ec2b
ecc1
ece7
ec16
eca3
ec06
d781
d761
d74a
d74e
d752
d7da
d76c
d75d
d74f
d743
d729
d786
d78d
d714
d7c4
d7eb
d70b
d7ca
7155
71cc
71fe
7133
7153
7121
7165
7139
7131
7110
7175
71f4
7186
7122
71b6
71f2
71d7
71dc
71c5
71eb
7113
7142
7111
9f0a
9f50
9f65
9f92
9f34
9fd8
9f47
9f6d
9f8f
9f78
9fba
9f83
9f56
9fc8
9f14
9ff6
9f85
9f16
9f12
9fa2
9f1b
9f1c
9f0e
9f08
9932
995b
9933
9920
9944
99d1
9996
9979
9940
99e2
998a
99c4
99c5
99bd
992b
99eb
9911
991c
9904
e233
e253
e298
e2a4
e29d
e241
e263
e254
e235
e244
e274
e2f2
e2c0
e2c6
e2f6
e2ad
e2d4
e288
e2ac
e211
e2a9
e219
ce73
ce60
ce20
cefb
ce6c
ced6
ce7a
ce66
ce22
cef2
ce24
ce93
ce8a
cebc
cecb
ce13
ce0b
cec2
ce0d
e447
e44d
e4f0
e48e
e4e5
e4a8
e46b
e484
e494
e4df
e423
f769
f74a
f72a
f7f5
f7a4
f7c9
f763
f751
f7bf
f736
f767
f77f
f7d1
f725
f73c
f78b
f790
f7e4
f7cf
f7bc
f7c5
f7df
f730
cf73
cfaa
cffb
cf66
cfd1
cf22
cfb6
cfe9
cfa8
cf25
cfd7
cf9e
cff8
cfe0
cfae
cf2d
cfd4
cfd2
b161
b191
b16a
b128
b15c
b17a
b186
b1a1
b102
b1a5
b13c
b11e
b182
b1c3
b18c
b1ac
8401
847c
8445
84b2
84e6
8444
84f4
84ec
847e
84a5
845f
8417
84b1
84f7
8405
8404
df01
df5b
dffb
df31
dfe6
df2c
df8e
dfdd
dfa1
df56
df93
df17
dff6
dfc5
dfae
df7d
dfd4
df30
df19
df04
b550
b576
b544
b5f9
b52c
b593
b58b
b51e
b5c4
b5ad
b53b
b5f1
b516
b5d3
b511
b5a7
9ef5
9ec9
9e51
9eb2
9e37
9e35
9e3f
9e58
9edb
9e56
9e3d
9e2d
9ef7
9e0b
ba6e
ba65
ba34
ba9d
bad6
ba97
ba5e
ba96
ba02
ba2f
ba82
babe
ba1d
ba42
baa7
c850
c85b
c8f3
c84c
c8ea
c8d5
c802
c846
c81b
c805
8b73
8b55
8b7c
8b33
8b41
8bfb
8b37
8b7a
8bea
8b66
8b99
8be5
8b83
8b88
8b12
8b3a
8bb7
8bd3
8b0f
bd03
bd76
bd91
bd52
bd60
bd38
bd1f
bd39
bd5c
bde8
bd7e
bde5
bd59
bd24
bddc
bd5a
bdce
bdad
bd9c
bdc5
bdbe
bdef
bd16
bda7
bdab
bd08
eeed
eebb
ee76
eef5
eef3
ee6d
ee54
ee37
ee66
ee86
eed5
ee72
ee5e
eefa
ee3c
ee87
ee84
ee90
ee7d
ee2b
eecd
eeac
eeb0
ee09
ee05
ee0e
c6f5
c665
c651
c643
c699
c678
c6a5
c6dc
c6e2
c6e4
c6c7
c6e7
c6d3
9a7b
9aaa
9a6a
9a77
9a4c
9afd
9abf
9a6d
9ae6
9a43
9aaf
9a86
9ab6
9afa
9a40
9adc
9a6b
9ac7
9a11
70da
7054
70d5
705e
7025
7049
702d
cb55
cb53
cb9d
cb63
cba0
cb57
cb29
cbd1
cbe5
cbd9
cbce
cbbe
cbc7
ebed
eb38
eb63
ebe6
eb44
ebe1
ebe5
eb02
eb25
ebd7
eb49
ebb3
ebf8
ebbe
eb15
eb04
a9ff
a97b
a97c
a9cc
a953
a920
a948
a931
a929
a9d5
a9ba
a983
a949
a927
a9dc
a9c5
a9b1
a994
a9bd
a9a3
a91d
a909
a911
dd76
ddb5
ddb2
dd31
ddea
dd29
dd66
dd7f
dd83
dd79
ddc8
ddf8
ddc6
ddcf
dd0b
ddb7
dd09
ddca
dd11
ddab
dd07
d503
d573
d57b
d5bb
d552
d560
d565
d592
d595
d56c
d58f
d5fc
d5e9
d558
d5c4
d589
d5bc
d5ae
d5d4
d5e7
d5a3
d5ca
d511
ae0a
ae73
ae2a
ae77
ae4c
ae43
ae2c
aef0
ae83
aed7
aedb
aee3
ae5a
ae56
ae5f
ae8a
ae0d
efbb
ef7c
ef6e
ef4c
ef6d
ef37
ef35
ef10
eff0
ef3f
ef4b
effa
ef2f
ef56
efcf
efd4
efb8
efcd
ef16
ef11
bca4
bcfd
bc6d
bc4f
bc9b
bc37
bc57
bc7f
bc99
bc8f
bc22
bc2e
bc25
bcbe
bc11
d245
d260
d210
d2ec
d28e
d2a8
d259
d29e
d29f
d2e2
d22b
d28c
c361
c377
c338
c3b9
c3b5
c326
c3fa
c3f6
c3ad
c3e7
c3ef
c31d
c318
c30d
c305
b8cc
b865
b8fd
b892
b841
b84f
b836
b85c
b843
b837
b87a
b835
b88f
b83f
b817
b8f8
b8c6
b8ce
b8ef
b80b
b83a
b808
94e8
94ea
94f9
9402
9424
942f
94c0
9487
9490
94d9
94cf
943d
94a3
94a9
9404
9407
8a7c
8a2a
8a21
8a4f
8a86
8a78
8a2f
8a27
8adb
8ac8
8ad9
8af6
8a3d
8a2b
8ad2
8ad0
8aac
8a1d
8aab
8c32
8c1f
8c63
8c43
8c37
8c57
8c10
8cc0
8c8a
8cb1
8c2b
8ce7
8cd0
8cd3
8c06
8c04
9503
95ed
95aa
9552
95cc
952a
95b9
9528
9547
9563
95bf
959b
9554
95f9
9586
9572
955e
9578
957e
9583
95a8
9549
95e3
95c8
95ce
953d
95b8
95d0
c750
c768
c7d8
c76d
c7e6
c77a
c735
c77e
c7dd
c7f2
c783
c7a8
c74b
c746
c7d0
c78c
c7b7
c7d3
e5ed
e576
e5fd
e539
e567
e597
e5e9
e5dc
e55a
e593
e51e
e58a
e5f6
e5cd
e53e
e5b7
e542
dcde
dc70
dcf5
dcf3
dcbf
dcd6
dc3f
dc7e
dcdd
dcc0
dc93
dc8d
dc90
dc30
dcf7
dc42
dc0d
cd03
cd73
cd69
cdb2
cd54
cd66
cdf0
cdec
cdd5
cd83
cd3c
cdac
cd15
cd1b
cd0f
cd05
cd0c
b755
b7b5
b758
b740
b725
b749
b76b
b771
b784
b7d9
b717
b78a
b7ae
b72b
b7c3
b73e
b7b7
b7ca
b719
9c5b
9c20
9cda
9c95
9cb5
9c44
9c29
9c75
9c2f
9cdc
9c56
9c8b
9c17
9c0d
9c06
ca03
ca73
ca77
ca41
ca4f
ca43
ca54
caf9
caaf
ca7f
cad5
cae3
ca71
cab1
ca85
caae
ca2b
ca1b
ca0c
ca06
c245
c253
c238
c2da
c239
c237
c27a
c257
c267
c2f9
c2ec
c274
c222
c2b4
c2d7
c2dc
c287
c21e
c2ad
c2bd
c23e
c21c
c2ab
c206
6050
6092
6047
606c
6067
6075
6040
609e
60f8
6085
6042
c5ed
c555
c560
c5fd
c5c9
c539
c55d
c52e
c5e9
c526
c54b
c579
c5fa
c5a5
c58b
c5bc
c5c5
c5c7
c5cd
c5ac
c515
30de
307b
3055
30cc
30f3
3095
3099
3083
30e3
308d
30c4
30b1
30be
302d
30bd
307d
f081
f077
f065
f066
f0db
f0c8
f0f6
f0cb
405b
4060
4021
404f
40e1
40db
40c0
4080
4046
40e2
408a
40df
40d4
b050
b0c9
b095
b09b
b029
b022
b0b4
b0f8
b089
b0d2
b0c3
e081
e02a
e077
e092
e054
e04b
e0b4
e071
e0b3
e0be
e042
d0cc
d098
d068
d026
d040
d09a
d093
d087
d090
d0b1
d0e7
d0cd
d0d2
d08c
d0b7
c050
c0ed
c069
c04e
c098
c0fd
c0b2
c067
c0d7
c09e
c0c8
c082
100e
a007
a00e
030e
5015
e00e
0a09
9007
900f
021f
0212
0a78
0a7f
801e
032b
2104
5008
de06
de05
f001
f009
300f
b001
c009
6000
700a
d001
d00b
d006
d003
550b
5509
3017
450d
4507
650e
f506
750b
750c
750e
350f
250f
8502
c506
e50e
1508
5031
503a
5030
503e
2010
2019
201e
c018
701a
901d
703a
d01d
d017
d019
e01d
a0a4
603e
f037
40a0
40a2
d0ac
803d
e0a1
e0ab
9031
70a6
70af
a034
a039
c03c
60ab
e034
e03f
e039
50a7
50a9
80a8
d03b
b0a6
b0a5
c0aa
90a1
30a3
30ac
0173
01fb
015a
01f8
01f6
013d
01df
01ae
013e
01d3
0803
0873
08aa
0833
08a4
08c9
0836
08d1
08f4
0897
0826
0802
0856
0893
0871
08c6
08df
087d
082b
0a62
0a81
0a32
0a45
0ae1
0a56
0a93
0a84
0a46
0ad0
0aab
03aa
0398
0365
03af
03f0
03e4
03ce
03bc
033b
03b8
03d0
107b
1052
1041
1048
1054
1066
1049
1071
1014
10ce
10cf
10d2
10ca
101b
0291
02c9
02b2
02a0
023f
0290
02e0
02b8
0207
174a
17fe
17f3
1748
1743
17e8
17af
1722
1717
178a
17e0
17ce
1794
1785
17d4
171b
17ab
1708
170c
1862
187c
1843
1872
182e
1826
18a1
1888
18b8
1830
18b7
18ab
73bb
734e
737c
7353
73fd
7364
731f
73fc
73f2
73b4
73fa
73bc
732d
737d
732b
73b8
73ef
733e
73ca
73a9
731c
730d
7305
7306
2362
2355
23cc
23fe
23d8
2351
23f4
2326
231e
238a
23c4
23df
232d
23d4
23c1
23d0
2311
2315
23c2
2318
deaa
de77
de34
de31
dee8
def4
dedd
de27
de8d
de8b
ded9
de8a
2176
2152
21f5
2192
21c9
21d8
214f
2172
215e
2158
21e3
21b3
21bd
21c3
21ee
21c2
5062
5076
507c
50f3
5098
506d
5029
5066
5024
50db
506b
508a
50df
50d4
50ee
50ca
be4a
be32
be4c
be9d
beaf
be2c
beb6
be2e
be3c
be8d
be1e
bec4
bedf
be7d
bee7
beb7
be09
61de
6169
614e
61cc
6141
6151
619b
6166
6102
6124
6190
61e4
61c7
6188
61ef
61d0
618c
6119
6f6a
6f33
6ff3
6fbf
6f37
6f7a
6f86
6f02
6f25
6f24
6f2f
6fdc
6f87
6fcf
6fc3
6f8c
6f09
6f0c
05ed
05ff
052a
05fd
0564
05e1
05d1
05dd
052f
05db
0546
05f8
05be
0523
05f1
aa60
aa64
aa31
aa5c
aa9b
aa54
aa57
aafc
aaa8
aa79
aa3c
aa5f
aae2
aa3d
aaf1
aac1
aab8
aa12
aaa7
aa0c
1aed
1a32
1a21
1a64
1ab5
1a7a
1a44
1a66
1a58
1a40
1ad7
1a89
1a82
1a94
1a2d
1ac1
1a8c
1a19
1a07
ff99
ffd1
ffb4
ff40
ff02
ff80
ff90
ffd9
7cde
7ca6
7c28
7c51
7cbf
7c44
7c2e
7c9a
7cd7
7c5a
7c1e
7ccf
7cc7
7cc1
7ccb
7cc3
7cca
7c42
7ca2
7c18
696f
69bb
694a
6976
6952
69cc
69fd
6937
6944
6929
698e
6997
692e
69a8
69cf
69f6
69e7
69b8
6916
69d0
69a3
6942
69a7
cc50
ccff
cc70
cca4
cc64
ccb5
cc4f
ccf9
ccf0
cc74
cc3f
cc58
cc83
cc84
cc46
cce4
cc9c
cc2b
cccd
cc06
eda6
ed38
ed92
edc9
ed51
ed35
ed66
ed9a
ed2f
ed1e
ed46
ede4
ed8a
ed89
ed3d
edd4
edcb
ed8c
edac
eda2
ed07
6273
6276
62cc
621f
62b2
62e6
6237
62ea
6244
62f9
6275
6286
62b6
627e
6283
6259
629e
622f
629f
628a
62c4
6216
62ee
623a
4f0a
4f73
4fbb
4f98
4fd8
4f54
4f66
4fb6
4f97
4f40
4f3c
4f80
4f89
4fcd
4f13
4f3a
4fa9
55ed
55d8
55d6
5557
552c
55ba
55a8
5524
55a5
559c
55c3
55a7
551b
551c
040a
04de
0481
04f3
0498
04a4
045d
0436
04fc
0471
045f
048a
04ce
0489
049c
04b1
04c1
04ca
041c
4a03
4a61
4acc
4a6e
4af5
4a57
4aea
4a29
4a75
4afc
4ad5
4a78
4ae9
4a9a
4a2f
4a3c
4a8b
4a46
4ae0
a701
a703
a7ff
a76e
a745
a7fe
a733
a7f3
a734
a71f
a7b5
a748
a75d
a754
a7d1
a7f4
a7e5
a7dd
a782
a77d
3373
33ff
33fe
33f3
339d
3341
3348
3310
3367
33ea
33d1
337e
3340
3349
3327
331e
333d
33b1
3394
3313
33f7
33d3
330d
3308
3703
3773
3762
37aa
3781
372a
3768
37da
37c9
37bf
37e6
379b
3767
37d1
3774
3797
3778
37dd
379e
3787
371e
3714
37c5
37c1
37e7
37ee
7901
79a0
7954
7910
795e
7979
79a1
7949
791e
79f1
792b
79d4
7913
79b0
7942
7905
76fb
7651
766d
7631
7643
76b6
76e9
7696
7602
7624
76e0
76be
7688
763e
7609
760d
7607
116e
1163
11d1
11ec
11d5
1179
11fa
11e3
11ce
11bd
11e7
11cb
1113
11b0
1109
3801
38ed
387b
3861
3891
386a
3877
3848
38a0
384f
387a
3844
3878
384b
3879
38fa
3827
386b
38c4
38c7
38c3
38d0
38ac
3819
3808
316f
3173
3152
31fd
31da
3163
31b5
316c
317a
31af
3166
315e
3125
3156
31c8
31bd
31cb
31d0
31ee
3105
3106
4ebb
4e55
4e39
4e37
4e24
4e2f
4e1a
4e8b
4ee4
4e23
4ed2
4ed0
4eb7
4ec2
2ad8
2ab5
2a6d
2ae8
2a29
2ae9
2a58
2a1a
2af8
2a94
2a23
2a88
2ac2
2a0f
2a08
22aa
2291
2252
226e
2238
2264
2239
22a0
229b
2237
2229
2286
2272
222e
2296
2227
2293
2280
22c8
22cf
22bc
22b1
22e7
2213
22d3
221d
22ca
22a9
220e
a562
a576
a54e
a5fe
a560
a520
a568
a547
a531
a5ea
a58f
a586
a5b4
a540
a5db
a582
a5b1
a588
a513
5b33
5b98
5b28
5bfb
5ba0
5bd6
5b8f
5bd5
5b5e
5ba8
5bb4
5ba5
5bdb
5bc5
5bcd
5bd0
5b15
816f
8160
8164
81b2
815d
8157
81ea
81fa
8140
8149
813c
81c0
8171
81cf
813d
81ae
81c1
81eb
81a2
8118
6e0a
6e55
6e70
6e33
6e57
6e10
6e86
6e5e
6edd
6e59
6e49
6e8d
6ee2
6ef6
6ead
6ebc
6eb8
6e16
6eac
6e0f
90ff
9057
907f
9099
90ec
907e
904b
9024
9046
90e2
9090
9082
9094
90d2
90b0
bbff
bb6a
bb21
bbb9
bb9d
bb5c
bbe1
bb29
bbb6
bb78
bb96
bbf2
bba8
bb9a
bb27
bbdb
bb71
bbc4
bb0b
7b73
7b70
7bf5
7ba6
7bfd
7bfb
7b39
7b48
7b4f
7bba
7b27
7bf6
7b3d
7b2d
7bb7
7bd3
7ba9
7b05
397b
3991
395b
397c
3968
3951
39e6
3910
39d5
3972
3940
3949
3956
39e2
3989
39e7
39eb
39d3
391d
39a7
39c2
391b
3905
640a
6455
6453
645d
64bf
6429
64f0
64d5
642e
64dd
643c
64c0
64e3
6456
648d
648b
641e
645f
64ae
64ee
640b
6442
640d
5132
51f5
517a
51f9
5172
514b
5146
51e7
5188
51d2
5116
511d
5118
51ab
5105
63aa
63fd
63fb
635c
6329
63d5
6371
631e
6389
63be
6318
630e
524a
526a
5245
5260
5268
5234
5236
5267
522c
528f
5278
5226
52dd
5258
5249
529e
522f
52e3
5256
5293
529c
52ee
52b0
5218
5204
3476
34f5
34bf
345c
34e5
349a
34f6
347d
34d4
34ac
343e
34a2
360a
366f
364a
36f5
36bf
36ea
36f9
3697
3672
3678
36e9
36f2
3659
36a5
369e
3694
36b8
36c2
36a2
360c
284e
2853
2854
2810
287f
28d5
2884
28f6
28be
28ee
2809
a438
a495
a44f
a4e6
a437
a42e
a496
a424
a456
a493
a49c
a494
a4c7
a42b
a4b8
a40b
a4b7
a4d3
a41d
a419
a691
a6b9
a6fb
a695
a678
a626
a696
a64b
a6e0
a6ee
a60b
090a
0950
094e
097c
09f5
091f
094f
09d6
0954
0910
09ea
0944
0929
0999
09f0
099a
099e
09bc
097d
092b
0913
090f
8091
806a
8021
8057
80f0
8072
802e
8026
80f2
8059
80e3
805f
80bc
80df
80f1
80eb
5eff
5e4e
5ecc
5e6a
5e65
5e68
5e6c
5e5d
5e57
5e67
5ef9
5eaf
5e8f
5ef0
5eb6
5e2e
5e78
5edd
5ef2
5e9a
5e71
5ee2
5ec5
5e3d
5ebd
5e2b
5ec3
5ea7
5e0e
fe61
fe77
fe95
fe9b
fe35
fe5e
feb4
fefa
fe27
fe71
feb1
fee7
fe12
fe0b
fe3a
fe42
fe11
fe07
2d7b
2dea
2d7f
2d99
2dfc
2d74
2db4
2d9e
2d82
2dcd
2d3e
9776
97d6
9767
974d
97ec
9726
972f
97db
9793
971a
97e2
9717
97e0
97cf
97ad
97bc
97b1
97b7
971c
970e
5d4a
5d32
5d41
5d75
5dec
5dc0
5dad
5dc5
5d94
5dbd
5db8
5d13
5d07
65bb
65aa
6581
652a
6577
65d8
65d6
65e6
655c
6510
657f
6586
65a1
6546
6590
65c7
65d4
e869
e8bb
e876
e84e
e852
e860
e865
e892
e8da
e8c9
e8f0
e875
e827
e8c0
e884
e8b1
e8b8
e812
e80b
e81c
e804
fdcc
fd33
fd28
fd5d
fda8
fd9a
fd25
fd3c
fdc0
fdb3
fde7
fdd0
fd8c
fd42
fda7
fdab
4c33
4c34
4cd8
4c36
4c7a
4c57
4c2c
4ce9
4c5a
4c1a
4cce
4c89
4c85
4cd4
4c8c
4c0d
2469
244e
2477
2420
2492
2451
2431
2444
248f
24e9
24a5
243c
245f
2490
2430
24d3
24ab
240e
91ff
91bb
9155
91fe
9163
91b5
9148
915d
9131
914b
91a1
915a
919f
91e2
9117
91ce
91f1
91b7
91c2
1e0a
1e61
1e32
1e33
1e7a
1e8f
1edd
1e24
1e5a
1e85
1ef7
1e16
1ed0
1e0b
1e09
1d69
1dbb
1d91
1d4c
1dbf
1d8f
1d40
1d25
1d27
1df6
1db1
1dd4
1dcb
1d13
1db0
1db7
1dd3
1d09
1da2
1da9
0cde
0c33
0c60
0c65
0cb2
0c5d
0ca0
0ce6
0ce8
0cea
0ce1
0c8f
0cec
0c59
0cc0
0c5a
0c23
0c2b
0cb8
0cf7
0c16
0c3a
0c42
0c15
0c18
4173
4170
412a
4160
4138
41b5
415d
414d
4199
41fc
4186
413f
4146
41c4
41ad
4194
41b8
41cd
41ca
410d
4108
4106
296f
2945
291f
29af
295e
294b
2940
2971
291a
298d
2990
2917
2989
29be
29c7
2906
53bb
5381
53b2
5339
53a0
53e6
534d
537f
53ec
53dd
53fa
53ae
53a3
5308
130a
1391
134c
1365
1357
138e
137e
1327
131a
1313
1316
13d3
1304
14ed
147b
14aa
1481
14f5
1433
1460
14a4
149d
144f
1436
14e6
147a
147f
14f0
1458
14f8
149c
14c5
143d
1423
14ef
1409
14ca
14c2
1418
1408
d9aa
d952
d96e
d94c
d9a4
d992
d9c9
d91f
d948
d97a
d9af
d926
d9ba
d9c8
d9c4
d989
d9b1
d9cd
d90b
d905
d908
8d69
8d52
8d6e
8d54
8d37
8db6
8d96
8d49
8d5a
8d8b
8d87
8dd9
8de0
8db1
8df1
8d30
8dee
8d3e
8d0f
437b
4381
4355
4391
43e8
4367
43e1
4386
43e9
43dd
439e
43c0
43c8
43f8
43c6
437d
4388
43cb
431d
4342
43ab
4304
682a
6841
6831
6857
6835
68af
687f
688f
683f
68d7
6884
6890
6882
68bd
68c3
681b
6d45
6df3
6de6
6df0
6ddc
6d14
6dc4
6db8
6def
6db7
6dd3
6da7
6d0f
4b6f
4b7b
4bbb
4b68
4bbf
4b37
4b57
4bd1
4b7e
4b96
4b27
4bc0
4bdc
4b5a
4b71
4b1e
4be0
4bdf
4bac
4bb0
4b07
a150
a160
a198
a1b9
a19d
a195
a139
a15d
a186
a122
a1a8
a14b
a127
a13c
a1dc
a15a
a194
a1b8
a1d0
a1ee
a1ab
75cc
7545
7553
7521
75fb
754f
7537
7575
752e
759a
759e
7593
758b
75c5
6a53
6a64
6afb
6a6c
6a5d
6a57
6aea
6a44
6a5e
6a26
6a25
6aa5
6abc
6a88
6acb
6a16
6a1d
ac69
ac52
ac7c
ac70
ac53
ac60
acda
ac9d
ac48
acf0
ac22
ac7e
ac40
ac02
ac89
acee
acd3
ac07
77ed
777b
7770
77f5
7798
77b5
77e8
77ea
77af
777f
7775
77db
7787
77b3
7790
7723
7788
77b7
7715
7719
7706
5a50
5a6a
5a7a
5a44
5a86
5ae9
5a58
5adb
5a80
5ac8
5aad
5abe
5acb
5a30
5ad3
5a06
2603
2645
264c
2620
2695
2663
2631
26fc
2659
265a
26d9
26df
26bd
261d
3581
35f5
356a
3551
356c
35e6
35b4
358a
35e0
35c5
35d0
3512
358c
3542
075b
07a4
071f
07b5
07e6
079b
07ea
0766
077f
07f4
0772
077e
07f2
07b4
076b
078a
0782
07c5
073b
0712
071b
0719
0718
070e
b201
b26f
b232
b277
b268
b254
b22c
b2f4
b274
b279
b259
b280
b2b3
b246
b214
b2c5
b2df
b2b8
b216
b2d0
b212
b23e
1f47
1ffb
1fb2
1f5d
1ffc
1f3f
1f7e
1fdd
1f58
1f9a
1f24
1f8a
1f14
1f9c
1fb1
1f3b
1fc1
1fb0
1f06
47de
474a
47f5
471f
4747
476c
4735
474d
47a5
476b
4793
47d9
47c4
4789
47cb
06ed
06ff
066e
069d
066d
06a0
0635
0666
0699
062e
06e9
06dd
0640
0649
0671
061a
06b1
0685
067d
06cd
06ef
06eb
06a3
06b7
06d3
06ca
06a2
f57b
f5bb
f555
f54e
f591
f534
f55c
f522
f558
f59a
f587
f5ce
f59c
f53b
f5c7
f515
f51b
f519
4d50
4ded
4d62
4d38
4d5d
4d10
4d86
4d8e
4d83
4d56
4d5f
4dd9
4d14
4dc4
4dd4
4dcb
4db0
4d19
4d18
4d04
f491
f4f5
f4a4
f45c
f457
f4f0
f4f4
f44b
f4dc
f493
f42b
f41b
f419
f40e
3fff
3f45
3f65
3f64
3fb2
3f39
3f31
3f37
3f72
3f83
3f3c
3fc0
3f56
3fbe
3fdf
3fc1
3f12
3f8c
3f19
0b81
0b28
0b41
0b5c
0be8
0b44
0b22
0b58
0ba5
0b93
0b8d
0b14
0bcf
0b82
0b3d
0bdf
0b88
0bac
0b0b
0bab
0b0c
0b07
545b
5438
5447
54f9
542c
54ba
5458
5493
548d
54e4
5482
54ae
54d4
54cb
54f7
54a3
5411
5419
66de
664a
6691
6621
66da
66fb
6651
6631
667a
668f
6686
6690
66c3
66d0
663e
6609
6618
660f
7f0a
7f7b
7f4e
7fcc
7f53
7f64
7f41
7f39
7f10
7fe1
7f29
7fe9
7fa8
7f02
7f3c
7f8b
7f9c
7fd2
7fd0
7fca
7fa7
9d01
9d45
9d77
9dda
9dd8
9d9b
9dfc
9dba
9df2
9d83
9d4b
9d79
9d5f
9d46
9de0
9d9c
9dc7
9d16
9dd3
9d42
9d1c
1276
1291
1260
129d
12d8
127a
12e1
1297
1272
122f
12c0
1271
1290
12bc
123b
12cb
12eb
12c3
12b0
1215
12a7
121b
9662
96ff
96aa
9641
96a0
96e6
9686
9697
967e
96b4
968b
961e
963b
9694
96ae
1b4c
1ba0
1b54
1b4d
1b40
1b56
1bcd
1bb0
1bd3
1b07
e673
e6f3
e698
e69d
e6fb
e66c
e6e6
e6e8
e67a
e6f9
e6a8
e690
e614
e69c
e6bd
e6d2
e68c
e609
1652
1653
161f
16b2
16e8
1699
16f0
1675
1674
162e
1679
169a
1627
16c0
1646
16cf
16b1
1616
160d
1607
f17c
f16e
f153
f138
f164
f1d8
f1b2
f15d
f14f
f1e5
f183
f1c6
f1c4
f1c5
f185
f130
f142
f115
8862
887b
8876
884e
886a
8833
8838
889d
88d1
88e5
8883
8879
8825
8887
888a
88be
880b
88b7
8806
3b92
3bc9
3b36
3b43
3b37
3b67
3bea
3be1
3bd1
3be9
3bdd
3bdc
3b6b
3b46
3bbc
3b82
3b94
3bf1
3bc1
3b06
0f73
0f61
0fcc
0ff3
0f60
0f98
0f65
0f64
0f34
0fe8
0f99
0f3f
0fb6
0f97
0f58
0fb4
0f59
0fa5
0f56
0fe4
0ff6
0f85
0f3e
0d62
0d53
0da6
0d68
0dc9
0d1f
0d63
0da0
0d44
0dd1
0d97
0de5
0dfa
0ddb
0dc0
0d6b
0d8d
0db1
0dbe
0dcd
0d1d
0d11
0d1b
0d08
0d0c
4473
44f3
446c
4467
4444
447f
4486
442e
4426
44dd
4449
449e
441a
449f
44b8
44ef
44d0
44a3
448c
443a
440c
f3aa
f35b
f3fd
f3a0
f3f0
f3ec
f386
f32e
f327
f3e3
f36b
f38b
f390
f33b
f3cb
f313
f316
f3a7
f30e
e939
e9e6
e954
e9e8
e910
e986
e922
e996
e9db
e956
e9cf
e9c5
e9c7
e988
e9f7
e9b0
e9b7
e91d
e919
e904
e907
fc01
fcde
fc7b
fc45
fc53
fc68
fcfb
fc6c
fc31
fc43
fc44
fcf9
fc8e
fc02
fcd7
fc8d
fcb3
fcc8
fcad
fc82
fc12
fc19
3ede
3efd
3ec9
3e6c
3ed6
3e9b
3e86
3ee9
3e58
3ece
3e3b
3e23
3e85
3ecb
3eeb
3e13
3eca
2c01
2c03
2ced
2c4a
2c98
2c21
2c95
2c5c
2ce5
2cdc
2c5a
2c80
2c3d
2cbe
2c85
2cae
2cb0
2ca7
2c0c
d801
d876
d85b
d870
d8b9
d837
d844
d85e
d8f2
d8fa
d89e
d8e2
d8ce
d8ae
d8d0
7281
7232
722a
7234
722c
72d1
7278
72dd
7225
7259
72a5
729f
728b
72b3
725f
72e4
72c5
7294
72ae
72bd
72d2
721c
8501
8561
857c
8577
8595
852e
85dd
854b
859e
85bd
85cb
85f7
858c
42de
42f3
42a6
429d
4251
4235
422c
42f0
42fc
4274
42d5
423c
42ad
423b
42c3
42a3
42a9
4218
42ab
4976
4938
4920
499b
49a1
498a
49ad
493d
49cb
49ab
4906
ad69
adaa
ad5b
ad6e
ad6a
ad54
ade1
ad29
adec
ad2e
ade5
addd
adba
ad96
adc0
ade2
adc4
adeb
ad13
ad12
adb7
ad15
ad05
ad0c
8f6f
8fff
8f55
8f32
8f65
8f47
8f63
8f10
8f67
8f29
8f7f
8fd1
8fd5
8fe9
8f25
8fd7
8fc0
8f9f
8fe2
8f23
8ff1
8f2d
8fd4
8fe7
8f12
8f1d
8f42
8f15
8f0d
74ed
744a
744e
7421
74fd
7431
74e8
7467
744d
7483
74fa
74a1
7424
7427
7490
7414
74ae
742d
74eb
74a7
740e
9801
98ed
9876
9852
98fe
98a4
9892
9868
98d8
9828
9863
98b5
9843
98ea
9829
98e5
9896
9859
98a5
9827
98db
98b3
9846
9890
98c5
98e7
98b8
98eb
98d2
98a9
9805
9201
9273
9220
92fd
9292
9234
929d
926d
927a
92d5
922e
92a8
92a5
925a
9271
92f8
92c6
92cd
9209
92a2
8976
894e
89fe
89f3
89a6
89a0
8910
8972
893c
8984
89ad
89c5
8988
8919
5776
57cc
5770
576e
5765
5792
5741
57b2
57e1
5786
575e
5726
57a5
575f
57d9
57f6
57c5
57e7
5712
57ca
57a9
7e32
7e21
7ea4
7e1f
7e9d
7ebf
7e6d
7e43
7e54
7e4d
7e2c
7e99
7eb4
7edc
7e8d
7e9f
7e87
7e80
7eb3
7e2d
7ec1
7eb8
7eb0
7eb7
7ed3
7e42
7e0d
d150
d169
d133
d138
d1b2
d1e6
d1f9
d158
d183
d146
d1cf
d1c1
d1cd
d1ca
d1a2
d10c
5981
59cc
596a
596c
5948
59e6
595c
59d1
595e
59b4
599f
59b3
5917
599c
59c7
a881
a832
a870
a84c
a820
a8da
a8d8
a895
a851
a854
a8ea
a874
a87e
a826
a8d7
a88b
a887
a890
a8e0
a83d
a823
a8ae
a8f1
a82b
a8e7
a888
a8cb
a83a
a81d
a8a2
a818
a807
fb6e
fb39
fb48
fb6d
fbe6
fb5c
fb37
fb35
fbea
fb44
fbec
fb5e
fb78
fbdd
fb58
fbf2
fb84
fbd9
fbce
fbc4
fb23
fbd2
fbee
fb1d
fbc2
fb18
fb0d
af03
afde
afbb
af28
af6c
af4f
af2c
af75
af2e
af4b
af71
aff6
af2d
afd4
afc1
aff7
afd0
afca
afab
da81
da2a
da38
da97
da4b
da17
dae0
dace
da2d
da30
dad0
da3e
dad3
da0d
452a
4592
4534
4547
455d
4536
45e8
45b6
455e
4559
45c0
4546
45d9
453b
45be
45bd
4516
4542
48ff
4852
482a
48fd
4835
48fc
482e
4825
482f
4880
485f
4814
48df
48bd
48ee
48ab
4805
3a6e
3afd
3a64
3ad8
3a36
3a7a
3a8f
3af0
3af4
3a27
3adb
3a94
3adf
3ad2
3ad0
3a19
82aa
8245
82f3
827a
824d
827f
82ec
822e
82e9
82a1
828b
8280
82b3
828a
822d
827d
82a3
821d
821c
586f
58ed
5832
58f5
586d
5837
5872
5878
58e5
58e9
5840
5859
58e3
5871
589f
58be
5813
58a3
583e
5819
5808
580c
5f01
5f6f
5f69
5fff
5f4e
5f91
5f1f
5f9d
5f51
5f6c
5f6d
5f31
5f67
5f97
5f78
5fe5
5f24
5fd7
5f87
5fe0
5fcf
5f82
5fa2
5fa9
5f0d
5f05
5f07
f920
f995
f963
f943
f99b
f972
f95e
f978
f99a
f9dc
f971
f91a
f95f
f9c6
f994
f92b
f9d0
f912
f91d
f9c2
f918
f905
f907
83de
8332
8352
836e
834c
834f
83f9
832c
83d1
8326
8396
8379
835a
8380
835f
83f8
83f1
83c7
83d4
83ee
83a9
bf0a
bf50
bffd
bf34
bffb
bff9
bf3f
bf79
bfdb
bf9f
bf8b
bf90
bf17
bfad
bf82
bf88
bf13
bff7
bf09
bf42
bf19
bf18
bf04
2eed
2e73
2e62
2e5b
2e52
2efe
2e4c
2efd
2e28
2ebf
2e10
2e44
2e8f
2e79
2e3c
2e56
2e1a
2e14
2ecd
2e16
2e3a
2eb0
2ea7
2e04
b350
b3ed
b37b
b3bb
b355
b32a
b320
b328
b363
b35d
b3bf
b3f4
b39f
b380
b3c8
b3f8
b38a
b3c1
b3d2
b30b
b31d
b311
e173
e14e
e153
e164
e163
e151
e1e6
e17f
e12f
e13d
e1d4
e10f
e10d
c1ed
c152
c160
c1a4
c138
c164
c174
c1e9
c158
c159
c180
c1b3
c1c8
c1ae
c1cd
c1ef
c10e
c10c
c40a
c4a6
c420
c49d
c4d8
c428
c45d
c4d6
c443
c424
c42f
c4c6
c4f6
c43b
c4c1
c41d
c411
c4a9
67de
674e
67cc
67a6
6734
6751
67e8
67d1
67b6
676b
678d
6714
6713
67a3
670b
670f
3d81
3d32
3d2a
3dfe
3dfd
3d64
3d5d
3d67
3df9
3df0
3dd1
3d7e
3de5
3d02
3ddb
3dc0
3ddc
3dad
3d9c
3dbe
3d13
3da9
5c6f
5c62
5c4e
5cf3
5c65
5ca0
5c54
5cf0
5cd1
5cb6
5ce5
5cfa
5c40
5ca1
5c59
5cc0
5c6b
5c8a
5c14
5cbc
5c3d
5cd3
5c0f
5c0c
0e01
0e69
0e62
0e61
0e76
0eda
0ea0
0e44
0ef0
0ed1
0eec
0e25
0e1e
0e9c
0e3d
0ebe
0ef1
0eb0
0e1d
b950
b977
b920
b9fb
b948
b9a0
b9d1
b986
b922
b95e
b978
b9ba
b94b
b9fa
b9db
b9c0
b98d
b987
b9c8
b9be
b923
b93a
9b61
9bc9
9b9d
9b6d
9b9b
9b4d
9b66
9b75
9b40
9b3c
9b80
9b90
9b17
9b9c
9b82
9be7
9beb
9bf7
9b0b
9b1d
9b15
9ba7
9ba9
9b19
8701
87ed
8773
87cc
8777
87a6
87bf
877a
8735
8727
8717
87f6
87d4
87ee
873a
87ca
8711
87ab
eacc
ea2a
ea60
ea65
eada
ea51
eaa0
eab6
ea58
eaa8
ea24
ea49
ea3c
eadc
ea9f
eace
eaad
ea9c
eac5
eaf1
ea19
ea18
fa01
fa0a
fa7b
fafe
faa4
fa68
fab2
fa5c
fafc
fa83
faa5
fa56
fac4
facd
fac2
fa0f
7a6f
7a76
7a5b
7a6e
7afe
7af3
7aa6
7afb
7af9
7a7f
7a2c
7ae5
7add
7a40
7ad7
7adc
7a89
7abd
7a88
7aca
7ac2
7aa9
7a1b
7a04
2f0a
2fff
2f55
2f52
2fb9
2fc9
2f95
2f39
2fe6
2f10
2fe1
2ff0
2f2e
2f78
2f40
2fa1
2f5f
2f0f
20fe
2053
206d
2054
20f2
20b4
2084
20d9
2094
20b8
20cb
1581
156e
152a
1545
1577
154c
1534
1548
1531
15e8
1566
1575
153f
157e
15a1
151e
15b3
15f8
15bc
15ae
15e7
15ef
15d0
15a3
15b7
1977
1921
19fd
1928
19fb
19d6
1957
1935
19f9
1922
1997
192e
19e5
19a1
19c0
198b
1987
19ef
1913
19ac
1942
1915
1904
f676
f6a6
f6fb
f648
f644
f67f
f686
f6b6
f649
f6b1
f623
f6c7
f611
f604
8669
8645
864c
8660
8663
865c
8637
8667
862c
8622
8640
869a
8627
86c4
86ad
862d
86bd
862b
86d4
86b7
861b
8607
46bb
467c
46da
46fb
4636
4643
46d1
46dd
4602
4656
4646
46f8
463d
46be
46eb
46d0
4612
46ee
463a
4619
2745
2753
2772
2796
2724
2756
2793
27f6
27c7
27d4
27d0
27ac
27b7
270d
c973
c9ff
c95b
c94c
c9c9
c9d6
c974
c92e
c9e5
c926
c983
c902
c93c
c956
c95f
c9e0
c9ce
c9bc
c9c7
c91d
c9ca
e37b
e36a
e3fe
e334
e337
e329
e3f2
e34b
e379
e33c
e356
e3b3
e317
e39c
e3d4
e3ee
e3ca
2503
2573
2533
2551
25b2
2548
255d
255c
25e8
2510
2574
257e
25b3
2582
25b1
25be
2585
252b
25cb
25ef
25eb
2513
25d2
25b7
2b55
2b33
2b21
2b41
2bb5
2b36
2b78
2bf2
2b40
2b02
2b84
2bc7
2bef
2bf7
2b04
a34a
a34e
a35b
a345
a336
a399
a3fc
a3b6
a326
a34b
a35a
a35f
a346
a3ad
a3eb
a30f
6ced
6c55
6c4e
6c7c
6c53
6cfd
6c9d
6cd8
6c28
6c36
6c31
6ce8
6c57
6c7f
6cd5
6c7e
6c58
6cdb
6c71
6c89
6c7d
6ce7
6cc3
6cb7
6cca
6ca9
6c0f
3cff
3c81
3c76
3c33
3c5c
3c8e
3c56
3c71
3c84
3cf8
3c23
6b69
6b47
6b48
6bd6
6b10
6b22
6bba
6b9a
6b24
6b2f
6b93
6b71
6be0
6b3b
6bd2
6ba3
5650
56bb
5621
5692
5647
5663
56a0
5629
5666
56d1
56ec
56e9
5624
562f
5614
56cb
56eb
56c3
560b
56a2
561b
5618
f24f
f266
f2d1
f275
f2ec
f24b
f2a1
f249
f29e
f227
f2e3
f29f
f246
f2f8
f2e0
f29c
f294
f288
f212
f2ac
f2c2
f20e
f86a
f84c
f898
f8a4
f8fb
f866
f899
f897
f85a
f8ce
f8d3
f818
d6de
d65b
d6cc
d66e
d6a4
d620
d6fb
d67f
d6f0
d6b6
d6e9
d602
d6a5
d6d9
d6cf
d6f1
d63a
d6d3
d611
d6c2
d606
a2bb
a291
a263
a26c
a2ea
a2fc
a25e
a226
a2b4
a240
a25a
a26b
a28b
a214
a213
a23a
a2b7
a242
a218
a20c
9303
93aa
932a
939d
9395
9344
93f4
9396
93a8
9340
9302
931a
9314
93c5
933b
9342
931b
b476
b4f5
b445
b4a4
b49d
b436
b4d6
b4e1
b4f9
b4b6
b472
b41e
b4b8
b413
b43e
b407
e762
e760
e721
e747
e7ea
e7d1
e772
e75e
e7e9
e758
e779
e7b3
e746
e7e4
e7f8
e782
e785
e7c7
e7d4
e7d2
e7ee
e70b
e711
e7a7
e718
e705
b60a
b661
b655
b647
b6f4
b62e
b6ba
b679
b649
b680
b6e2
b690
b6ce
b6ad
b623
b62d
b6f7
b6ee
b619
7852
7870
784c
7898
7864
7863
7851
786c
7848
786d
7810
787e
78e9
7858
78f2
7859
78d7
7856
78e2
7817
7823
7888
78f7
78c3
7816
78b7
781c
ab03
ab55
ab91
ab2a
ab77
aba4
ab4d
ab3f
abb6
ab72
abba
ab58
abb4
ab9e
ab93
ab8d
ab87
abc6
abcb
ab30
ab42
ab1c
ab0e
7d91
7dcc
7dfc
7d74
7d4b
7dc4
7df1
7db0
7d08
7d0c
d35b
d352
d32a
d34c
d339
d3a0
d375
d3e5
d327
d393
d3d9
d3f1
d3bd
d31c
d30d
d304
1c4a
1c33
1c4c
1cb2
1c4f
1c10
1cea
1ce1
1c7f
1c5e
1cdd
1c84
1cf8
1c9c
1ce7
a0de
a07c
a021
a068
a0b5
a0f9
a049
a09f
d47b
d4aa
d46e
d4c9
d447
d448
d454
d4ea
d4f9
d44d
d499
d4e0
d4c6
d4f6
d4c4
d489
d42b
d488
d48c
d4b0
d409
d405
8eaa
8e63
8eb5
8e6c
8e31
8e5c
8e9b
8e67
8e66
8ef4
8e72
8eba
8ea1
8ea5
8e5a
8e71
8eb3
8e17
8ecb
db69
db7b
dbbb
db81
db7c
dba6
db9d
dbbf
db4d
db7f
db75
dbd5
db5e
db78
dbe5
dba8
db56
db93
db1a
db84
db3b
dba3
db1d
db09
ec0a
ec6f
ec36
ec37
ecf0
ec2e
ec7e
ec58
ecfa
ec40
eca1
ec25
ec9e
ecc0
ec1a
ec5f
ec90
ecc4
ec23
ecae
eccd
ecc3
ec0d
ec04
d700
d7aa
d770
d76e
d74c
d710
d78e
d774
d73f
d7b4
d779
d78b
d784
d7f8
d7be
d794
d7a7
d718
71de
71ed
71aa
71f5
71a6
7164
7195
7151
71d6
7135
7172
712e
7178
71dd
719a
71e4
7114
71f1
717d
71ef
713e
710d
710c
9f2a
9f98
9f51
9f54
9f10
9f67
9fe1
9f99
9f96
9fe3
9f71
9f1e
9fad
9fc5
9fc1
9fd2
9f09
9952
992a
99a4
99a0
9931
9929
99af
9966
99ec
99d5
9978
9958
9959
99a5
99c8
99e0
99bc
99b1
99e7
993e
99b7
990d
e27b
e261
e232
e2fe
e237
e266
e272
e25e
e226
e283
e24b
e2b4
e279
e2a5
e26b
e28a
e214
e29c
e2ae
e213
e2b0
e20f
e20e
ce69
ce4a
ce33
cea6
ce38
ce68
ce47
ce6d
cee6
ceaf
cefa
cee3
ce1a
ce23
ce05
ce04
e4f5
e4f3
e4fb
e46d
e4e6
e4f9
e47e
e4ba
e458
e483
e449
e4c0
e49f
e4e0
e4c5
e4d3
e404
f701
f7ed
f761
f791
f75b
f76a
f76d
f7ea
f722
f72e
f77e
f7f2
f7ad
f7b1
f7f1
f788
f712
f73e
cf62
cf4a
cffe
cf33
cf20
cf64
cfc9
cfa0
cf9b
cf4d
cf99
cf97
cf2e
cfce
cfe7
cfb8
cfa7
cf0e
b176
b152
b1f5
b192
b15d
b19b
b1f4
b1ec
b12e
b1dc
b187
b180
b117
b1ce
b1c1
b1ef
b1d2
b116
b13e
b119
b11c
844e
8491
8477
8492
8464
845d
84d6
8499
8497
8472
844b
84b4
8471
848b
8446
84e2
84f8
84e0
84df
84c1
84e7
84cb
84c3
84d3
8415
84a2
841c
840d
df4e
dfa6
df36
dfd6
df7a
dfd5
dfe5
dfd7
df8d
df5f
dfd9
dfcf
dfb1
dfca
dfa9
df0e
b5aa
b561
b592
b5b9
b5e8
b537
b5f0
b586
b597
b572
b5e5
b5e9
b5fa
b527
b55a
b5e0
b588
b5cd
b5cb
b5c3
b5b7
b51d
9e03
9eed
9e76
9efb
9e6c
9e57
9e86
9e7e
9ea5
9ec0
9e6b
9e90
9ebe
9ebd
9ed4
9ed2
9e1b
baff
babb
ba6a
ba53
ba98
ba20
ba63
ba9b
baea
bad1
baec
ba8e
ba3f
bad5
bad7
badb
bae3
badc
baf6
badf
baf1
ba7d
bacb
ba16
ba8c
ba3e
c8aa
c8fd
c868
c863
c84f
c8d6
c8b6
c8dd
c84b
c8fa
c827
c8dc
c86b
c8b3
c885
c8bd
c888
c8cd
c8cb
c80b
c8b7
c815
c8a7
c8a9
c8ab
c80f
8bda
8b47
8b95
8b5d
8b6d
8b36
8b31
8b57
8b35
8b8f
8b97
8b2e
8be9
8ba1
8bdb
8bf8
8b14
8b82
8b85
8bb8
8bcd
8bab
bd5b
bd45
bd65
bdfd
bd92
bdb5
bd51
bda0
bd54
bd35
bd4d
bd9a
bda1
bdd7
bd2f
bde3
bd8a
bd82
bdb1
bd94
bd85
bdcb
bdd2
bdac
bd0c
ee7b
ee5b
eec9
ee6c
ee67
eef2
ee79
ee49
ee71
ee8a
eef6
eeb1
eebd
eee7
ee88
eed0
ee8c
eeb7
ee18
ee08
c64a
c6fe
c692
c668
c61f
c69d
c6e6
c6e8
c64d
c672
c6e5
c6ba
c680
c69c
c688
c6cd
c616
c612
c6a3
c68c
c6ca
9a69
9a61
9afe
9a28
9a5c
9a67
9af4
9a97
9a26
9aa8
9a9e
9adb
9a3c
9a1e
9ac6
9a14
9af6
9a85
9a30
9a0b
9ad3
9a42
9a0f
9a06
9a07
70ed
7060
70b9
704f
7057
707f
70f4
70e5
70dd
709a
709e
70c0
70b3
70f6
cb50
cb91
cb52
cb4c
cbfd
cb68
cbd8
cbd6
cbfc
cb97
cb02
cb3c
cbdc
cb5a
cb93
cb8b
cbe2
cbe0
cbe7
cbee
cbca
ebaa
eb52
ebfe
ebf3
eb98
eb34
eb6d
eb10
eb29
ebf9
eb66
eb7f
eb2e
eb78
eb83
eb93
eb80
ebe0
eb14
eb2b
eb12
ebac
eb09
eba9
eb1c
a955
a94e
a952
a921
a965
a9c9
a97a
a967
a9ea
a9f9
a9af
a9ec
a926
a94b
a9b4
a99a
a9d7
a9c8
a98a
a9f7
a98c
a90b
a90d
dd00
dd01
dd69
dd62
dd52
ddcc
dd45
dd77
dd60
dd1f
ddfb
dd95
dd37
dd7a
dd2c
dd8f
dd72
dd4b
dd25
dde3
dddc
dd84
dd14
ddc1
ddee
d576
d5f3
d5a6
d568
d55d
d5d6
d59b
d5ec
d58e
d574
d55e
d525
d5ce
d5cf
d53d
ae62
ae7c
ae9d
ae51
ae66
ae8f
aeb6
ae5e
ae78
aea8
aef6
aedf
ae2d
ae3e
aeb7
ae09
ae42
ae19
ae0e
ef0a
efed
ef81
ef28
ef36
ef5c
ef57
efea
ef74
ef72
efb4
efd7
efe4
eff8
ef3d
ef3b
eff1
efbd
ef7d
ef88
efcb
eff7
efee
ef09
ef0c
bc0a
bc70
bc21
bcd8
bcd6
bc7a
bcfc
bc72
bc02
bcd7
bc80
bc2b
bccd
bcd0
bc3e
bcb0
bcc2
d2de
d269
d2bb
d261
d24c
d220
d247
d24f
d254
d2e8
d2f4
d286
d222
d25e
d2b4
d2fa
d227
d2b3
d217
d223
d27d
d2cb
d2d0
d2ee
d2ac
d2b0
d2d3
d2a9
d2ab
c3ed
c362
c3ff
c37b
c3cc
c32a
c34c
c364
c3c9
c39d
c3fc
c3ba
c340
c39a
c302
c349
c39e
c32f
c3e0
c382
c32b
c3d4
c3d2
c3a3
c33e
c311
b84e
b838
b8c9
b89d
b857
b8e1
b899
b822
b87e
b8ba
b8f2
b8fa
b8a5
b8e3
b884
b8c4
b8c1
b8ca
b8ab
b80f
9400
9463
9466
94e9
9496
9479
946b
948b
943b
9430
9416
941d
9405
9408
8a62
8a61
8a47
8a5d
8ae6
8a10
8a58
8af2
8a24
8ac0
8a1e
8ae4
8af8
8ac7
8a7d
8acd
8ab0
8ab7
8a19
8a0f
8a05
8c4a
8ca4
8c34
8c51
8c4f
8ce1
8c75
8cec
8c4b
8c59
8c27
8ce0
8cc6
8cad
8c30
8cee
8c19
8c08
9538
9564
95da
9541
9548
954f
9535
9510
95f4
9558
95ad
95bc
9585
95eb
95ca
95a7
951b
c7bb
c77c
c76e
c758
c79e
c75a
c787
c75f
c7cf
c794
c73e
e5f3
e538
e595
e543
e59b
e554
e529
e5f9
e58f
e586
e52e
e57e
e5f2
e54b
e59e
e56b
e556
e59f
e5e4
e530
e516
e5a3
e53a
dcff
dc91
dc5b
dccc
dc20
dc41
dc43
dc7f
dc72
dc2e
dc4b
dcfa
dc40
dc9f
dc9c
dcc5
dc94
dcc7
dcb8
dcb7
dc09
dcca
dc15
dc1c
dcab
cd62
cd7c
cd64
cd29
cd8e
cd9a
cdc0
cde4
cd17
cd89
cdf1
cdb8
cd30
cda3
cd08
b791
b75b
b752
b7a4
b792
b768
b7d6
b757
b735
b74d
b766
b7ec
b778
b7e0
b7f6
b782
b7b1
b7bd
b7f7
b7d3
b711
b7c2
b70c
9c03
9c50
9c62
9c52
9c60
9c38
9cfb
9c31
9cd6
9c5e
9ce5
9c40
9c25
9cc0
9cb3
9ce0
9cc6
9c3b
9c88
9c08
ca55
ca52
ca98
ca65
ca28
ca48
ca9b
ca35
ca66
cad1
caec
ca74
ca5e
ca2e
caba
cadc
ca17
cace
caf6
ca3b
ca94
cae7
caf7
ca08
ca04
c255
c26a
c24c
c2b2
c2e6
c235
c299
c224
c256
c289
c29c
c285
c2b8
c2cd
c2eb
c242
c20f
c20c
60de
60cc
6045
60f3
609b
608f
60d1
60e5
6079
6071
6080
60eb
60b0
60b7
c569
c56e
c533
c568
c551
c5b2
c529
c5f0
c586
c59f
c5f8
c5ae
c5ef
c5a3
c53a
c5b0
307c
306e
3028
3041
3051
306c
30bf
30e6
30fa
309a
30db
3093
3071
30e2
3090
30f8
30c5
30c1
30b8
30ee
30b7
f068
f0b9
f09b
f08e
f097
f096
f0f2
f056
f09c
f0f1
f0d4
f0b8
4062
404e
4091
406e
40f5
4053
40fb
40b6
40d5
405e
4026
4096
4056
408c
b02a
b0fd
b0b5
b06d
b0d6
b057
b0ea
b0d1
b0f4
b096
b0c4
b0c5
b0e7
b088
b0ee
e04e
e0f3
e020
e0fd
e028
e029
e08f
e08e
e0fa
e040
e02f
e05a
e06b
e0c8
e046
e0e2
e0bc
e0f1
e0cd
e0d2
d050
d0ed
d062
d055
d065
d028
d0b2
d05d
d044
d0d1
d078
d0f2
d0fa
d071
d05f
d0e4
d0c4
d0bc
d0cb
d0ee
d0ca
c0cc
c0b5
c0e6
c02c
c0fc
c0d5
c072
c02e
c079
c08b
c0d9
c0f6
c0f1
c0e7
1004
1008
030d
e008
e007
0211
0a70
200d
200f
8005
8011
0327
0325
2106
210c
500f
5002
5003
4007
4006
400e
b002
c00f
c003
6001
6006
600f
950f
950e
5507
301b
301e
450c
203d
203a
2033
6502
d50b
d50e
f50c
7508
3507
3509
b508
b50f
8507
a011
a01d
a018
a50c
e506
150d
1507
b037
b014
f01d
f016
f015
f01c
2013
c014
7010
9014
901b
703b
d012
d01c
e011
e017
e015
e01c
f0a0
a0a1
603b
40ad
d0ad
d0a4
8038
803f
8032
803c
e0ad
e0a6
e0a5
e0ae
9036
9035
9032
70a8
a03b
a035
a03f
e03b
50a1
50ac
50ae
403d
4033
d034
d03e
b0a4
90a7
30ad
30ab
30a9
00df
0177
0167
0159
0117
019c
08b9
0847
086c
08bf
0837
08af
08dd
082f
0827
0884
0882
083d
08bd
08cd
0812
080b
081b
080c
0806
0a0a
0a91
0acc
0a92
0aea
0ab6
0a6b
0a1e
0a14
0af6
0abc
0ac5
0a94
0aae
0a88
0acd
0af7
0a12
0aa3
0ac2
0aa9
03f5
0347
039b
0337
03ec
03e5
0396
03a1
03d9
03ae
10f3
105c
1010
102c
1026
10f2
1027
105f
10e7
02de
0253
02a4
0247
02b5
027f
02fc
0222
022e
02ba
02d9
02c3
02d3
17f5
1745
1733
17fd
176c
1737
17d1
1774
1726
1756
1780
17e2
17d9
1714
17cf
17eb
17ac
1801
1891
1833
1821
1841
18f0
185e
184b
1825
1827
1880
18e2
189c
18bc
181c
734c
7360
7398
7363
7354
7366
73d1
73ba
7358
7356
7393
739f
73c8
735f
7389
73be
2303
2391
235b
2353
2368
2357
2335
23ea
2344
2366
23f0
23fa
235a
2387
2346
2314
23ce
239c
23b8
231d
2309
230c
de6f
de60
de98
de65
defd
de47
de5d
de43
def0
ded5
de72
de2e
de96
de56
de1a
deb3
de90
dee4
de14
de89
debc
dec1
de30
dec3
de11
dea7
2150
21de
215b
2134
21b2
2136
2131
2154
2137
217a
2199
21f0
21d1
2174
2178
21a1
215f
21e0
21c6
217d
21b8
21cd
21a3
21ac
502a
5065
5064
50e6
50f9
504d
5099
5075
50b6
5097
5078
5079
508b
5087
507d
5042
beaa
bef3
be95
bed6
be3f
be97
befa
be93
be9f
bef8
be8a
becf
be12
bea3
beab
be0f
be08
be06
610a
615b
617c
6177
61f3
61b9
61fb
61b2
6139
6144
617e
6126
61db
61c0
6182
61f1
61ee
6142
6115
6118
610d
6f91
6fcc
6fb9
6f31
6fd6
6f35
6f79
6f5f
6f8a
6fc5
6fa7
6f1c
6f05
0569
0532
0545
05f3
05b9
0547
0595
054f
0536
05e6
05e8
057f
052c
05d5
05b1
05bd
05a3
05a9
051b
aa5b
aaf5
aa51
aa48
aae6
aa35
aae1
aad1
aa83
aa59
aa93
aa71
aa80
aac8
aaab
aa08
1aaa
1a70
1a6e
1a6a
1a53
1a6d
1ae6
1a2c
1ae5
1a26
1af2
1a79
1a59
1a9e
1adb
1a87
1a80
1ac8
1a84
1af6
1ac4
1aef
1aee
1ac2
1a1b
1a0c
ffed
ff32
ffda
ffd8
ff31
ff8f
fffc
ffb6
ff87
ffbd
ff88
ffa3
ff8c
ffac
ffb0
ffab
7c76
7c6e
7c21
7ca4
7cea
7c2c
7cd1
7c75
7c8e
7c97
7ce5
7c40
7c02
7c25
7c9f
7c17
7c14
7cce
7c89
7cb1
7c94
7c2d
7ccd
7cf7
7c8c
7cb0
7c11
7c0d
697b
695b
6998
69d8
6963
6951
69ea
69b6
6972
6949
699f
69d9
6994
692d
692b
69b0
69b7
6908
cc7c
cc77
cc65
cc34
cc1f
cc47
cc36
cc37
cc26
cc79
cc02
cc24
cc71
ccf8
ccc1
cccb
ccc3
ccb0
cc42
cca9
cc04
ed03
ed4e
ed91
ed7c
ed98
ed31
edea
ed7f
ed99
ed86
ed26
ed4b
ed24
eda5
eddc
ed6b
ed1a
edce
edf6
ed06
627b
62aa
624e
62f3
62a6
62a4
62fd
6239
62e8
62e1
628e
62b4
6249
623c
625a
62e2
6217
6282
623b
62ae
62c1
62d0
62b7
621d
6209
6215
4f28
4fe6
4f99
[...]
